<unk>	0
<s>	0
</s>	0
।	-2.48658
,	-3.60511
র	-4.169
ের	-4.22698
▁তিনি	-4.54746
▁না	-4.74502
▁করে	-4.90157
-	-4.95046
?	-5.09216
▁ও	-5.20939
▁এবং	-5.23335
▁এই	-5.25402
▁	-5.31288
ই	-5.33836
▁তার	-5.34017
▁করেন	-5.38235
▁আমি	-5.38299
▁থেকে	-5.41126
▁জন্য	-5.55835
▁একটি	-5.56828
▁আমার	-5.601
ও	-5.64687
▁করা	-5.67746
কে	-5.74686
!	-5.7837
▁ছিল	-5.79632
▁করতে	-5.84802
▁হয়	-5.87672
▁হবে	-5.94018
▁কিন্তু	-5.94275
▁হয়ে	-5.95343
ে	-5.98587
▁আছে	-6.01161
▁আর	-6.01838
▁ছিলেন	-6.02212
▁হয়েছে	-6.04018
▁নিয়ে	-6.04575
▁সে	-6.04716
▁এ	-6.07553
▁কথা	-6.1634
▁কিছু	-6.19318
▁তুমি	-6.21881
▁মধ্যে	-6.22791
▁যে	-6.22909
▁এটি	-6.24429
▁সঙ্গে	-6.28793
▁তাঁর	-6.31984
▁আমাদের	-6.32473
▁কাজ	-6.35687
▁সাথে	-6.3686
▁আমরা	-6.37016
▁তো	-6.38143
▁একটা	-6.3937
▁তোমার	-6.39497
▁তবে	-6.39962
▁মনে	-6.39994
▁এর	-6.4003
▁এক	-6.40322
▁কোনো	-6.40727
▁হিসেবে	-6.40743
▁কি	-6.41434
▁অনেক	-6.43515
▁তাদের	-6.45429
▁রয়েছে	-6.48007
দের	-6.48113
▁প্রথম	-6.48823
▁দিয়ে	-6.50472
▁বলে	-6.52546
▁একজন	-6.53793
য়	-6.54173
▁পারে	-6.55136
▁করেছেন	-6.55716
▁এটা	-6.56146
▁কী	-6.56391
▁তারা	-6.58839
▁থাকে	-6.60764
▁এখন	-6.61345
তে	-6.61599
▁কাছে	-6.63044
▁হচ্ছে	-6.63505
▁সেই	-6.63958
▁যায়	-6.64095
▁শুরু	-6.67224
▁করার	-6.68099
▁বিভিন্ন	-6.69089
▁নেই	-6.69819
▁হন	-6.77244
▁আমাকে	-6.77864
▁পরে	-6.77989
▁তাকে	-6.78262
▁সময়	-6.78549
▁দুই	-6.83667
▁হতে	-6.85525
▁তাই	-6.88231
▁কোন	-6.891
▁এখানে	-6.89139
▁দিকে	-6.89834
▁বা	-6.90423
▁গেছে	-6.9119
▁মতো	-6.92695
▁শেষ	-6.94447
▁ভালো	-6.96046
▁দেখা	-6.96053
▁করেছিলেন	-6.9794
▁নাম	-6.98241
▁তা	-7.0043
▁পর	-7.01262
▁নয়	-7.02298
▁খুব	-7.04457
▁প্রধান	-7.04554
▁বেশ	-7.04713
▁বেশি	-7.04913
▁আগে	-7.05883
▁চলে	-7.07165
▁তখন	-7.0751
▁করেছে	-7.07884
▁দিন	-7.08362
▁যা	-7.09099
▁হয়েছিল	-7.09274
▁ঠিক	-7.10247
▁করিয়া	-7.11479
▁এমন	-7.13569
▁আবার	-7.1399
▁দিতে	-7.15814
▁"	-7.17443
▁পর্যন্ত	-7.18916
▁আপনি	-7.18939
▁কেন	-7.19008
টা	-7.21585
▁নতুন	-7.2258
▁দেওয়া	-7.23256
▁বছর	-7.23589
টি	-7.23683
▁কারণ	-7.24415
▁আপনার	-7.24592
▁যেতে	-7.24729
▁সব	-7.25585
▁নিজের	-7.25938
▁উপর	-7.26424
▁দেন	-7.26554
▁হলে	-7.27097
"	-7.28655
▁গেল	-7.29142
▁আরও	-7.2943
▁তাঁদের	-7.29773
▁সেখানে	-7.30731
▁যান	-7.3078
▁যদি	-7.30852
▁কারণে	-7.31262
▁অংশ	-7.31811
▁চেষ্টা	-7.32339
▁এসব	-7.34357
▁পড়ে	-7.34435
▁লাভ	-7.34602
▁যাবে	-7.34719
▁তাঁকে	-7.34867
▁তোমাকে	-7.34935
▁দায়িত্ব	-7.35339
▁হল	-7.36416
▁ঢাকা	-7.37194
▁গতকাল	-7.37229
▁অবস্থিত	-7.37426
▁ধরে	-7.38118
▁হইয়া	-7.38462
▁পালন	-7.38778
▁বাংলাদেশ	-7.39526
▁নাই	-7.39594
▁মা	-7.40166
▁মানুষ	-7.40324
▁তৈরি	-7.40434
▁তিন	-7.40566
▁শুধু	-7.41085
▁ব্যবহার	-7.41379
▁পুলিশ	-7.41934
▁বাবা	-7.4386
▁যেন	-7.44285
▁প্রতি	-7.45403
▁গিয়ে	-7.45482
▁অন্য	-7.46161
▁করি	-7.4621
▁তাহার	-7.46256
ন	-7.48746
▁তাঁরা	-7.49317
▁এরপর	-7.49925
▁দেশের	-7.50969
া	-7.5132
▁মাধ্যমে	-7.5171
▁একটু	-7.5178
▁বর্তমানে	-7.51813
ভাবে	-7.52807
▁করছে	-7.53051
▁হলো	-7.53084
ি	-7.5366
▁একই	-7.54282
▁বাংলাদেশের	-7.54307
▁আজ	-7.54828
▁দুটি	-7.55635
▁বিশেষ	-7.55753
ী	-7.55957
▁দক্ষিণ	-7.55985
▁হইতে	-7.56726
▁হিসাবে	-7.56745
▁ভারতের	-7.57457
▁দলের	-7.58257
▁করিতে	-7.58657
রা	-7.59273
▁এতে	-7.59294
▁যখন	-7.5965
▁পাওয়া	-7.59972
▁পরিচিত	-7.60269
▁নামে	-7.60491
▁স্যার	-7.60863
▁সদস্য	-7.60897
▁ফিরে	-7.6102
▁ভাই	-7.61747
▁করবে	-7.62139
▁কলেজ	-7.62655
▁এসে	-7.63072
সহ	-7.64646
▁মানুষের	-7.65506
▁হাতে	-7.6594
▁ওপর	-7.66441
▁অন্যতম	-7.66506
▁ফলে	-7.66642
▁দ্বারা	-7.66758
▁দেখতে	-7.6678
▁বন্ধ	-7.67051
▁করছেন	-7.67682
▁উত্তর	-7.67761
▁বিরুদ্ধে	-7.68181
▁কেউ	-7.68522
▁করতেন	-7.68731
▁সামনে	-7.68998
▁বলতে	-7.69649
▁হওয়ার	-7.69695
▁ঐ	-7.69726
▁ছোট	-7.69846
▁বলা	-7.70961
▁দেখে	-7.71379
▁কে	-7.71534
▁শিক্ষা	-7.71928
▁পুরস্কার	-7.72508
▁হাসপাতালে	-7.72557
▁বের	-7.72784
▁গ্রহণ	-7.73026
▁টাকা	-7.73251
িত	-7.73542
▁চাই	-7.73905
▁পারি	-7.75301
▁জাতীয়	-7.75667
▁বিশ্ববিদ্যালয়ে	-7.75855
▁ব্যবস্থা	-7.76015
▁নিতে	-7.76025
▁করো	-7.76168
▁হয়নি	-7.76453
▁জীবন	-7.77694
▁সেটা	-7.79323
▁কখনো	-7.79471
▁সময়ে	-7.79783
▁সুযোগ	-7.7985
▁বিষয়ে	-7.79947
▁পক্ষে	-7.80842
▁তাহলে	-7.80964
▁প্রকাশ	-7.81023
▁হাত	-7.81118
▁অর্জন	-7.814
▁বাড়ি	-7.8184
▁এছাড়াও	-7.82007
▁সবচেয়ে	-7.82277
▁অন্যান্য	-7.8284
▁ক্রিকেট	-7.83503
▁থাকেন	-7.83625
▁নি	-7.83963
▁গুরুত্বপূর্ণ	-7.84437
▁পারেন	-7.84788
▁বড়	-7.8537
▁তুই	-7.85383
▁কর	-7.8573
▁সরকার	-7.8641
▁আসে	-7.86662
▁অবস্থান	-7.86803
▁হ্যাঁ	-7.86864
▁চেয়ে	-7.88504
▁পাশাপাশি	-7.88795
▁ধরনের	-7.88804
▁কহিল	-7.88893
▁সবাই	-7.89314
▁ক্ষেত্রে	-7.8981
ীয়	-7.91096
▁যাচ্ছে	-7.9131
▁ওকে	-7.91551
▁চলচ্চিত্র	-7.91929
▁জানি	-7.92327
▁সাধারণ	-7.92409
▁পান	-7.9401
▁কয়েকটি	-7.94022
▁আন্তর্জাতিক	-7.94778
▁চার	-7.95042
▁পরিচালনা	-7.96175
▁বিশ্বাস	-7.96203
▁দেশে	-7.96714
▁সম্পর্কে	-7.96796
▁মত	-7.96914
▁থাকতে	-7.96926
▁দাবি	-7.97122
▁তারপর	-7.97175
▁ঘরে	-7.97403
▁বাইরে	-7.975
▁কেবল	-7.979
▁থেকেই	-7.98472
▁কোথায়	-7.98627
▁অভিযোগ	-7.98711
▁মারা	-7.99584
▁দাও	-7.99673
▁মূল	-7.99799
▁সাহায্য	-8.00406
▁থাকা	-8.00822
▁ছাড়া	-8.01052
▁জেলা	-8.01208
▁এবার	-8.01216
▁এখনো	-8.01377
▁তোর	-8.01394
▁আশা	-8.01518
▁করলে	-8.01672
▁নানা	-8.02439
▁তুলে	-8.02497
▁হইল	-8.02624
▁ধারণা	-8.02745
স	-8.02804
▁হইবে	-8.02844
▁পাঁচ	-8.03372
▁লোক	-8.03783
▁বসে	-8.04057
▁মাঝে	-8.04102
▁ভারত	-8.04335
▁মুখ	-8.04486
▁সকল	-8.0479
▁দল	-8.04961
ো	-8.05011
▁কয়েক	-8.05187
▁হত্যা	-8.05241
▁দেয়	-8.05337
▁নিজেকে	-8.05567
▁কিছুই	-8.06258
▁তাঁহার	-8.0628
▁অর্থ	-8.06613
▁যেমন	-8.07047
▁প্রয়োজন	-8.07972
▁পূর্ব	-8.08017
▁পরিবারের	-8.08111
▁করেছিল	-8.08268
▁গেলে	-8.08709
▁কাজে	-8.08916
গুলো	-8.08953
▁সমস্ত	-8.09171
▁সমস্যা	-8.09256
▁খবর	-8.09342
▁অবস্থায়	-8.09397
▁পানি	-8.09626
▁যাওয়ার	-8.09834
▁যোগ	-8.09858
▁বাংলা	-8.09874
▁বিষয়	-8.09914
▁হয়তো	-8.10157
▁হলেও	-8.10185
▁করব	-8.1071
▁শেষে	-8.10735
▁নেন	-8.1104
▁বললেন	-8.11286
▁প্রায়	-8.11577
▁করছি	-8.11585
▁মেয়ে	-8.11857
▁পাশে	-8.12261
▁ছেড়ে	-8.12293
▁মেডিকেল	-8.12519
▁জানা	-8.12688
▁তোমাদের	-8.12723
▁সদর	-8.12839
▁তিনটি	-8.12966
▁ক্রিকেটে	-8.12976
▁ভাষা	-8.13008
▁আছেন	-8.13256
▁সম্ভব	-8.13581
▁গান	-8.13685
▁বর্তমান	-8.14159
▁মুখে	-8.14235
▁নেওয়া	-8.14305
▁রেখে	-8.14404
ল	-8.1441
▁দরকার	-8.14567
▁বাড়িতে	-8.14607
▁এত	-8.14659
▁ছবি	-8.15884
▁মধ্য	-8.16057
▁তোমরা	-8.16352
▁জেলার	-8.16483
▁দেশ	-8.16561
▁নারী	-8.17127
▁আসেন	-8.17171
▁শহরের	-8.17492
▁তথ্য	-8.17654
▁দেওয়ার	-8.17835
▁রাজধানী	-8.1797
▁বলিয়া	-8.18164
▁ভয়	-8.18647
▁একমাত্র	-8.18837
▁সরকারের	-8.19137
▁রাখা	-8.19144
▁ওর	-8.19427
▁যার	-8.19535
▁মূলত	-8.1965
▁করেছি	-8.20132
▁সিদ্ধান্ত	-8.20352
▁কাছ	-8.20458
▁মন	-8.20774
▁বুঝতে	-8.20958
▁নাকি	-8.21007
▁একবার	-8.21348
▁অত্যন্ত	-8.21505
▁ঘটে	-8.21532
▁মাত্র	-8.21767
▁নিশ্চিত	-8.2177
▁ঘটনা	-8.21956
▁হাজার	-8.22263
▁চট্টগ্রাম	-8.22392
▁পারবে	-8.22473
▁অপেক্ষা	-8.22686
▁কম	-8.22876
▁ভর্তি	-8.23151
▁যাও	-8.23233
▁বিয়ে	-8.23323
▁বহু	-8.23387
এর	-8.23599
▁যেখানে	-8.23947
▁দ্রুত	-8.24233
▁রাজনৈতিক	-8.24233
▁ভূমিকা	-8.24454
▁এদের	-8.24704
▁হওয়া	-8.25305
▁ছেলে	-8.25569
▁ইসলাম	-8.26451
▁থাকবে	-8.26478
▁দিয়েছে	-8.26628
▁খান	-8.26778
▁ব্যাপারে	-8.26833
▁কেমন	-8.26972
▁সৃষ্টি	-8.27096
▁কাল	-8.27252
▁শহর	-8.27423
▁নিজেদের	-8.27846
▁এসেছে	-8.27877
▁যাওয়া	-8.28235
▁সরকারি	-8.2826
▁দিয়েছেন	-8.28586
▁জীবনে	-8.28786
▁ফেলে	-8.29195
▁করবেন	-8.2932
▁খেলা	-8.29356
▁জীবনের	-8.29724
▁আলোচনা	-8.29781
▁প্রবেশ	-8.29786
▁পছন্দ	-8.30406
▁কহিলেন	-8.30852
▁স্ত্রী	-8.30881
▁ঘোষণা	-8.31198
▁অবস্থা	-8.31609
▁রাখতে	-8.31718
▁চায়	-8.32045
▁ভুল	-8.32343
▁শহরে	-8.32378
▁আইন	-8.32743
▁দলে	-8.32808
▁আপনাকে	-8.33684
▁বিভাগের	-8.33684
▁রাতে	-8.34114
▁অংশগ্রহণ	-8.34188
▁পেয়ে	-8.34396
▁কেন্দ্র	-8.35126
▁জন্যে	-8.35543
▁বললে	-8.35598
▁বিশ্ববিদ্যালয়	-8.35699
▁পুরো	-8.35841
▁বাস	-8.35926
বার	-8.3595
▁পথে	-8.36008
▁থানা	-8.36447
▁মার্কিন	-8.36518
▁তাহা	-8.36741
▁আরো	-8.37036
▁পিতা	-8.37333
▁বলেন	-8.37548
▁পূর্বে	-8.38085
▁ধর্ম	-8.38103
▁স্থান	-8.38386
▁পড়াশোনা	-8.38528
▁খুঁজে	-8.38668
▁খেলার	-8.38919
▁কলেজে	-8.3909
▁এলাকায়	-8.39544
▁সন্তান	-8.39583
▁এরা	-8.40148
▁কাজের	-8.4032
▁টেস্ট	-8.40573
▁বছরের	-8.40591
▁নিকট	-8.40958
▁রচনা	-8.41053
▁স্থানে	-8.41249
▁যুক্ত	-8.41369
▁মাথা	-8.41777
▁অবশ্য	-8.42012
▁আচ্ছা	-8.42021
▁উপজেলার	-8.42031
▁একদিন	-8.42056
▁বন্ধু	-8.42198
▁শক্তি	-8.42363
▁সত্য	-8.42414
▁দিক	-8.42832
▁পরিবর্তন	-8.42882
▁খারাপ	-8.42957
▁রাজা	-8.43112
▁সংখ্যা	-8.43224
▁ওই	-8.43267
▁সারা	-8.43473
▁ব্যক্তি	-8.43546
ক	-8.43616
▁পরিচালক	-8.4375
▁সকালে	-8.43923
▁যারা	-8.44064
▁হয়েছিলেন	-8.44072
▁খুবই	-8.44147
▁ওরা	-8.44514
▁চলচ্চিত্রটি	-8.44693
▁এছাড়া	-8.45002
▁নির্বাচিত	-8.45082
▁শিক্ষক	-8.45242
▁দু	-8.45275
না	-8.45613
▁হতো	-8.45648
▁মাসে	-8.45677
▁পাকিস্তান	-8.45866
▁করিল	-8.45918
▁বিষয়টি	-8.45967
▁চোখ	-8.45993
▁স্কুল	-8.46263
▁সুন্দর	-8.46376
▁বিপক্ষে	-8.46429
▁অ	-8.4666
▁শব্দ	-8.46729
▁প্রতিটি	-8.46762
▁তৃতীয়	-8.46806
▁কার্যক্রম	-8.46841
▁বল	-8.47009
▁সেরা	-8.47177
▁আল	-8.47413
▁জানতে	-8.4754
▁মানে	-8.47548
▁খাবার	-8.47703
▁মুসলিম	-8.47774
▁নির্মাণ	-8.47801
▁উচিত	-8.47857
▁মাস	-8.48171
▁পরীক্ষা	-8.48245
▁কীভাবে	-8.48549
▁গল্প	-8.48587
▁বলো	-8.48671
▁বিশ্বের	-8.48767
▁ধীরে	-8.48795
▁সভাপতি	-8.489
▁পরিকল্পনা	-8.49002
▁চিন্তা	-8.49292
▁বিখ্যাত	-8.49448
▁যুদ্ধ	-8.49452
▁সম্পর্ক	-8.49594
▁কখনও	-8.49736
▁বিভাগে	-8.49825
▁জন্মগ্রহণ	-8.49859
▁পরিবার	-8.50021
▁সম্পূর্ণ	-8.50077
▁লইয়া	-8.50463
▁ভারতে	-8.50657
▁কত	-8.50743
▁একে	-8.50782
▁যদিও	-8.50835
▁নিজ	-8.50871
▁ইচ্ছা	-8.51037
▁গুলি	-8.51041
▁নদী	-8.51165
▁হত	-8.5134
▁আসছে	-8.51621
▁প্রথমে	-8.51738
▁লক্ষ্য	-8.51785
▁গ্রেপ্তার	-8.52158
▁গড়ে	-8.52233
▁অধিকার	-8.52379
▁ভাল	-8.52673
▁প্রদান	-8.5276
▁স্থানীয়	-8.52779
▁দিনের	-8.53425
▁আলী	-8.53436
▁জন্ম	-8.53598
▁ইউনিয়ন	-8.53713
▁তাতে	-8.53725
▁লেখা	-8.53885
▁মাঠে	-8.54249
▁পায়	-8.54415
▁লাগিল	-8.54446
▁রাস্তা	-8.54516
▁থাকার	-8.54618
▁কঠিন	-8.54685
▁প্রতিষ্ঠান	-8.54687
▁ওহ	-8.54813
▁আগেই	-8.5483
▁সাধারণত	-8.54965
▁ব্রিটিশ	-8.55093
▁ভাগ	-8.5528
▁গাড়ি	-8.55348
▁পথ	-8.55378
▁প্রাথমিক	-8.55396
▁অঞ্চলে	-8.55402
▁আসতে	-8.55431
▁নেয়	-8.55601
▁গবেষণা	-8.55734
▁জায়গায়	-8.55844
▁সড়ক	-8.55999
▁জায়গা	-8.56042
▁কিংবা	-8.56346
▁নেওয়ার	-8.56472
▁পুলিশের	-8.56575
▁পরবর্তীতে	-8.5683
▁হঠাৎ	-8.56903
▁করলেন	-8.57008
▁হয়েছেন	-8.57019
▁ফোন	-8.57066
▁এগিয়ে	-8.57271
▁অনুযায়ী	-8.5741
▁প্রতিনিধিত্ব	-8.57524
▁আসলে	-8.57905
▁দ্বিতীয়	-8.58084
▁মায়ের	-8.5827
▁পরবর্তী	-8.58279
▁সবার	-8.5856
▁এখনও	-8.58584
▁লাগে	-8.58589
▁দেখি	-8.58602
▁বই	-8.58623
▁দিয়া	-8.58725
▁রহমান	-8.58751
▁এভাবে	-8.58819
▁মামলা	-8.58831
▁সামাজিক	-8.59078
▁ভিন্ন	-8.59284
▁নিজে	-8.59973
▁নিচে	-8.60154
▁টেস্টে	-8.6017
▁মহিলা	-8.60242
▁উচ্চ	-8.60304
▁প্রাচীন	-8.60383
▁অবশ্যই	-8.60402
▁স	-8.60412
▁আরে	-8.60546
▁মৃত্যুর	-8.60881
▁ভেতরে	-8.60956
▁প্রভাব	-8.61132
▁সম্পাদক	-8.6121
▁জড়িত	-8.61471
▁থাকলে	-8.61723
শ্রেণীর	-8.61834
▁আলাদা	-8.62302
▁নদীর	-8.62354
▁বাবার	-8.62418
▁বাংলাদেশে	-8.6264
▁মাথায়	-8.63356
▁পুত্র	-8.63484
▁মৃত্যু	-8.63622
▁আসা	-8.63694
▁ওদের	-8.63829
▁কোথাও	-8.6393
▁ছাত্র	-8.63971
▁রাত	-8.64204
▁আধুনিক	-8.64553
সব	-8.64745
▁নির্বাচন	-8.64748
▁হিন্দু	-8.64813
▁যিনি	-8.64969
▁আছি	-8.65233
▁চালু	-8.6537
▁সর্বোচ্চ	-8.65459
▁করুন	-8.65683
▁ক্ষমতা	-8.65787
▁অনুষ্ঠিত	-8.65845
▁দূরে	-8.66084
▁এলাকার	-8.66149
ত	-8.66216
▁বাড়ির	-8.66225
▁হলেন	-8.66415
▁সাত	-8.66444
▁আসিয়া	-8.66469
▁বিচার	-8.67067
▁উপরে	-8.67287
▁যোগাযোগ	-8.67336
▁যাই	-8.67356
▁নিসার	-8.67466
▁আলি	-8.67591
▁আহত	-8.68103
▁পদে	-8.68122
▁মোহাম্মদ	-8.6826
▁রক্ষা	-8.68351
▁সম্বন্ধে	-8.68358
▁অল্প	-8.68535
▁এগুলো	-8.68547
▁বৃদ্ধি	-8.68676
▁যথেষ্ট	-8.68878
▁এলাকা	-8.68882
▁সহ	-8.68925
ার	-8.69039
▁পার	-8.6922
▁প্রশ্ন	-8.69225
▁পাঠানো	-8.69497
▁চান	-8.69534
▁আঘাত	-8.69794
▁চোখে	-8.69795
▁পশ্চিম	-8.69818
▁মতে	-8.70288
▁বলেছেন	-8.7041
▁বিক্রি	-8.70452
▁স্বামী	-8.70568
▁ধরা	-8.70726
▁প্রমাণ	-8.70765
▁ছিলো	-8.71008
▁পারব	-8.71155
▁হোক	-8.71204
▁মাছ	-8.71279
▁তেমন	-8.71295
▁লোকজন	-8.71338
▁লাশ	-8.71346
▁আয়োজন	-8.7145
▁অতি	-8.71645
▁শিশু	-8.71756
▁দূর	-8.72007
▁বাকি	-8.7211
▁গঠন	-8.72628
▁দীর্ঘ	-8.7263
▁গ্রামের	-8.72683
▁যত	-8.72835
▁কিছুটা	-8.72862
▁ঘরের	-8.73048
▁পর্যায়ে	-8.73079
▁ব্যাটসম্যান	-8.73285
▁ইতিহাস	-8.73359
▁জিজ্ঞাসা	-8.73422
▁এটাই	-8.73442
▁সমগ্র	-8.73551
এ	-8.74043
▁সময়ের	-8.74055
▁বোধ	-8.74403
▁চারটি	-8.74438
▁ওটা	-8.74822
▁কলেজের	-8.75118
▁পরিণত	-8.75201
▁ওঠে	-8.75245
▁বলিল	-8.75316
▁পেতে	-8.75414
▁ঘরোয়া	-8.75545
▁অঞ্চলের	-8.75574
▁ব্যাপার	-8.75602
▁রকম	-8.75646
▁ভাবে	-8.75726
▁দেব	-8.75933
▁আসবে	-8.75955
▁নির্দেশ	-8.76062
▁বোন	-8.76144
▁সহজ	-8.76185
▁চলছে	-8.76227
▁প্রশিক্ষণ	-8.76244
▁বড়ো	-8.76368
▁সঙ্গীত	-8.7639
▁লাল	-8.76392
▁চিকিৎসা	-8.76448
▁স্কুলে	-8.76466
▁চালিয়ে	-8.76566
▁গেছেন	-8.76633
▁জ্ঞান	-8.76774
▁অন্তর্ভুক্ত	-8.76933
▁আদালত	-8.76999
▁সাদা	-8.77091
▁আগের	-8.77186
▁আয়	-8.77296
▁একেবারে	-8.77413
▁আগুন	-8.77568
▁পারেননি	-8.7761
▁বসবাস	-8.77638
▁কলকাতা	-8.77746
▁অঞ্চল	-8.77866
▁এশিয়া	-8.7799
▁লাগবে	-8.78078
▁ভাব	-8.78425
▁কর্মকর্তা	-8.78478
▁-	-8.78577
▁দরজা	-8.78594
▁পাকিস্তানের	-8.78716
▁হোসেন	-8.78844
▁প্রস্তুত	-8.78877
▁অধ্যাপক	-8.789
▁প্রশাসনিক	-8.7897
▁দিলে	-8.78979
▁বলছি	-8.79183
▁হইয়াছে	-8.792
▁রাজ্য	-8.79402
▁উল্লেখযোগ্য	-8.79537
▁সংবাদ	-8.79563
▁নির্মিত	-8.7961
▁উপস্থিত	-8.79673
▁মহেন্দ্র	-8.79775
▁আবেদন	-8.79903
▁উঠে	-8.79903
▁জানায়	-8.80245
▁দাঁড়িয়ে	-8.80266
▁ইত্যাদি	-8.8054
▁খেলোয়াড়	-8.80546
▁বিভাগ	-8.80602
▁দিলেন	-8.80671
▁ফল	-8.80707
▁সহিত	-8.80804
▁একাধিক	-8.80929
▁আক্রমণ	-8.81106
▁যাহা	-8.81143
▁ফুটবল	-8.81189
িক	-8.81205
▁খুশি	-8.81473
▁ভেঙে	-8.81586
▁গঠিত	-8.81606
▁অফ	-8.81978
ম	-8.81991
▁ইহা	-8.82048
▁নিহত	-8.82098
▁চলো	-8.82182
▁জানে	-8.82185
▁সংগ্রহ	-8.8224
▁প্রতিষ্ঠা	-8.82258
▁জন	-8.82266
কার	-8.82289
▁শিল্প	-8.82384
▁নামের	-8.82411
▁ইংরেজি	-8.82516
▁রাজ্যের	-8.82632
▁সহায়তা	-8.82711
▁দিল	-8.82765
▁পা	-8.82854
▁সকাল	-8.82961
▁রায়	-8.82986
▁বার	-8.83103
▁এমনকি	-8.83117
▁বাধা	-8.83173
▁চিঠি	-8.83261
▁তাহাকে	-8.83452
▁সামরিক	-8.8349
▁বিজ্ঞান	-8.83771
▁পৃথিবীর	-8.83927
▁শরীর	-8.83977
▁পরিচালিত	-8.84139
▁লাগছে	-8.8427
▁সাবেক	-8.8436
▁নিয়মিত	-8.84435
▁হেই	-8.84452
▁পক্ষ	-8.84587
▁মেরে	-8.8476
▁বলল	-8.8483
▁তোকে	-8.84866
▁অধিকাংশ	-8.8493
▁ধন্যবাদ	-8.85341
▁করত	-8.85431
▁বোলিং	-8.85452
▁শ্রেষ্ঠ	-8.85575
▁সেদিন	-8.85794
▁বাজার	-8.85803
▁ঘর	-8.85815
▁স্থাপন	-8.85818
▁করিলেন	-8.8586
▁আসার	-8.85884
▁দেখো	-8.86025
▁মসজিদ	-8.86321
▁কোনও	-8.8643
▁ব্যবসা	-8.86436
▁স্বপ্ন	-8.86465
▁উনি	-8.86759
▁কয়েকজন	-8.8686
▁যায়নি	-8.87073
▁বেঁচে	-8.87101
▁পণ্য	-8.8715
▁ব্যাপক	-8.87205
▁পালিয়ে	-8.87301
▁স্টেশন	-8.87476
▁বিবাহ	-8.87618
▁আগামী	-8.87701
▁ত্যাগ	-8.87729
▁চুপ	-8.87883
▁সংস্থা	-8.88161
▁কিছুদিন	-8.88216
▁উল্লেখ	-8.88224
▁খেতে	-8.8867
▁বর্ণনা	-8.88825
▁বাদ	-8.89251
▁বিশ্ব	-8.89253
▁মুক্তি	-8.89259
▁দুইটি	-8.8928
▁সুবিধা	-8.894
▁নিয়ন্ত্রণ	-8.89421
▁অথবা	-8.89603
▁সবাইকে	-8.89614
▁পারবেন	-8.89731
▁ঘটনার	-8.89801
▁কষ্ট	-8.89836
▁যাচ্ছি	-8.89863
▁অনেকে	-8.89867
▁সুতরাং	-8.89954
▁বৃহত্তম	-8.90235
▁ছড়িয়ে	-8.90288
▁যাব	-8.90369
▁পড়েন	-8.90453
▁প্লিজ	-8.90523
▁নষ্ট	-8.90592
▁বিমান	-8.90681
▁এদিকে	-8.90881
▁প্রস্তাব	-8.90917
▁পরিচয়	-8.90924
িং	-8.90979
তা	-8.90989
▁দেবে	-8.91003
▁দেখিতে	-8.91128
▁বাজারে	-8.91152
▁স্বীকার	-8.91226
▁জানো	-8.9124
গুলি	-8.91298
▁স্বাধীনতা	-8.91414
▁পুরুষ	-8.91444
▁নিজস্ব	-8.91446
▁জল	-8.91459
▁চা	-8.91576
▁ম্যাচ	-8.91595
▁সেখান	-8.91607
▁যুক্তরাষ্ট্রের	-8.91877
▁অপরাধ	-8.91912
▁প্রকাশিত	-8.91937
▁নির্দিষ্ট	-8.91965
▁কবিতা	-8.91997
▁কালো	-8.92186
▁চলচ্চিত্রে	-8.92477
▁বাহিনীর	-8.92515
▁প্রচার	-8.92563
▁প্রচুর	-8.92595
শ্বর	-8.92625
▁খুলে	-8.92658
▁নে	-8.92814
▁স্বাভাবিক	-8.92865
▁সাহেব	-8.92916
▁নিজেই	-8.92979
▁নিযুক্ত	-8.93339
▁গ্রামে	-8.93549
▁গানের	-8.93742
কালীন	-8.94046
মাত্র	-8.94098
▁দেয়া	-8.94316
▁কর্তৃপক্ষ	-8.94407
▁এসেছি	-8.94437
▁তদন্ত	-8.94649
▁কমিটির	-8.94669
▁গেলেন	-8.94718
▁পিতার	-8.94867
▁অথচ	-8.94935
▁উইকেট	-8.94948
▁মূলতঃ	-8.94955
▁বেড়ে	-8.95148
▁অধীনে	-8.95201
▁সবকিছু	-8.95218
▁বাধ্য	-8.95381
▁সেবা	-8.95468
▁সক্রিয়	-8.95601
▁মধ্যেই	-8.95609
▁ব্যবহৃত	-8.9568
▁আটক	-8.95914
▁অধিক	-8.95939
▁রাখেন	-8.96034
িয়া	-8.96043
▁ব্যস্ত	-8.96186
▁অভিনয়	-8.96246
▁আপনাদের	-8.96262
▁প্রত্যেক	-8.96295
▁শিকার	-8.96318
▁ভোট	-8.96388
▁চাকরি	-8.96555
▁বিশাল	-8.96605
▁যাতে	-8.96695
▁আদালতে	-8.96744
▁সিটি	-8.96963
▁কেটে	-8.9701
▁পারেনি	-8.97017
▁দিয়েছিলেন	-8.97021
▁বয়স	-8.97112
▁সংগীত	-8.9715
▁ভবন	-8.97224
▁আবু	-8.97327
▁ব্যক্তিগত	-8.97672
▁পেছনে	-8.97697
▁দিনে	-8.98032
▁সম্প্রতি	-8.98173
▁নিয়োগ	-8.98241
▁পড়েছে	-8.98255
▁অবদান	-8.98348
▁করবো	-8.98396
▁বলেছে	-8.98418
▁কাউকে	-8.98562
▁রূপ	-8.98562
▁ভাষার	-8.98635
▁বাসায়	-8.98641
▁যাক	-8.98671
▁রেলওয়ে	-8.98677
▁অভিযান	-8.98751
▁আরব	-8.98771
▁সাহিত্য	-8.98931
▁যুদ্ধে	-8.98957
▁শুনতে	-8.98972
▁শহরটি	-8.99102
▁কন্যা	-8.99214
▁পেয়েছে	-8.99395
▁ঢাকায়	-8.99436
▁দখল	-8.99557
▁সফল	-8.99755
▁গভীর	-8.99852
▁বয়সে	-8.99963
▁রাজশাহী	-9.00182
▁এখান	-9.00235
▁চলচ্চিত্রের	-9.00344
▁পারছি	-9.00435
▁ডাক্তার	-9.0044
▁আলো	-9.00591
▁পুনরায়	-9.0065
▁অর্থাৎ	-9.00651
▁প্রচলিত	-9.00654
▁পূর্ণ	-9.00972
▁অবসর	-9.01023
▁পরামর্শ	-9.01065
▁সরাসরি	-9.01199
▁বি	-9.0124
▁লাখ	-9.01246
▁ব্যাংক	-9.013
▁স্বাস্থ্য	-9.01434
▁প্রতিষ্ঠাতা	-9.01567
▁জোর	-9.01591
▁গোল	-9.01644
▁নিরাপত্তা	-9.01708
▁অনুষ্ঠানে	-9.0172
▁চৌধুরী	-9.01845
▁নির্ভর	-9.02108
▁ফুল	-9.02141
▁রাগ	-9.02282
▁আমেরিকা	-9.02381
▁অব	-9.02394
▁রাখার	-9.02727
▁প্রাণ	-9.02882
▁শেখ	-9.02883
রূপে	-9.02925
▁বাহিনী	-9.02945
▁ধর্মীয়	-9.02948
▁শশী	-9.03017
▁জিনিস	-9.03037
▁বলছে	-9.03056
▁বলি	-9.03098
▁নিয়ম	-9.03103
ং	-9.03253
▁ডানহাত	-9.03265
▁ওখানে	-9.03445
▁গুরুত্ব	-9.03505
▁খেয়ে	-9.03514
▁চাপ	-9.03523
▁ঘুরে	-9.03707
▁বোলার	-9.03813
▁উহা	-9.03926
▁ছিলাম	-9.03939
▁করিবার	-9.04041
▁বেলা	-9.04154
▁ভিতরে	-9.04159
▁সম্পন্ন	-9.04253
▁সূত্র	-9.04571
▁আবদুল	-9.04806
▁চলাচল	-9.04845
▁শিক্ষার্থীদের	-9.04923
▁আনন্দ	-9.04953
▁আপনারা	-9.05027
▁পাওয়ার	-9.05122
▁উঠিল	-9.05232
▁পরিস্থিতি	-9.05455
▁নেমে	-9.05462
▁কখন	-9.055
▁দাম	-9.05588
▁অতিরিক্ত	-9.05634
▁আনা	-9.05676
▁লেখক	-9.05783
▁পড়তে	-9.0604
▁সামান্য	-9.06145
▁যেকোনো	-9.06181
▁আহমেদ	-9.06221
▁চাও	-9.06404
▁পরের	-9.06533
▁চলিয়া	-9.06569
▁ডিগ্রি	-9.06708
▁মনের	-9.069
▁সক্ষম	-9.06912
▁বসিয়া	-9.07022
▁যাঁরা	-9.07137
▁ভুলে	-9.07332
▁কারও	-9.07493
▁সবসময়	-9.07561
▁স্নাতক	-9.07634
▁মানুষকে	-9.07642
▁বিদায়	-9.07734
মা	-9.07791
▁যাত্রা	-9.07837
▁অনুষ্ঠান	-9.07967
▁সমর্থন	-9.07999
▁ব্যক্তিদের	-9.08006
▁বেরিয়ে	-9.08051
▁প্রতিদিন	-9.08297
▁ধর্মের	-9.08338
▁কবি	-9.08406
▁আদেশ	-9.08407
▁মিথ্যা	-9.0841
▁নিশ্চয়ই	-9.08446
▁থাকায়	-9.08476
▁অনেকেই	-9.08498
▁জানিয়েছেন	-9.08778
▁উদ্দেশ্য	-9.08813
▁লাগল	-9.08868
▁সেটি	-9.08905
▁হার	-9.0894
▁বরং	-9.09075
▁আন্দোলন	-9.09354
▁হামলা	-9.09535
▁খেলতে	-9.09547
▁তাড়াতাড়ি	-9.09582
নি	-9.09597
▁পাই	-9.09697
▁অনুমতি	-9.09699
▁পোশাক	-9.09701
▁জানেন	-9.09819
▁পাঁচটি	-9.10258
▁গিয়েছিল	-9.10566
▁ইবন	-9.10595
▁হারিয়ে	-9.10814
▁রেকর্ড	-9.1086
▁প্রতিষ্ঠিত	-9.10885
▁গিয়া	-9.10945
▁বিদ্যালয়ের	-9.10989
▁মুক্ত	-9.11013
▁ছবিটি	-9.11259
▁কেহ	-9.11363
▁রাখে	-9.11392
▁কর্ম	-9.11467
▁পেয়েছেন	-9.1165
▁ইংরেজ	-9.11738
▁ব্যাখ্যা	-9.11772
▁অবশেষে	-9.11844
▁বোর্ড	-9.11868
▁সন্দেহ	-9.12069
▁মেয়েদের	-9.12086
▁সঠিক	-9.12131
▁দুজন	-9.12162
▁পাবে	-9.12241
▁বাহির	-9.12249
▁প্রযুক্তি	-9.1238
▁গায়ে	-9.12431
▁গাছ	-9.12615
▁নাটক	-9.12617
▁অপর	-9.12651
▁অন্যদিকে	-9.12911
▁হওয়ায়	-9.12975
▁দে	-9.13003
▁বাচ্চা	-9.13034
▁শহীদ	-9.13095
▁আগ্রহ	-9.13175
▁জেনারেল	-9.13189
▁সংসদ	-9.13284
▁ভিত্তি	-9.13287
▁বিয়ের	-9.13295
▁কমিটি	-9.13667
▁চাইলে	-9.13744
▁নিউ	-9.13745
▁কৃষি	-9.1404
▁রঙের	-9.14122
▁খুন	-9.14122
▁একা	-9.14144
▁মেনে	-9.14237
▁দান	-9.14282
▁চোখের	-9.14315
▁গরম	-9.14501
▁সত্যি	-9.14578
▁জয়	-9.14902
▁ভারতীয়	-9.14952
▁হইলে	-9.14994
▁পৌরসভা	-9.15158
ব	-9.1521
▁দেখিয়া	-9.15222
▁পাশ	-9.1534
▁ঘুম	-9.15352
▁অন্তত	-9.15412
▁সম্ভবত	-9.15449
▁সংস্থার	-9.15554
▁পরিবেশ	-9.15679
▁রাজি	-9.15827
▁হাসপাতাল	-9.15943
▁ধ্বংস	-9.16048
▁অস্ত্র	-9.16103
▁মান	-9.16329
▁অর্থনৈতিক	-9.16362
▁ছাড়াও	-9.16422
▁মাঠ	-9.16441
▁অন্তর্গত	-9.16595
▁আরেকটি	-9.16671
▁নগর	-9.16928
▁অভিনয়ের	-9.16978
▁করল	-9.17033
▁আমিও	-9.17043
▁মালিক	-9.17088
▁থাকলেও	-9.17113
▁মন্দির	-9.17184
▁বাংলার	-9.17489
▁পরিষ্কার	-9.17531
▁ভেতর	-9.17645
▁ধারণ	-9.17811
▁রান	-9.18044
▁বুঝি	-9.18137
▁বেশিরভাগ	-9.18164
▁পদ্ধতি	-9.18165
▁ব্যথা	-9.1818
▁অনুসরণ	-9.18446
▁গুরুতর	-9.18546
▁আবিষ্কার	-9.18695
▁নেতৃত্ব	-9.18711
▁আন্দোলনের	-9.18753
▁চলতে	-9.18784
▁মুহাম্মদ	-9.18927
▁প্রেসিডেন্ট	-9.18932
▁উপায়	-9.19049
▁ছবির	-9.19075
▁স্বাধীন	-9.19077
▁কর্তৃক	-9.193
▁শুনে	-9.19569
▁এলে	-9.1969
▁সম্ভাবনা	-9.19701
▁তেল	-9.19867
▁বলছেন	-9.20231
▁বলার	-9.20297
▁খেলে	-9.20353
▁থানায়	-9.20429
▁রেল	-9.20439
▁বিদ্যমান	-9.20536
▁কমে	-9.20583
▁চেয়ারম্যান	-9.20815
▁শক্তিশালী	-9.20823
▁লিখেছেন	-9.2083
▁ডানহাতি	-9.20885
ছে	-9.20986
▁এনে	-9.20986
▁উপজেলা	-9.21126
▁নারীদের	-9.21164
▁মেয়ের	-9.21214
▁শান্ত	-9.21326
▁পারো	-9.2142
▁টেলিভিশন	-9.21511
▁প্রিয়	-9.21582
▁গোরা	-9.21792
▁পানির	-9.21817
▁অংশে	-9.22114
▁প্রকৃত	-9.22152
▁ফিরিয়ে	-9.22174
▁মৃত	-9.22193
▁সরবরাহ	-9.22206
▁দারুণ	-9.22208
▁এল	-9.22232
▁পশ্চিমবঙ্গ	-9.22358
▁কিছুক্ষণ	-9.22414
▁নামক	-9.22437
▁বাঙালি	-9.2267
▁দেশটি	-9.22729
▁রাষ্ট্রপতি	-9.22761
▁ইতিহাসে	-9.22773
▁দুঃখিত	-9.22801
▁পরিমাণ	-9.22844
▁ক্ষুদ্র	-9.22943
▁লড়াই	-9.23053
▁কোচ	-9.23062
▁সম্প্রদায়ের	-9.2307
▁সমাজ	-9.23126
▁পেয়েছি	-9.23219
▁ব্যাটিং	-9.23535
▁দুঃখ	-9.23548
▁প্রদর্শন	-9.23667
▁জুড়ে	-9.2374
▁আল্লাহ	-9.24009
তেই	-9.24013
▁নেতা	-9.24035
▁ওয়েস্ট	-9.24157
▁বুধবার	-9.24435
▁শাহ	-9.24483
▁বিশিষ্ট	-9.24703
▁প্রাকৃতিক	-9.24765
▁শিশুদের	-9.24794
▁অনুভব	-9.24834
▁জমি	-9.24835
▁অসংখ্য	-9.24837
জ	-9.24994
▁তাদেরকে	-9.25084
রত	-9.25134
▁খাদ্য	-9.25171
▁কাউন্টি	-9.2529
▁সংশ্লিষ্ট	-9.25307
▁মিস	-9.25329
▁এসো	-9.25362
▁চুরি	-9.25529
▁পায়ে	-9.25772
▁সম্মান	-9.25782
▁বাণিজ্য	-9.25818
▁জরুরি	-9.25837
▁দশ	-9.25909
▁প্রতিষ্ঠানের	-9.26099
▁দিচ্ছে	-9.26231
▁সহকারী	-9.26282
▁কোম্পানি	-9.26354
▁লম্বা	-9.26354
▁মিলে	-9.26369
▁বলেই	-9.26428
▁সত্যিই	-9.26474
▁শিক্ষার	-9.26511
▁ক্ষমা	-9.26542
▁সংযুক্ত	-9.26565
▁ইউনিয়নে	-9.26616
▁নির্বাচনে	-9.26624
▁নিয়েছে	-9.26649
▁দৃষ্টি	-9.26909
▁করেননি	-9.26922
▁ব্যক্তির	-9.26927
▁ব্যাপারটা	-9.27143
▁আওতাধীন	-9.27156
▁ব্যর্থ	-9.27249
▁বললাম	-9.27372
▁শান্তি	-9.27397
▁বৃহস্পতিবার	-9.27465
▁শিল্পী	-9.27553
▁আইনজীবী	-9.27648
▁জগতে	-9.27775
▁আত্মা	-9.27797
▁একাডেমি	-9.2781
▁একক	-9.27895
▁চতুর্থ	-9.2792
িয়ে	-9.27973
▁কলকাতার	-9.27991
▁আসল	-9.28082
▁গত	-9.28132
▁যুদ্ধের	-9.28177
▁আনতে	-9.28222
▁শাস্তি	-9.28276
▁ঐতিহাসিক	-9.2842
▁মডেল	-9.28469
▁দিয়েছি	-9.28558
▁তেমনি	-9.28589
▁সরে	-9.28711
▁সোমবার	-9.2873
▁এগুলি	-9.28746
▁প্রথমবার	-9.28771
▁উন্নয়ন	-9.28872
▁মর্যাদা	-9.28877
▁টি	-9.28883
▁এসেছেন	-9.28886
▁স্পষ্ট	-9.28967
▁কিনা	-9.28988
▁খরচ	-9.28999
▁খোলা	-9.29001
▁পাকিস্তানি	-9.29037
▁কেন্দ্রের	-9.2907
▁বিদ্যুৎ	-9.29214
▁শাখা	-9.29281
▁ক্ষতি	-9.29428
▁কথাটা	-9.29461
▁ক্লাব	-9.29595
▁অধ্যয়ন	-9.29622
▁কর্মসূচি	-9.29683
▁বিনয়	-9.29915
▁লোকের	-9.29994
▁মাসের	-9.30056
▁আরম্ভ	-9.30173
▁হবার	-9.30192
▁সরিয়ে	-9.30285
▁সহযোগিতা	-9.30287
▁সবুজ	-9.30317
▁আমায়	-9.30385
▁জাতি	-9.30417
▁জানিয়েছে	-9.30437
▁পড়া	-9.3057
▁মঙ্গলবার	-9.30597
▁পেয়েছিলেন	-9.30608
▁পৃথক	-9.3063
▁স্থায়ী	-9.30853
▁পূজা	-9.30866
ঃ	-9.3092
▁অভিজ্ঞতা	-9.31003
▁আটকে	-9.31041
▁করলেও	-9.31131
▁কারো	-9.31309
▁এখানকার	-9.31354
▁কিভাবে	-9.31357
▁নাও	-9.31392
▁আর্থিক	-9.31443
▁কার্যালয়	-9.3147
মূলক	-9.315
গুলোর	-9.31607
▁কার্যকর	-9.31647
▁একদম	-9.31714
▁দুপুরে	-9.31859
▁যোগদান	-9.31877
▁তবু	-9.31942
▁ওষুধ	-9.31987
▁শনিবার	-9.32003
দ	-9.32062
▁তথা	-9.32087
▁তীব্র	-9.32113
▁অনুরোধ	-9.32165
▁আ	-9.32229
▁বলেছি	-9.32306
▁রোববার	-9.32401
▁নকশা	-9.32461
▁মিনিট	-9.3249
▁অভিনেত্রী	-9.32517
▁সিলেট	-9.32586
▁জমা	-9.32606
▁চূড়ান্ত	-9.32618
▁মাদ্রাসা	-9.32846
▁ইংল্যান্ডের	-9.32877
▁কঠোর	-9.33275
▁রহিল	-9.3337
▁পারিবারিক	-9.33378
▁দলটি	-9.33428
▁স্বামীর	-9.33442
▁রাজ	-9.33514
▁লক্ষ	-9.3354
▁উৎস	-9.33608
▁চুক্তি	-9.33678
▁সদস্যরা	-9.33742
▁সমাধান	-9.34
▁করলাম	-9.34048
▁তাহারা	-9.34065
▁ব্যাংকের	-9.34119
▁বলব	-9.34192
▁পরও	-9.34194
▁সফলতা	-9.34464
▁অনুসারে	-9.3447
▁সাহস	-9.34524
▁অসুস্থ	-9.3455
▁রক্ত	-9.34618
▁দোষ	-9.34677
▁রাস্তায়	-9.3468
▁আল্লাহর	-9.3473
ুল	-9.34753
সকল	-9.34892
▁দেরি	-9.34895
▁প্রকৃতির	-9.34901
▁পেলে	-9.34923
▁অভিনেতা	-9.35013
▁হাসি	-9.35036
▁আক্রান্ত	-9.3509
▁আশ্রয়	-9.35168
▁সমুদ্র	-9.3533
▁কাহিনী	-9.35363
▁পরবর্তীকালে	-9.35365
▁অস্ট্রেলিয়া	-9.35473
▁সাড়ে	-9.35687
▁গ্রাম	-9.35792
▁ইংল্যান্ড	-9.35805
▁দর্শন	-9.35825
▁সংগঠন	-9.35832
▁গাছের	-9.35862
▁রয়েছেন	-9.35892
▁অবস্থার	-9.36006
▁জিজ্ঞেস	-9.3602
▁সম্পর্কিত	-9.36045
পা	-9.36156
▁আদর্শ	-9.3617
▁মানব	-9.3619
▁ম্যাচে	-9.36229
▁লীগের	-9.36243
▁বারবার	-9.36252
▁বেশির	-9.36284
▁বিস্তৃত	-9.36324
▁কমলা	-9.36351
▁নামকরণ	-9.36362
▁বিধানসভা	-9.3638
▁ঘটনায়	-9.36584
▁এরকম	-9.36632
▁করেই	-9.36662
▁নই	-9.36771
▁কারখানা	-9.36805
▁রোগ	-9.36831
▁ভিত্তিতে	-9.36836
▁প্রেম	-9.36848
▁ইহার	-9.36869
ণ	-9.36871
▁বেসরকারি	-9.36896
▁দুর্বল	-9.37013
▁শুক্রবার	-9.37037
▁হাসান	-9.37228
▁চুল	-9.37251
▁ভ্রমণ	-9.37267
▁চিকিৎসক	-9.3729
▁হে	-9.37299
▁তালিকা	-9.37301
▁রে	-9.37324
▁মামলার	-9.37411
▁ভিডিও	-9.37521
▁যুক্তরাষ্ট্র	-9.37577
▁গলায়	-9.37631
▁পারলে	-9.37666
▁সুর	-9.37719
▁যাইতে	-9.37769
▁অতএব	-9.37823
▁দপ্তর	-9.37824
▁উপন্যাস	-9.37838
▁হও	-9.37876
▁দেহ	-9.37898
▁বিভক্ত	-9.37903
▁জনগণের	-9.37931
▁ঠাকুর	-9.37962
▁মনোনয়ন	-9.38383
▁গ্রন্থ	-9.38662
▁বিদ্যালয়ে	-9.3868
▁নির্যাতন	-9.38829
▁দেখ	-9.38844
▁শুরুতে	-9.38933
▁শাসন	-9.38941
▁হিসেবেও	-9.38979
▁স্থির	-9.39097
▁ইসলামের	-9.39266
▁অনেকটা	-9.39301
▁সদস্যদের	-9.39302
▁পুরোপুরি	-9.39312
▁তাঁহাকে	-9.39315
▁পুরোনো	-9.39443
▁বৃষ্টি	-9.39473
▁সকলেই	-9.3948
▁হাই	-9.39529
▁তাকিয়ে	-9.39766
▁গোপন	-9.39827
▁কার	-9.39995
▁মজা	-9.40039
▁মাটি	-9.40042
▁প্রতীক	-9.40097
▁উপ	-9.40118
▁সর্বাধিক	-9.40123
▁রাষ্ট্র	-9.40261
▁ঘণ্টা	-9.403
▁সমাজের	-9.40331
▁বৌদ্ধ	-9.40349
▁পদক্ষেপ	-9.40381
▁লোকসভা	-9.4057
▁অধিনায়ক	-9.40582
▁নিয়েছেন	-9.40593
▁বিবেচনা	-9.4061
▁সীমান্ত	-9.40645
▁মন্ত্রণালয়ের	-9.40664
▁বিশ্বকাপে	-9.40737
▁শক্ত	-9.40795
▁বিকেলে	-9.40927
▁অস্বীকার	-9.40941
▁যাচ্ছেন	-9.41018
▁মন্ত্রী	-9.41058
▁প্রতিবেদন	-9.41225
▁টিভি	-9.41307
▁একসাথে	-9.41535
টাই	-9.41607
ট	-9.4167
▁কুমার	-9.41749
▁আবারও	-9.41758
▁কারাগারে	-9.41881
▁দুটো	-9.41902
▁বেগম	-9.41974
▁ছবিতে	-9.42049
▁আগ্রহী	-9.42223
▁মোট	-9.42254
▁সমান	-9.42276
▁চীন	-9.42277
▁পৌঁছে	-9.42278
▁টাকার	-9.42309
▁ইতিমধ্যে	-9.42357
▁নীল	-9.42461
▁দিচ্ছি	-9.42534
▁বিশ্বকাপ	-9.42567
▁পাস	-9.42643
▁গতি	-9.42675
▁যাবো	-9.42685
▁পারবো	-9.42766
▁পবিত্র	-9.42792
▁ডাক	-9.42926
▁জবাব	-9.43024
▁ভয়ে	-9.43057
▁করেনি	-9.43064
▁দ্য	-9.43143
▁বলিতে	-9.4317
▁গলা	-9.432
▁জাতির	-9.43543
▁শিক্ষার্থী	-9.43551
▁সংস্কৃতি	-9.43576
▁হুমকি	-9.43601
▁ভেবে	-9.43761
▁দাদা	-9.43844
▁উদ্দেশ্যে	-9.43911
▁সাংস্কৃতিক	-9.44053
▁বোঝা	-9.44147
পুর	-9.44155
▁অভাব	-9.44303
▁বিরক্ত	-9.44348
▁এখনই	-9.44453
▁এখানেই	-9.44458
▁সোনা	-9.4454
▁অগ্রসর	-9.44641
▁বেছে	-9.44649
▁তরুণ	-9.4468
▁ট্রেন	-9.44713
▁মৃত্যুবরণ	-9.44768
▁পাতা	-9.44884
▁কল	-9.44885
▁ঢুকে	-9.4494
▁জন্যই	-9.44963
▁দেখেছি	-9.44971
▁অদ্ভুত	-9.45011
▁শীর্ষ	-9.45068
▁ফলাফল	-9.45115
▁তখনই	-9.45121
▁দেখছি	-9.45195
▁জানিয়ে	-9.45249
▁জমিদার	-9.45271
▁নহে	-9.45448
▁করিবে	-9.45529
▁সেগুলো	-9.45605
▁সেখানেই	-9.45669
▁সর্বশেষ	-9.45754
▁অস্তিত্ব	-9.45757
▁সিরিজের	-9.45833
▁আস্তে	-9.45904
▁পত্রিকা	-9.46038
▁উঠিয়া	-9.46222
▁পিছনে	-9.46325
▁আফ্রিকার	-9.46427
▁ধরতে	-9.46434
▁অসম্ভব	-9.4649
▁তোলা	-9.46651
▁ওঠেন	-9.4666
▁প্রার্থনা	-9.46884
▁মুসলমানদের	-9.47219
▁পরিবেশন	-9.47232
▁আসো	-9.4724
▁সমালোচনা	-9.47268
▁কাপড়	-9.47321
▁অব্যাহত	-9.47389
▁হালকা	-9.47404
▁আরেক	-9.4746
▁শোনা	-9.4747
▁লেগে	-9.47642
▁স্ত্রীর	-9.47646
▁বরাবর	-9.4774
▁বিজয়ী	-9.47768
▁অতিথি	-9.47936
▁খোঁজ	-9.47941
▁নাগরিক	-9.47955
▁ফেরত	-9.48001
▁বোলিংয়ে	-9.48045
▁আসামি	-9.48108
▁ক্লাস	-9.48114
▁স্কুলের	-9.48248
▁শুধুমাত্র	-9.48343
▁ব্যবসায়ী	-9.48359
▁জড়িয়ে	-9.4838
▁ভাষায়	-9.48436
▁সর্ব	-9.48517
▁ভবিষ্যতে	-9.48562
▁চিহ্নিত	-9.48641
▁সকলের	-9.48646
▁দোকান	-9.48752
▁সফরে	-9.48786
▁জনপ্রিয়তা	-9.48798
▁নির্মাণের	-9.48818
▁যুক্তরাষ্ট্রে	-9.48853
▁নিয়েছিলেন	-9.48895
▁সুস্থ	-9.48919
▁প্রশংসা	-9.48954
▁করছিলেন	-9.4905
▁ছয়টি	-9.49064
▁চল	-9.49076
টির	-9.49084
▁নির্বাহী	-9.49143
▁দায়িত্বে	-9.49166
▁নিরাপদ	-9.49178
▁কমিশন	-9.49236
▁নন	-9.49265
▁তীরে	-9.49289
▁আন্দোলনে	-9.4935
▁সমস্যার	-9.49375
▁কাছাকাছি	-9.49381
▁সংস্কার	-9.49513
▁গেছি	-9.49571
▁কেননা	-9.49593
▁মন্তব্য	-9.49639
▁বৈশিষ্ট্য	-9.49737
▁সূত্রে	-9.49828
▁শিক্ষার্থীরা	-9.49868
▁ছোট্ট	-9.49933
▁ধরিয়া	-9.50029
▁মানসিক	-9.50081
▁পরিষদের	-9.50087
▁যেটা	-9.50118
▁উপাদান	-9.50127
▁আচরণ	-9.50144
▁পাগল	-9.50275
▁ঘটেছে	-9.50314
▁ভবনের	-9.50328
▁এইরূপ	-9.50344
▁দীর্ঘদিন	-9.50395
▁মসজিদটি	-9.5046
▁বাতিল	-9.50557
▁বাহিরে	-9.50584
▁দেখানো	-9.50602
▁প্রায়ই	-9.50772
▁করেছ	-9.50777
▁নিষিদ্ধ	-9.50926
▁থাকি	-9.50999
▁জনসংখ্যা	-9.51059
▁লাইন	-9.51085
▁চিত্র	-9.51133
▁ডেকে	-9.5115
▁শরীরের	-9.51154
▁পরিবারে	-9.51268
▁প্রকার	-9.51281
▁হামলার	-9.51352
▁যাবেন	-9.51388
▁পদ	-9.51409
▁চাহিদা	-9.5145
▁দেখেন	-9.51459
▁মুখোমুখি	-9.51575
▁মাটিতে	-9.51691
▁সম্রাট	-9.51728
▁বহন	-9.51816
▁সত্ত্বেও	-9.51859
▁জানান	-9.51871
▁হয়েছিলো	-9.51949
▁ব্যবস্থাপনা	-9.5198
▁ব্যক্তিত্ব	-9.52058
▁ময়নাতদন্ত	-9.52119
▁প্রকল্প	-9.52137
▁আইনের	-9.52183
্	-9.52284
▁পরিবহন	-9.52301
▁অবৈধ	-9.52366
▁সেনাবাহিনীর	-9.52384
▁পার্থক্য	-9.52385
▁আমেরিকান	-9.52552
▁বাণিজ্যিক	-9.52601
▁বস্তু	-9.52736
▁জার্মান	-9.52755
▁পাচ্ছি	-9.52758
▁সন্তানের	-9.528
▁পাখি	-9.52804
▁সাম্রাজ্য	-9.52823
াইয়া	-9.52854
▁হইতেছে	-9.52901
▁যাত্রী	-9.52934
▁ক	-9.52992
▁কেন্দ্রীয়	-9.53011
▁প্রধানমন্ত্রী	-9.53063
েই	-9.53124
▁আলম	-9.5339
▁সংযোগ	-9.53409
▁অন্ধকার	-9.53479
▁হক	-9.53562
▁খেলেন	-9.5359
▁খাওয়া	-9.53631
▁পড়ার	-9.53664
▁বলবে	-9.53809
লে	-9.53886
▁মামলায়	-9.53924
▁আকর্ষণ	-9.53937
ৎ	-9.53988
▁নীতি	-9.5399
▁একপর্যায়	-9.54052
▁খানের	-9.54056
▁কর্মরত	-9.54102
▁চমৎকার	-9.54164
পূর্ব	-9.54212
▁কর্তব্য	-9.54228
▁এরূপ	-9.5423
▁গ্যাস	-9.54295
▁মনোনীত	-9.54353
▁জগতের	-9.54484
▁বিরোধী	-9.54641
▁যাদের	-9.54659
▁মাতা	-9.54664
▁ক্লাবের	-9.54691
▁প্রক্রিয়া	-9.5472
▁সপ্তাহ	-9.54811
▁প্রয়োগ	-9.54873
▁প্রার্থী	-9.5491
▁করছো	-9.54937
▁বিজয়	-9.54942
▁আসিল	-9.54968
গত	-9.55013
▁প্রতিযোগিতা	-9.55025
▁বলেছিলেন	-9.55146
▁মতোই	-9.55241
▁দেখার	-9.55293
▁ডান	-9.55376
▁বন্দর	-9.55398
▁দয়া	-9.555
▁সন্ধান	-9.55507
▁উঠেছে	-9.55537
▁অবাক	-9.5557
▁আশঙ্কা	-9.55606
▁কর্মজীবন	-9.55805
▁গ্রহণের	-9.55826
▁ভাড়া	-9.55861
▁ব্যবহারের	-9.5594
▁যেত	-9.56011
▁এটাকে	-9.56043
▁অনুশীলন	-9.56055
▁আফ্রিকা	-9.56105
▁দক্ষিণে	-9.56149
বি	-9.56172
▁অ্যান্ড	-9.56184
▁ইসলামী	-9.56234
▁বটে	-9.56252
▁তোমায়	-9.56257
▁তাহাদের	-9.56267
▁হ	-9.56289
▁মাধ্যমিক	-9.56468
▁তত্ত্ব	-9.56541
▁দেবেন	-9.566
▁আহ্বান	-9.56654
▁পাঠিয়ে	-9.5667
▁তুলতে	-9.5667
▁হাতের	-9.56703
▁জগৎ	-9.56727
▁নির্বাচনের	-9.56758
▁প্রস্তুতি	-9.57039
▁পাঠ	-9.57077
▁শ্রমিক	-9.57077
▁আসছি	-9.57113
▁চেহারা	-9.57177
▁দিয়েছিল	-9.57217
▁এটিই	-9.57244
▁পৃথিবীতে	-9.57266
▁সম্পদ	-9.5739
▁পাননি	-9.57406
▁কোম্পানির	-9.57409
▁কাগজ	-9.57503
▁প্রভৃতি	-9.57738
▁পঞ্চম	-9.57771
▁বিদেশে	-9.5782
▁পরীক্ষার	-9.57871
▁জাহাজ	-9.57952
য়ের	-9.57965
▁চলবে	-9.57976
▁করায়	-9.57989
▁সুচরিতা	-9.58001
▁স্বাধীনতার	-9.58041
▁অতিক্রম	-9.5807
▁চরিত্র	-9.58167
▁থাকো	-9.5821
▁দাস	-9.5824
▁হিসাব	-9.58256
▁আদালতের	-9.58329
▁চাষ	-9.58387
▁আওয়ামী	-9.58444
▁সাফল্য	-9.58461
▁স্বীকৃতি	-9.58511
▁সন্ধ্যা	-9.58539
▁অফিস	-9.58662
▁মৌসুমে	-9.58686
▁বজায়	-9.5874
▁কথায়	-9.58838
▁উত্তরে	-9.58858
▁রাসূল	-9.58966
▁নির্ধারণ	-9.58997
▁মিডিয়াম	-9.59035
▁টেনে	-9.59104
▁বছরে	-9.59244
▁ইচ্ছে	-9.59465
▁আসন	-9.59507
▁নারীর	-9.59553
▁ক্রীড়া	-9.59565
▁স্থানান্তর	-9.59595
▁সেতু	-9.59799
▁পড়িল	-9.59841
▁অনুষ্ঠানের	-9.5986
▁মুহূর্তে	-9.59907
▁বিনোদিনী	-9.60007
▁যুক্তি	-9.60044
▁পশ্চিমে	-9.6005
▁তৈরির	-9.60069
▁করিয়াছে	-9.60118
▁রেখেছে	-9.60163
▁লজ্জা	-9.60276
▁রমেশ	-9.60414
▁মিল	-9.60438
▁এম	-9.60443
▁সম্প্রদায়	-9.60542
▁ভালোই	-9.60577
▁মোবাইল	-9.60578
কৃত	-9.60621
▁শারীরিক	-9.60668
▁চীনের	-9.60695
▁বেঁধে	-9.60759
▁ঘিরে	-9.61011
▁খেলেছেন	-9.61024
▁রেখেছেন	-9.61234
▁রঙ	-9.61272
▁বলুন	-9.61303
▁নির্ধারিত	-9.61304
▁অধিকারী	-9.61352
▁হাজির	-9.61455
▁প্রতিক্রিয়া	-9.61473
▁দেবী	-9.6157
▁উক্ত	-9.6162
▁কিনে	-9.61634
বে	-9.61662
▁সহ্য	-9.61741
▁জার্মানি	-9.61792
▁প্রাণী	-9.61828
াল	-9.61932
▁মসজিদে	-9.6194
▁ফাস্ট	-9.61946
▁পরিচিতি	-9.61966
▁জাপান	-9.62148
▁বিমানবন্দর	-9.62191
তো	-9.62223
▁অনুবাদ	-9.62306
▁নেতৃত্বে	-9.62342
েরা	-9.62386
▁বক্তৃতা	-9.62457
▁ভালোবাসা	-9.62559
▁পৃথিবী	-9.62568
▁আলাইহি	-9.62598
▁চলেছে	-9.62685
▁কর্মী	-9.6271
য়ে	-9.62742
▁সাংবাদিক	-9.62791
▁প্রধানত	-9.62809
▁কার্য	-9.62878
▁বোমা	-9.62913
▁খ্যাতি	-9.62927
▁সবই	-9.62945
▁সংস্কৃত	-9.6298
▁প্রকৃতি	-9.6303
▁মেয়েকে	-9.6307
▁পরিবর্তে	-9.63186
কারী	-9.63215
গুলির	-9.63246
▁বিকাশ	-9.63354
▁বাংলাদেশি	-9.63372
বা	-9.63413
▁আদায়	-9.63434
▁স্মৃতি	-9.63493
▁উৎপাদন	-9.63523
▁সভা	-9.63545
▁আট	-9.63619
▁মনোযোগ	-9.6372
▁দিবে	-9.63739
▁সৈয়দ	-9.63768
▁অধ্যক্ষ	-9.63773
▁করবার	-9.63774
▁সংরক্ষিত	-9.63917
▁ফরাসি	-9.63992
▁ধারাবাহিক	-9.64036
▁বিষয়ক	-9.64037
▁মুক্তিযুদ্ধ	-9.6411
▁ওয়াসাল্লাম	-9.64213
▁সাল্লাল্লাহু	-9.64213
▁বংশোদ্ভূত	-9.64216
▁হচ্ছিল	-9.64478
▁অস্ট্রেলিয়ার	-9.64534
▁মিয়া	-9.64552
▁ফিরিয়া	-9.64731
▁খুলনা	-9.64848
▁গিয়েছিলেন	-9.64865
▁ললিতা	-9.64907
▁সফর	-9.64908
▁ঘন	-9.6502
▁গুরু	-9.65057
▁প্রতিষ্ঠানটি	-9.65137
▁বিতর্ক	-9.65194
▁ফেলা	-9.65206
▁বিল	-9.65217
▁ছুটে	-9.65309
▁অসাধারণ	-9.65385
▁চরম	-9.65463
▁চন্দ্র	-9.65507
▁অর্থনীতি	-9.65562
কি	-9.65762
হীন	-9.65767
▁যাবার	-9.65832
▁প্রদেশের	-9.66039
▁ধাক্কা	-9.66169
▁বৃহৎ	-9.66169
▁বিরাট	-9.66174
▁করিয়ে	-9.66175
▁বেশী	-9.66221
▁পড়িয়া	-9.66238
▁প্রযোজনা	-9.66246
▁গ্রুপ	-9.66322
▁আকাশ	-9.66373
▁সকলে	-9.66409
▁ঘটনাস্থলে	-9.66412
▁নিন	-9.66519
▁সুলতান	-9.66614
▁ব	-9.66902
▁যেহেতু	-9.6692
▁ভিতর	-9.66991
▁আঞ্চলিক	-9.6702
▁গুণ	-9.6708
▁পত্রিকার	-9.6717
▁ক্যাপ্টেন	-9.67223
▁উঠল	-9.67274
▁অবরোধ	-9.67275
▁অন্যায়	-9.67277
▁পরদিন	-9.67347
▁বাসা	-9.67353
▁শুরুর	-9.67362
▁পার্টির	-9.67425
▁চাল	-9.67469
▁লুকিয়ে	-9.67528
▁অবনতি	-9.67531
▁রংপুর	-9.67541
▁করেছিলাম	-9.67588
শ্বরের	-9.67664
▁তারকা	-9.67669
▁আছো	-9.67701
▁বিকল্প	-9.67777
▁কোটি	-9.67783
▁কাজটা	-9.67798
▁অভিযোগে	-9.67837
▁দুধ	-9.67882
▁এরই	-9.67971
▁শত	-9.68025
▁দিব	-9.68096
▁ইউরোপ	-9.68162
▁লক্ষ্যে	-9.6818
▁শক্তির	-9.68262
▁থাক	-9.68304
▁তিনজন	-9.68338
▁চিনি	-9.68345
▁জি	-9.68434
▁ভাবতে	-9.68527
▁পানিতে	-9.68575
▁ইতিহাসের	-9.68624
▁গাড়িতে	-9.68674
▁লিখে	-9.687
▁আসি	-9.68724
▁কৌশল	-9.68731
▁তৈরী	-9.68771
▁কল্পনা	-9.68806
▁সহযোগী	-9.68905
▁উন্নত	-9.68909
▁রইল	-9.68937
▁মূর্তি	-9.68981
▁চেক	-9.68984
▁মহিলাদের	-9.69055
▁চর্চা	-9.69218
▁রচিত	-9.69222
▁সৌদি	-9.69237
▁ছোটো	-9.69292
▁শরীরে	-9.69413
▁রং	-9.69593
▁কারণেই	-9.69655
▁ই	-9.69666
▁কেন্দ্রে	-9.69666
▁মূল্য	-9.69673
▁প্রবাহিত	-9.69711
▁সভায়	-9.69748
ংশ	-9.69808
টাকে	-9.6987
▁এটির	-9.69872
▁মাটির	-9.70022
▁যুগে	-9.70062
▁রাজার	-9.70205
ছেন	-9.70376
▁ক্রিকেটার	-9.70408
▁কুমু	-9.70412
▁প্রবল	-9.70466
▁ভার	-9.70487
▁তত	-9.70561
▁যানবাহন	-9.70589
▁বিবেচিত	-9.70634
▁পূরণ	-9.70656
▁স্বাক্ষর	-9.70698
▁নৌকা	-9.70718
▁রাজনীতি	-9.70887
▁শতাব্দীর	-9.70896
▁স্বতন্ত্র	-9.70959
▁সুখ	-9.7099
▁করিলে	-9.71065
▁জেনে	-9.7108
▁ছেলের	-9.71105
▁ক্ষতিগ্রস্ত	-9.71109
▁ক্রমে	-9.71165
▁হচ্ছেন	-9.71198
▁ইন্ডিজ	-9.71281
▁শিক্ষকতা	-9.71291
▁কাপ	-9.71333
▁করিতেছে	-9.71488
▁এতো	-9.71503
▁আশ্চর্য	-9.71538
▁উন্নতি	-9.71593
▁কিছুতেই	-9.71714
▁মাথার	-9.71752
▁গাড়ির	-9.71812
▁হৃদয়	-9.71879
▁ইন্টারনেট	-9.71944
▁পরাজিত	-9.72063
▁রাত্রে	-9.72099
▁দেখিয়ে	-9.72123
▁হবেন	-9.72191
▁ময়মনসিংহ	-9.72249
▁বুঝিতে	-9.72297
▁শ্রদ্ধা	-9.72309
▁শুনিয়া	-9.72356
▁বিদেশি	-9.7243
গণ	-9.72444
▁আজকের	-9.72456
▁ভাইয়ের	-9.72763
▁বিনা	-9.72773
▁বিস্তার	-9.72783
▁কম্পিউটার	-9.72809
▁সমিতির	-9.72985
▁দেখুন	-9.73032
▁মৌলিক	-9.73041
▁ধান	-9.73057
▁অভিষেক	-9.7306
▁খালি	-9.73071
"।	-9.73151
ছ	-9.73151
▁অফিসে	-9.73217
ময়	-9.73249
▁আবুল	-9.73257
▁সিরিজ	-9.73317
▁দক্ষতা	-9.73328
▁যুগের	-9.73368
▁আরবি	-9.73376
▁গিয়েছে	-9.73399
▁বদলে	-9.73514
▁জলবায়ু	-9.73516
▁সাগর	-9.73525
▁মহা	-9.73535
▁করছ	-9.73689
▁লোকেরা	-9.73733
▁মতি	-9.73804
▁বিশেষত	-9.73818
▁আকার	-9.73818
▁পড়ল	-9.7384
▁ট্রাক	-9.74155
▁চরিত্রে	-9.7423
▁বাইরের	-9.74274
▁শোনো	-9.74356
▁নিয়ন্ত্রণে	-9.74357
▁শীঘ্রই	-9.74507
▁রাম	-9.74508
▁সন্ধ্যায়	-9.74509
▁সতর্ক	-9.74612
▁আহমদ	-9.74647
▁যেভাবে	-9.74662
▁ছুটি	-9.7476
▁ফসল	-9.74834
▁থাকিতে	-9.74891
▁মিসেস	-9.74992
▁কিসের	-9.75165
▁ভূমি	-9.75175
▁যৌন	-9.75238
▁বরিশাল	-9.75282
▁শুভ	-9.75309
▁রাজনীতিতে	-9.75315
ড	-9.75386
▁চিহ্ন	-9.75458
▁বিকেল	-9.75557
▁মঞ্চ	-9.75607
▁জীবিত	-9.75676
▁জান	-9.75751
ায়	-9.75778
▁নিচের	-9.75792
▁ক্রিকেটের	-9.75827
▁প্রাথমিকভাবে	-9.75829
▁ঝুঁকি	-9.75901
▁সেটাই	-9.75911
▁মরে	-9.75978
▁বিচ্ছিন্ন	-9.76012
▁গানটি	-9.76084
▁অনুমোদন	-9.76149
▁জেলে	-9.76162
▁দম্পতি	-9.76167
▁কুমিল্লা	-9.7618
▁আধ্যাত্মিক	-9.76203
▁দক্ষ	-9.76221
▁নম্বর	-9.76235
▁পাথর	-9.76283
▁একসঙ্গে	-9.76363
▁তাঁহারা	-9.76373
▁করছিল	-9.76395
▁খেয়াল	-9.76403
▁সম্মেলনে	-9.76627
▁মন্দিরের	-9.76632
▁সেনাবাহিনী	-9.76642
▁প্রতিনিধি	-9.76652
▁উদ্ধার	-9.76787
▁রাজ্যে	-9.76859
▁জঙ্গি	-9.76938
▁দিই	-9.77136
▁অফিসার	-9.77148
▁খাল	-9.7715
▁বিপুল	-9.77153
▁রেডিও	-9.77165
▁আকারে	-9.77214
▁সহজে	-9.77249
▁সমালোচক	-9.77282
▁মার	-9.77344
▁এমনি	-9.77407
▁লাগিয়ে	-9.7747
▁সু	-9.77484
▁শতাধিক	-9.77492
▁লীগ	-9.77502
▁সড়কে	-9.77582
▁চাহিয়া	-9.7765
▁কবে	-9.77708
▁ইন্ডিয়া	-9.77744
▁বিভা	-9.7779
▁বিপ্লবী	-9.77791
▁পত্র	-9.77856
▁পদক	-9.77865
▁আজও	-9.77869
লি	-9.77882
▁অভ্যাস	-9.77893
▁থেকেও	-9.77911
▁অনুষ্ঠানটি	-9.77935
▁উহার	-9.77948
▁দেখলে	-9.78015
▁বইয়ের	-9.78049
▁ডিম	-9.7811
▁পারদর্শী	-9.78304
▁ক্যামেরা	-9.78322
▁বুদ্ধি	-9.78341
▁মাকে	-9.7843
▁উপহার	-9.78515
▁প্রয়োজনীয়	-9.78669
▁স্বল্প	-9.78726
▁তুলনায়	-9.78775
▁জটিল	-9.78908
শ	-9.78913
▁পারছেন	-9.78917
▁মাংস	-9.79038
▁দায়ী	-9.79079
▁স্পর্শ	-9.79132
▁ফিল্ম	-9.79148
▁উদ্ভিদ	-9.79158
▁রান্না	-9.79192
▁শূন্য	-9.792
পি	-9.79233
▁সমৃদ্ধ	-9.79245
▁ঘোড়া	-9.79306
▁বন	-9.79314
ন্ত	-9.79355
▁ম্যাচের	-9.79385
▁কর্মকর্তারা	-9.79407
▁সুপার	-9.79446
▁পাবেন	-9.79609
তার	-9.79613
▁কলেজটি	-9.79626
▁পণ্ডিত	-9.79655
▁জানালা	-9.79677
▁প্রচণ্ড	-9.79707
▁বন্দী	-9.79775
▁বাবু	-9.79795
▁যোগ্যতা	-9.798
▁বিন	-9.80053
▁পরেই	-9.80072
▁যাইবে	-9.80143
▁প্রভাবিত	-9.80209
▁ভূমিকায়	-9.80225
▁চালানো	-9.80261
ির	-9.80287
▁পতাকা	-9.80358
▁বাচ্চাদের	-9.80361
▁সমাজে	-9.80443
▁ঘনিষ্ঠ	-9.80465
▁অনন্ত	-9.80467
▁প্রতিরোধ	-9.8049
▁পরিবর্তনের	-9.80612
▁রাতের	-9.80648
▁বসন্ত	-9.80714
▁যাওয়ায়	-9.80732
▁প্রবন্ধ	-9.80869
▁করিনি	-9.80875
তম	-9.80921
▁ফিফা	-9.80935
▁দুজনের	-9.80936
▁তাও	-9.80945
▁রপ্তানি	-9.80985
▁বিক্ষোভ	-9.80988
▁দেবতা	-9.81093
▁রবীন্দ্রনাথ	-9.81111
▁মহান	-9.81153
▁ব্যাট	-9.81169
▁বেতন	-9.81195
▁তৎ	-9.81261
▁পাচ্ছে	-9.81295
ছি	-9.81312
▁আদি	-9.81369
▁মহারাজ	-9.81372
▁আজকাল	-9.81389
▁বিনিয়োগ	-9.81395
▁সংগঠনের	-9.81438
▁নিয়োজিত	-9.81458
▁বুঝে	-9.81468
▁মুসলমান	-9.81498
▁হ্রাস	-9.81505
▁পড়বে	-9.81623
▁কণ্ঠ	-9.81748
▁বুকে	-9.81791
▁মর্গে	-9.81827
▁অনুসন্ধান	-9.81869
▁শাসক	-9.81891
▁আপত্তি	-9.82162
▁অনেকগুলো	-9.82199
▁টানা	-9.82261
▁সাড়া	-9.82343
▁লাগিলেন	-9.82356
▁সীমানা	-9.824
▁পার্ক	-9.82463
▁মুক্তির	-9.82618
▁সেসব	-9.82621
▁ন্যায়	-9.82684
▁ব্যতীত	-9.827
▁নিম্ন	-9.8273
▁নিশ্চয়	-9.8274
▁শাখার	-9.82875
▁সাক্ষাৎ	-9.8289
▁কৃষ্ণ	-9.82905
▁গেলাম	-9.82908
▁সম্মুখে	-9.82921
▁নাচ	-9.83113
▁প্রাপ্ত	-9.83205
▁মেয়েটি	-9.83218
▁গভর্নর	-9.83334
▁প্রাক্তন	-9.83412
▁ফেলতে	-9.83453
▁বিহারী	-9.83518
▁সর্বদা	-9.83521
▁পর্যায়ের	-9.83541
▁উপযুক্ত	-9.83597
▁বিজ্ঞানের	-9.83622
▁মুক্তিযুদ্ধে	-9.83642
▁দেড়	-9.83686
▁ওপরে	-9.83704
▁আবদ্ধ	-9.83775
▁পারতেন	-9.83786
▁দরিদ্র	-9.83798
▁এসেছিলেন	-9.83834
▁খায়	-9.83854
▁পর্বে	-9.83855
▁আনার	-9.83927
▁নদীতে	-9.8399
▁কক্ষ	-9.84067
▁ঐতিহ্য	-9.84074
য়া	-9.8415
▁সাহায্যে	-9.84238
▁নির্বাচনী	-9.84304
▁আব্দুল	-9.84315
▁যুগ	-9.8439
▁দৃশ্য	-9.84509
▁ছাড়াই	-9.8481
▁নেবে	-9.84819
▁দিতেন	-9.84948
▁মিশন	-9.84968
▁সিরিয়া	-9.8498
▁দাঁড়াও	-9.85192
▁মাল	-9.8525
▁শিষ্য	-9.85315
▁পরিষদ	-9.85376
▁অবতীর্ণ	-9.85405
▁ধনী	-9.85443
▁লোকে	-9.8548
▁হইয়াছিল	-9.855
▁সোজা	-9.8559
▁মিষ্টি	-9.85613
▁যোগাযোগের	-9.85621
▁খেলতেন	-9.85707
▁বাজে	-9.85738
▁প্রজাতির	-9.85769
▁ভেবেছিলাম	-9.85777
▁মেয়র	-9.85847
▁চ্যাম্পিয়ন	-9.85898
▁পদার্থ	-9.85905
▁নূতন	-9.8595
দিন	-9.86008
▁গেলেও	-9.86054
▁সা	-9.86065
▁বার্তা	-9.86112
▁শিশুর	-9.8617
▁চালায়	-9.86182
▁শব্দটি	-9.86203
▁বুক	-9.86217
▁ঠিকই	-9.8628
▁যোগ্য	-9.86281
▁শ্রেণির	-9.86312
▁দেখাতে	-9.86374
▁ব্যয়	-9.86423
▁সংসার	-9.86455
কেই	-9.86472
▁ইমাম	-9.86485
ভিত্তিক	-9.8653
▁বানিয়ে	-9.86708
▁ঘৃণা	-9.86733
▁হলুদ	-9.86749
▁প্রত্যক্ষ	-9.86852
▁সংগ্রাম	-9.86907
▁চেয়েও	-9.87018
▁এভাবেই	-9.87186
▁গিয়াছে	-9.87221
▁বিশেষজ্ঞ	-9.87255
▁করিব	-9.87285
▁মি	-9.8734
▁প্রয়োজনে	-9.87374
▁লিখিত	-9.87382
▁বাস্তব	-9.8746
▁সচিব	-9.87474
▁পর্যবেক্ষণ	-9.87509
▁আলোর	-9.87527
▁পারিনি	-9.87532
▁নামেও	-9.87551
▁নজর	-9.87675
▁কুকুর	-9.87675
▁মধুসূদন	-9.87687
▁মঞ্চে	-9.87715
▁সাতটি	-9.87751
▁দেয়াল	-9.87755
▁রাজনীতির	-9.87809
▁পার্টি	-9.87966
▁সেনা	-9.87989
▁হয়েছি	-9.88004
বিরোধী	-9.88012
▁আমলে	-9.88078
▁চালাতে	-9.88167
▁বীজ	-9.88187
▁অনুভূতি	-9.88238
▁কারা	-9.8826
▁শিল্পের	-9.88327
দা	-9.88346
▁উদয়াদিত্য	-9.88376
▁দিদি	-9.8838
▁শতকের	-9.884
▁চিৎকার	-9.88436
▁কালে	-9.88482
▁এইসব	-9.88613
▁কর্মকর্তাদের	-9.88649
▁শব্দের	-9.88674
▁জনপ্রিয়	-9.8868
▁গোয়েন্দা	-9.88697
্য	-9.88718
▁ফেরার	-9.88725
▁অপরের	-9.88751
▁আশপাশে	-9.88768
▁হিন্দি	-9.88779
▁খাবারের	-9.88878
▁ভরে	-9.88886
▁প্রকল্পের	-9.88895
▁থাকতেন	-9.88946
▁তবুও	-9.88996
▁নেটওয়ার্ক	-9.89037
▁বাঁধা	-9.89062
▁মে	-9.89079
▁ঐতিহ্যবাহী	-9.89137
▁মাঝখানে	-9.89138
▁জো	-9.89151
▁গবেষণার	-9.89199
▁চাপা	-9.89204
▁ভোগ	-9.89266
▁সোনার	-9.89297
▁বৈজ্ঞানিক	-9.89306
▁উনার	-9.89327
▁দিচ্ছেন	-9.89397
▁ভারী	-9.89402
▁হলেই	-9.89526
▁মিলিয়ে	-9.89569
▁যাকে	-9.89621
▁সাধন	-9.89651
ীন	-9.89769
▁পাঠানোর	-9.8977
▁তিনিই	-9.89791
▁নিয়েই	-9.89815
▁নিউজিল্যান্ড	-9.89837
▁সাম্প্রতিক	-9.89888
▁বৃদ্ধ	-9.89899
▁ফেলেছে	-9.89939
▁মাদক	-9.90003
▁জাতিসংঘ	-9.90219
▁মেয়েরা	-9.90223
▁যন্ত্র	-9.9024
▁এরফলে	-9.90279
▁আবাসিক	-9.90291
▁আগামীকাল	-9.90299
▁সূর্য	-9.90401
▁সারি	-9.90505
▁মন্দ	-9.90536
▁তোলে	-9.90542
ু	-9.90545
▁কথাই	-9.90606
▁জামিন	-9.90666
▁নৃত্য	-9.90722
▁বিশেষভাবে	-9.90843
▁শিরোপা	-9.90855
▁রহস্য	-9.90856
▁প্রেমের	-9.90878
▁সেখানকার	-9.90904
▁প্রতিবেশী	-9.90914
▁যথার্থ	-9.90941
▁এটিকে	-9.90975
▁হই	-9.90983
▁কার্ড	-9.91054
▁আসলেই	-9.91132
▁দায়	-9.91161
▁গ্রুপের	-9.912
▁প্রদেশ	-9.91297
▁বয়ে	-9.91338
▁কাজেই	-9.91412
▁স্টেশনে	-9.91431
▁হস্তান্তর	-9.91439
কেও	-9.91469
▁নিদর্শন	-9.91485
▁কাহার	-9.91515
▁ইতিবাচক	-9.91528
▁মাধ্যম	-9.91532
টিকে	-9.91572
▁মায়া	-9.91587
▁অঞ্চলটি	-9.91591
▁দৈনিক	-9.91688
▁প্রতিষ্ঠানে	-9.918
▁সহজেই	-9.91824
▁আসুন	-9.91829
▁পাকা	-9.91859
▁গণিত	-9.91905
▁দাগ	-9.91915
▁নজরুল	-9.91954
▁হইলেন	-9.91978
▁চট্টগ্রামে	-9.91989
▁দিলাম	-9.92032
▁সংখ্যক	-9.92068
▁কানে	-9.92097
▁পরই	-9.92123
▁প্রত্যাখ্যান	-9.92229
▁প্রতিবাদ	-9.92382
▁সুপরিচিত	-9.92416
▁জানালেন	-9.92454
▁রহিয়াছে	-9.9256
▁উপদেশ	-9.92587
▁চালান	-9.92631
▁চেয়েছিলেন	-9.92659
▁পর্ব	-9.92702
▁ডি	-9.9279
▁আবশ্যক	-9.92791
▁কক্ষে	-9.92925
▁খাওয়ার	-9.92976
▁অতীত	-9.93026
▁ইসলামি	-9.93068
▁কংগ্রেস	-9.93084
▁সরকারী	-9.93149
▁আত্মার	-9.93165
▁আমাদেরকে	-9.93174
▁বিশ্বে	-9.93234
▁এসেছিল	-9.93262
▁ছয়	-9.93313
চলতি	-9.93315
▁উদাহরণ	-9.93329
▁প্রদর্শনী	-9.9342
▁বাঁচাতে	-9.93634
▁গমন	-9.93639
▁উঠতে	-9.93679
▁আই	-9.93749
▁প্রশাসন	-9.9375
▁কানাডা	-9.93861
▁মেলে	-9.93907
▁সিনেমা	-9.94008
▁যত্ন	-9.94133
▁বসা	-9.94158
▁ফুলের	-9.94163
▁উপাধি	-9.94255
▁সাহিত্যের	-9.94442
▁তাছাড়া	-9.94459
▁দেখিল	-9.94482
টিতে	-9.94564
▁অল	-9.94592
▁কাটা	-9.94685
▁হাঁ	-9.94794
▁বিস্তারিত	-9.94799
▁রাখো	-9.94817
▁গানে	-9.94825
▁নামাজ	-9.9486
▁শ্রীলঙ্কা	-9.94873
▁সংক্রান্ত	-9.94942
▁কয়েকবার	-9.94954
ছিল	-9.95019
▁শিক্ষালাভ	-9.95109
▁বিশ্রাম	-9.95111
▁লেখার	-9.95188
▁সেঞ্চুরি	-9.95216
▁দুর্নীতি	-9.95216
▁নিলে	-9.95279
▁স্বীকৃত	-9.95339
▁তোলার	-9.95344
▁সেন্ট	-9.95358
▁পাপ	-9.95369
▁পড়লে	-9.95415
▁কাজী	-9.95461
▁প্রান্তে	-9.95467
▁কর্তৃপক্ষের	-9.95516
▁দাবিতে	-9.95585
▁ম	-9.95603
▁ন	-9.9566
▁সমিতি	-9.95677
▁চারপাশে	-9.95683
▁মতামত	-9.95784
▁জানাতে	-9.95798
▁প্রতিষ্ঠার	-9.9582
▁পরম	-9.95891
▁পত্রিকায়	-9.95899
▁দিল্লি	-9.9592
▁আশেপাশে	-9.96012
▁আপন	-9.96046
▁বলিলেন	-9.9605
▁দেবো	-9.96056
▁বাড়িয়ে	-9.96107
▁চীনা	-9.96124
▁ভগবান	-9.96178
▁সপ্তাহে	-9.96183
সমূহ	-9.96194
▁শৈশব	-9.96195
▁ভারি	-9.96208
▁চারজন	-9.96244
▁একসময়	-9.96469
▁তাহাই	-9.96533
▁ম্যাডাম	-9.96626
▁পশু	-9.9664
▁রঘুপতি	-9.96679
▁গন্ধ	-9.96866
▁উঁচু	-9.96898
▁মারাত্মক	-9.97036
▁হইত	-9.97044
▁টিম	-9.97078
▁জন্যও	-9.97091
▁বৃষ্টির	-9.97093
▁বন্ধুদের	-9.9714
▁রায়ের	-9.97177
▁তাঁহাদের	-9.97242
▁দেখলাম	-9.97247
ছিলেন	-9.9725
▁ছাড়িয়া	-9.97259
▁ব্রাজিল	-9.97277
▁মহানগর	-9.97362
▁থাকবেন	-9.9742
▁শিশুটি	-9.97475
▁কুসুম	-9.97553
▁বইটি	-9.97562
সংক্রান্ত	-9.97574
▁মেলা	-9.97601
▁দিয়েই	-9.97627
▁অর্ধেক	-9.97639
▁ব্রেক	-9.97683
্স	-9.97807
▁প্রশাসনের	-9.97816
▁বরাদ্দ	-9.9786
▁রওনা	-9.9786
▁পরস্পর	-9.97951
▁ধারা	-9.97992
▁প্রত্যাশা	-9.9813
▁জারি	-9.98139
▁দুইবার	-9.98196
▁স্নাতকোত্তর	-9.98279
▁প্রভাবশালী	-9.98279
▁নির্মাতা	-9.98306
▁জলের	-9.98319
▁দফতর	-9.98324
▁আঁকা	-9.98382
▁পেশাদার	-9.98393
▁সঙ্গী	-9.98428
▁নিরাপত্তার	-9.98437
▁পাহাড়ের	-9.98462
▁কিশোর	-9.9854
▁ঠান্ডা	-9.98547
▁বলেছিলাম	-9.98585
▁সম্পত্তি	-9.98612
▁জ্যেষ্ঠ	-9.98652
▁মুক্তিযোদ্ধা	-9.9866
▁সোভিয়েত	-9.98707
▁প্রত্যাহার	-9.98712
▁ইনিংস	-9.98747
▁বিরোধ	-9.98769
▁বন্ধুরা	-9.98787
▁লোকটি	-9.9883
▁থেমে	-9.98867
▁কোরিয়া	-9.98884
▁তাহাতে	-9.98914
▁চাঁদ	-9.98932
▁সিং	-9.98962
▁ভালবাসা	-9.99008
▁করিয়াছেন	-9.99091
▁এস	-9.99092
▁রাসায়নিক	-9.99125
▁কোর্স	-9.99156
▁আইনে	-9.99178
▁শত্রু	-9.99408
▁প্রতিযোগিতার	-9.99451
▁হইতেই	-9.99474
ুর	-9.99516
▁মিছিল	-9.9964
কা	-9.99679
▁পড়ছে	-9.9969
▁প্রকাশনা	-9.99766
▁বিচারক	-9.99849
▁আইনশৃঙ্খলা	-9.99958
স্বরূপ	-10.0008
▁যাতায়াত	-10.0009
▁সূচনা	-10.0014
▁অন্যদের	-10.002
▁স্থাপত্য	-10.0026
▁শনাক্ত	-10.0036
▁সুরক্ষা	-10.0038
▁আলাপ	-10.0039
▁রেখেছিলেন	-10.0041
▁ব্যক্তিরা	-10.0046
▁আইনি	-10.007
▁অভ্যন্তরীণ	-10.0073
▁দোকানে	-10.0078
▁বীর	-10.0078
▁কোরো	-10.0081
▁বিষয়ের	-10.0083
▁কল্যাণ	-10.0083
▁ইউনিভার্সিটি	-10.0089
▁কান	-10.0094
▁উভয়ে	-10.0095
▁লন্ডনে	-10.0097
▁মজার	-10.01
▁বিরোধিতা	-10.0102
▁একজনকে	-10.0102
▁মাত্রা	-10.0103
▁খেলোয়াড়দের	-10.011
টার	-10.0113
▁পাঁচজন	-10.0115
▁লক্ষণ	-10.012
▁গোলাম	-10.0123
▁বন্ধন	-10.0126
▁সার	-10.0127
▁মন্দিরে	-10.0136
▁বিজ্ঞাপন	-10.0159
▁আরেকটা	-10.016
▁কার্যালয়ে	-10.016
▁পুরাতন	-10.0167
▁প্রতিরক্ষা	-10.0169
▁বাস্তবায়ন	-10.0175
▁আমিই	-10.0176
▁কেবলমাত্র	-10.0177
▁করতো	-10.0181
ধরনের	-10.0182
▁ভাবনা	-10.0182
▁শ্রেণীর	-10.0197
▁ষষ্ঠ	-10.0201
▁থিয়েটার	-10.0205
▁শশীর	-10.0208
▁সি	-10.0209
▁পারছে	-10.0214
▁গা	-10.0214
▁বোকা	-10.0219
▁দর্শকদের	-10.0224
▁প্রশ্নের	-10.0225
▁চলমান	-10.0232
▁অপু	-10.0232
▁তিনবার	-10.0242
▁আমাদিগকে	-10.0254
▁বিহার	-10.026
▁বিদ্যালয়	-10.0266
▁করিস	-10.0268
▁বুকের	-10.0268
পর্যন্ত	-10.0269
▁ফাইনালে	-10.0272
▁বিতরণ	-10.0273
▁অবস্থানে	-10.0275
▁মৌসুম	-10.0288
▁থাকব	-10.0291
▁মিডিয়া	-10.0292
▁বাসিন্দা	-10.0295
▁আওতায়	-10.0298
▁আইসিসি	-10.0298
▁স্থাপনা	-10.0301
▁পিছু	-10.0303
প	-10.0303
▁কলা	-10.0313
▁লিখতে	-10.0314
▁মাহমুদ	-10.0318
▁যথা	-10.0318
▁ইউরোপে	-10.0323
▁পুরুষের	-10.0329
▁লোকদের	-10.0336
▁নেপাল	-10.0336
গুলোতে	-10.0338
▁প্রথা	-10.0338
▁আওয়াজ	-10.0342
▁ওঠা	-10.0349
▁দিও	-10.0353
▁উৎপত্তি	-10.0354
▁শ্রী	-10.036
▁সম্পাদনা	-10.0363
▁নদীটি	-10.0366
পূর্ণ	-10.0367
▁বিধান	-10.0369
▁হোটেল	-10.0375
▁বৎসর	-10.0377
▁লেগেছে	-10.0378
লা	-10.0382
▁আসাম	-10.0383
▁ভাগ্য	-10.0397
▁একেবারেই	-10.0399
▁ঠিকানা	-10.0403
▁অতিবাহিত	-10.0406
▁বনে	-10.0413
▁চালক	-10.0415
▁নামটি	-10.042
▁কাঠামো	-10.0422
▁পারত	-10.0423
▁নীচে	-10.0423
▁প্রতিশ্রুতি	-10.0426
▁নূর	-10.0438
▁চ্যানেল	-10.0444
▁রোগের	-10.0449
▁বিপরীত	-10.0449
▁জানতাম	-10.045
▁ন্যাশনাল	-10.0451
▁অভিযানে	-10.0459
▁যুবক	-10.0462
▁পরিমাণে	-10.0466
▁আশীর্বাদ	-10.0466
▁প্রেরণ	-10.0469
▁শপথ	-10.0473
▁জলদি	-10.0474
▁স্ব	-10.0475
▁কুমুদ	-10.0478
▁শুনেছি	-10.0479
▁সন্ধ্যার	-10.0479
▁লেগ	-10.0485
লেন	-10.0492
▁কৃষক	-10.0493
▁অতঃপর	-10.0494
▁তুমিই	-10.0497
▁সম্মেলন	-10.0501
▁বাবাকে	-10.0502
▁স্মরণ	-10.0503
▁স্টেডিয়ামে	-10.0509
▁ছাত্রদের	-10.0513
▁বস্তুর	-10.0514
▁প	-10.0517
▁সর্বত্র	-10.0518
▁শুটিং	-10.0525
▁জাল	-10.0525
▁ঘটনাটি	-10.0527
▁পোস্ট	-10.0529
▁জলে	-10.0532
▁সীমিত	-10.0539
▁বক্তব্য	-10.0542
▁ভালোবাসি	-10.0554
▁ভোরে	-10.0558
▁চাচা	-10.0558
▁পরিচালনার	-10.0561
▁ভেসে	-10.0562
▁সম্পর্কের	-10.0562
▁বৃহত্তর	-10.0562
▁ভিড়	-10.0567
▁কর্মকাণ্ড	-10.0568
▁বিপদ	-10.0569
▁মোটা	-10.0577
▁ব্যাপকভাবে	-10.0579
▁ব্রাহ্মণ	-10.0583
▁আত্মহত্যা	-10.0583
▁প্রণাম	-10.0584
▁রয়ে	-10.0588
▁প্রজাতি	-10.0589
▁চিকিৎসার	-10.0609
▁পেরে	-10.0611
▁মন্দিরটি	-10.0613
▁আম	-10.0619
প্রতিদ্বন্দ্বিতা	-10.0625
▁ফায়ার	-10.063
▁ধরন	-10.0637
▁লেখাপড়া	-10.0637
▁লন্ডন	-10.064
▁অঙ্গ	-10.0646
▁জনাব	-10.0652
▁অর্ধ	-10.0673
▁চেপে	-10.0673
▁অনেকগুলি	-10.0678
▁পারিল	-10.0682
▁ব্যবস্থার	-10.0693
▁দাফন	-10.0697
▁বিস্ফোরণ	-10.0704
▁ডুবে	-10.0704
▁রাষ্ট্রের	-10.0705
▁শোন	-10.0707
▁চ্যালেঞ্জ	-10.0718
▁স্থগিত	-10.0719
▁কাঠ	-10.0726
▁কবির	-10.0727
▁জিতে	-10.0729
▁মাস্টার	-10.0731
▁ভূষ	-10.0731
▁ফেসবুক	-10.0733
▁কাজটি	-10.0734
সে	-10.0738
▁পাল	-10.0741
▁মামা	-10.0744
▁পক্ষের	-10.0745
▁স্টেশনটি	-10.0745
▁মারতে	-10.0755
▁শুয়ে	-10.0756
▁হাট	-10.0767
▁শ্রীলঙ্কার	-10.0783
▁দেয়ার	-10.0787
▁সন্ত্রাসী	-10.0795
▁গঠনের	-10.0796
▁শুনানি	-10.0799
▁এলেন	-10.0802
▁আটটি	-10.0804
▁কামাল	-10.0805
▁পাচার	-10.0805
▁কমিশনের	-10.0807
▁উদ্যোগ	-10.081
▁খাতে	-10.0814
▁যেটি	-10.0814
▁সুখী	-10.0819
▁পরিষেবা	-10.0828
▁টিকে	-10.083
▁বিশ্বব্যাপী	-10.0835
▁আনন্দময়ী	-10.0835
▁বোনের	-10.0843
▁গণ	-10.0845
▁ছায়া	-10.0848
▁কাগজে	-10.085
▁দুজনেই	-10.0852
▁বাম	-10.0856
▁রূপান্তর	-10.0858
▁বাতাস	-10.0864
▁আফ্রিকান	-10.0877
▁সূক্ষ্ম	-10.0879
▁যাচ্ছিল	-10.0879
▁সৈন্য	-10.0883
▁রেলপথ	-10.0885
▁মহাসড়ক	-10.0889
▁ভাঙা	-10.0892
▁সংঘর্ষ	-10.0899
▁পরিদর্শন	-10.0899
▁আবদুল্লাহ	-10.0899
▁হ্যালো	-10.0903
▁শ্রমিকদের	-10.0907
▁রূপে	-10.0909
▁ভাত	-10.0916
▁আহ	-10.0925
▁পরপরই	-10.0938
জি	-10.0945
▁সংরক্ষণ	-10.0945
▁মদ	-10.0954
▁বন্ধুত্ব	-10.0959
▁কফি	-10.096
রূপ	-10.0964
▁দার্শনিক	-10.0966
▁ইট	-10.0969
▁সমাবেশ	-10.0972
▁পরিবর্তিত	-10.0973
▁ব্যান্ড	-10.0981
▁অবলম্বন	-10.0982
▁শোক	-10.0989
▁ইরানের	-10.0989
▁ভবনটি	-10.0992
▁রহমানের	-10.0994
▁ফেলবে	-10.1003
▁জমে	-10.1004
▁বরফ	-10.1019
▁মুদ্রা	-10.1019
▁দাঁড়াইয়া	-10.102
▁এসময়	-10.1031
▁বলবেন	-10.1032
▁পুলিশকে	-10.1051
▁ইন্দোনেশিয়া	-10.1062
"-	-10.1064
▁সুপ্রিম	-10.1067
▁মানবাধিকার	-10.1067
▁উপদেষ্টা	-10.1067
▁হয	-10.1068
▁নামিয়ে	-10.1069
▁ছবিটির	-10.1073
▁বলবো	-10.1075
▁নিলেন	-10.1078
▁কথাবার্তা	-10.1078
বাহী	-10.108
▁বলেছিল	-10.1087
▁বিশ্লেষণ	-10.1088
▁থাকিবে	-10.1091
▁ইহাই	-10.1098
▁হেঁটে	-10.11
▁স্তরের	-10.1101
▁কমান্ডার	-10.1114
▁এতদিন	-10.1115
▁সংস্কৃতির	-10.1118
▁ছেলেকে	-10.1119
▁ভাবি	-10.1129
▁তর্ক	-10.1133
▁দেয়ালে	-10.114
▁লোকটা	-10.1147
▁থাকত	-10.1151
▁কাটিয়ে	-10.1153
▁পূর্বেই	-10.1154
▁হোটেলে	-10.1154
এক	-10.1158
▁লিঙ্গ	-10.1165
▁খালিদ	-10.1166
▁মিলিত	-10.1166
▁ফেলো	-10.1167
▁আছ	-10.1172
▁অর্থে	-10.1175
নে	-10.1177
▁নিয়েছি	-10.1181
▁স্টেডিয়াম	-10.1182
▁জেগে	-10.1185
▁তালিকাভুক্ত	-10.1186
▁পছন্দের	-10.1186
▁খানিকটা	-10.1188
▁বিবরণ	-10.1189
টাও	-10.1191
▁সপ্তম	-10.1191
▁হননি	-10.1193
▁কথাও	-10.1195
▁নিচু	-10.1195
▁বিছানায়	-10.1199
▁দেহের	-10.12
▁নবী	-10.1209
▁বাঁধ	-10.1211
▁আচার	-10.1214
▁নাটকে	-10.1224
▁ধরেন	-10.1231
▁সেন	-10.1232
▁আটটা	-10.1233
▁বক্স	-10.1233
▁টিকিট	-10.1236
▁উপলব্ধি	-10.1238
▁অভিবাসী	-10.1241
▁সফটওয়্যার	-10.1243
▁স্ত্রীকে	-10.1245
▁গান্ধী	-10.1246
▁মিনার	-10.1252
▁বস	-10.1253
▁দলকে	-10.1255
▁হউক	-10.1257
▁আসছেন	-10.1261
▁জোরে	-10.1262
▁ক্ষেত্র	-10.1268
▁তাপমাত্রা	-10.1277
▁দ্বীপ	-10.1292
▁নির্দেশনা	-10.1293
▁গোটা	-10.1293
▁পাবলিক	-10.1296
▁প্রতিবেদনে	-10.1304
▁বসতি	-10.1307
▁তারিখ	-10.1317
▁সম্মানিত	-10.1318
▁উৎসব	-10.1326
▁সবজি	-10.1329
▁নিষেধাজ্ঞা	-10.1329
▁সর্বপ্রথম	-10.1329
▁সিগারেট	-10.133
▁পরীক্ষায়	-10.1332
▁সাহিত্যিক	-10.1336
▁রুশ	-10.1337
▁ইনিংসে	-10.135
▁উভয়	-10.1353
▁স্বামীজী	-10.1358
▁উজ্জ্বল	-10.1362
▁কেন্দ্রটি	-10.1372
▁ভালোবাসার	-10.1373
▁পাঞ্জাব	-10.1374
▁জনগণ	-10.1375
▁উপাসনা	-10.138
▁হাকিম	-10.1381
▁পাচ্ছেন	-10.1386
▁বিদ্যালয়টি	-10.1387
▁দর্শক	-10.1395
▁পরিসংখ্যান	-10.1398
▁প্রচেষ্টা	-10.1399
▁আস্থা	-10.1402
▁যথাযথ	-10.1403
▁চাবি	-10.1403
▁সমর্থক	-10.141
▁সংস্করণ	-10.1411
▁এবারের	-10.1432
▁পারা	-10.1451
▁ময়লা	-10.1451
▁অষ্টম	-10.1451
▁উচ্চতর	-10.1452
▁পরিশ্রম	-10.1457
▁ভয়াবহ	-10.1457
▁অংশের	-10.1461
▁ক্লান্ত	-10.1464
▁কতটা	-10.1464
কাল	-10.1467
▁যুবরাজ	-10.1476
▁সীমা	-10.1476
▁ভবিষ্যৎ	-10.1476
▁পদ্ধতিতে	-10.1477
▁গোত্রের	-10.1478
▁বাগান	-10.15
▁ভবনে	-10.1507
▁কমিশনার	-10.1509
▁বলেও	-10.1511
▁সাহিত্যে	-10.1512
▁ব্যাটিংয়ে	-10.1517
▁বিনোদন	-10.1521
▁পেরেছি	-10.1522
▁উপভোগ	-10.1524
▁তন্মধ্যে	-10.1525
▁বিশ	-10.1535
সা	-10.1535
▁লেনদেন	-10.1544
▁সন্ন্যাসী	-10.1548
▁উন্মুক্ত	-10.155
▁আজাদ	-10.1565
▁পর্যটন	-10.1567
▁ঝামেলা	-10.157
▁স্বরূপ	-10.1574
▁অধ্যাপনা	-10.1575
▁মেয়েটির	-10.1575
▁আমদানি	-10.1577
▁নিষেধ	-10.1579
▁যতটা	-10.158
▁কলকাতায়	-10.1582
▁তুমিও	-10.1582
ফ	-10.1588
▁অনুমান	-10.1603
▁উভয়ের	-10.1606
▁রাত্রি	-10.1611
নো	-10.1617
▁সংক্ষিপ্ত	-10.1617
▁অস্বাভাবিক	-10.1622
▁পেশা	-10.1625
▁উপকূল	-10.1626
▁দুর্ঘটনা	-10.1626
▁আগ	-10.1642
▁ভেঙ্গে	-10.1649
▁পাকিস্তানে	-10.1652
হ	-10.1652
▁সার্ভিস	-10.1656
▁পতন	-10.166
▁তালা	-10.1671
▁প্রচলন	-10.1674
▁লিখেছিলেন	-10.1675
▁ভোর	-10.1676
▁তুলিয়া	-10.1682
▁ডেভিড	-10.1683
মান	-10.1691
▁শর্ত	-10.1691
▁নিচ্ছে	-10.1695
▁বিবাহের	-10.17
▁এমনটা	-10.1701
▁জুন	-10.1701
▁পাঠান	-10.1717
▁ব্যক্তিকে	-10.1717
▁উৎসাহ	-10.172
▁গণ্য	-10.1725
▁টের	-10.1727
▁সকলকে	-10.1727
▁জ্বর	-10.173
▁ত্রুটি	-10.1734
▁মুখ্য	-10.1738
▁সংশোধন	-10.1738
▁বৈদ্যুতিক	-10.1749
▁ভালোভাবে	-10.1759
▁শিক্ষকদের	-10.1759
▁নগরে	-10.1767
কারীদের	-10.1768
▁পাখির	-10.177
▁নিচেরসারি	-10.1774
▁উপস্থিতি	-10.1777
▁মালয়েশিয়া	-10.178
▁মারধর	-10.1786
সি	-10.1793
▁জনগোষ্ঠী	-10.1793
▁সমুদয়	-10.1801
▁পাড়ি	-10.1802
▁পাট	-10.1804
▁আনুষ্ঠানিক	-10.1807
▁অধিনায়কের	-10.1808
▁নাটকের	-10.1821
▁আসব	-10.1823
▁দাঁত	-10.1823
▁ঠাণ্ডা	-10.1825
▁খুঁজতে	-10.1826
▁ক্রমশ	-10.1834
▁সংস্থাটি	-10.1835
▁শ্রেণী	-10.1836
▁প্রেমে	-10.1837
▁মঙ্গল	-10.1837
▁এজন্য	-10.1841
▁ফাঁস	-10.1843
▁কাকে	-10.1846
▁বিনিময়ে	-10.1848
▁পর্যাপ্ত	-10.185
▁সচেতন	-10.1852
▁দুর্বৃত্তরা	-10.1853
▁জ্ঞানের	-10.1854
▁উদ্দিন	-10.1862
▁অন্ধ	-10.1864
▁ব্যাগ	-10.1866
▁বিনয়ের	-10.187
▁ধরেই	-10.1872
▁নিক্ষেপ	-10.1879
▁অভাবে	-10.1882
▁ছিলে	-10.1888
▁রোড	-10.189
▁বিভাগীয়	-10.1892
▁সরল	-10.1895
▁স্বাদ	-10.19
▁বিছানা	-10.1914
▁জিজ্ঞাসাবাদ	-10.1915
▁দুজনকে	-10.1923
▁পড়াশুনা	-10.1927
▁বাড়ছে	-10.1927
▁রসায়ন	-10.1936
▁গল্পের	-10.1939
▁আজকে	-10.194
▁সুরমা	-10.1946
▁তোলেন	-10.1949
▁বিপ্লব	-10.1963
▁ফ্রান্স	-10.1969
▁দূতাবাস	-10.1974
▁ছাদে	-10.1975
▁মন্ত্রণালয়	-10.1976
▁ভরা	-10.1989
▁সাহসী	-10.1997
▁প্রমাণিত	-10.1998
▁এতটা	-10.1998
▁লাগানো	-10.2003
▁অলিম্পিক	-10.2009
▁ভক্ত	-10.2012
▁সম্পৃক্ত	-10.2016
▁রাশিয়ার	-10.2019
▁জমির	-10.2023
▁ফ্রান্সের	-10.2023
▁পত্রিকাটি	-10.2025
▁বন্ধুর	-10.2052
▁চিকিৎসাধীন	-10.2057
▁বানানো	-10.2057
▁ধরার	-10.2057
▁অসীম	-10.2062
▁দেবার	-10.2062
▁ইহুদি	-10.2064
▁প্রবাসী	-10.207
▁ফোনে	-10.2071
▁বর্ণের	-10.2072
▁চরিত্রের	-10.2082
▁সম্প্রচার	-10.2082
▁ম্যানেজার	-10.2084
▁ব্যাটিংয়ের	-10.2095
▁দশক	-10.2096
▁অন	-10.2101
▁কৃতিত্ব	-10.2108
▁হব	-10.2108
▁ইতোমধ্যে	-10.2109
▁এঁদের	-10.2109
▁পিছিয়ে	-10.2109
▁তৎকাল	-10.211
▁জাদুঘর	-10.2114
▁আপিল	-10.213
▁বাড়তে	-10.2136
▁শিল্পকলা	-10.2137
▁জাতীয়তাবাদী	-10.2139
▁গোরার	-10.214
▁গিয়েছিলাম	-10.214
▁নেয়া	-10.2152
▁যাচাই	-10.2156
▁অপমান	-10.2159
▁ত	-10.2165
▁ঢুকতে	-10.2165
▁প্রতিবছর	-10.2166
▁যশোর	-10.2167
▁ছাত্রী	-10.217
▁ফেলেন	-10.2175
▁রাখবে	-10.2175
▁কবর	-10.2178
▁বুদ্ধ	-10.218
▁নবীন	-10.2181
▁তীর	-10.2182
▁খোদা	-10.2184
▁গরু	-10.219
▁দশকে	-10.2197
▁কাছেই	-10.2198
▁ভাগে	-10.2202
▁পরশু	-10.2212
▁প্রমুখ	-10.2214
▁ডিজিটাল	-10.2215
▁লাগলেন	-10.2217
▁প্রায়শই	-10.2218
▁আনুষ্ঠানিকভাবে	-10.2219
▁আসবেন	-10.2224
▁আইএস	-10.2225
▁কার্যকরী	-10.2227
▁সীমান্তে	-10.2228
▁পয়েন্ট	-10.2232
ষধ	-10.2234
▁বৈঠক	-10.2235
▁পাইল	-10.2235
▁সুপারিশ	-10.224
▁পাল্টা	-10.2241
▁কোষ	-10.2242
▁ব্যবসায়িক	-10.2242
▁পরিস্থিতিতে	-10.2242
▁ফিরতে	-10.2243
▁সভাপতিত্ব	-10.2244
▁সংবিধান	-10.2245
▁স্তর	-10.2245
াদি	-10.2249
▁আগেও	-10.225
▁অনেকক্ষণ	-10.225
▁ইন্ডিয়ান	-10.225
▁স্নেহ	-10.225
▁তিনটা	-10.2262
▁শ্রম	-10.2263
▁কিনতে	-10.227
▁মোড়	-10.2274
▁পেট	-10.2279
▁অর্জুন	-10.2288
▁মিশ্র	-10.2289
▁শো	-10.2289
▁একবারও	-10.2291
▁উপস্থাপন	-10.2293
▁সিঁড়ি	-10.2294
▁উদ্বোধনী	-10.2297
▁নিকটে	-10.2301
▁রাজনীতিবিদ	-10.2302
▁খাতের	-10.2304
▁গো	-10.2305
▁হারানো	-10.2306
▁কর্মীরা	-10.2309
▁আধা	-10.2317
▁কৃত্রিম	-10.232
▁দেখিয়েছেন	-10.2322
েন	-10.2324
▁আত্ম	-10.2326
▁শীত	-10.2331
▁তুলনা	-10.2331
▁সন্তানদের	-10.2338
▁লাভের	-10.2341
▁পৌর	-10.2342
▁অন্যের	-10.2347
▁বসু	-10.235
▁পাথরের	-10.2351
▁স্তরে	-10.2357
▁রাজবংশ	-10.2358
▁রোমান	-10.2359
কালে	-10.2361
▁দৃষ্টান্ত	-10.2367
▁দুর্দান্ত	-10.2373
▁অভিযুক্ত	-10.2374
▁বাড়তি	-10.2374
▁সংখ্যালঘু	-10.2374
▁সামলে	-10.2374
▁প্রসারিত	-10.2376
▁হেরে	-10.2387
▁ক্যাম্পাস	-10.239
▁নির্ভরশীল	-10.2391
▁দিল্লির	-10.2393
▁মিত্র	-10.2394
যুক্ত	-10.2395
▁লবণ	-10.2401
▁কতকগুলি	-10.2402
▁হলাম	-10.2406
▁পাহাড়	-10.2406
▁সমন্বয়	-10.2414
▁আঙুল	-10.2414
▁প্রচারণা	-10.2415
▁সিরিজে	-10.2417
▁প্রচারিত	-10.2417
▁সৌন্দর্য	-10.2419
▁বায়ু	-10.2421
▁তখনো	-10.2423
গুলোকে	-10.2428
▁আকাশে	-10.2431
▁সেতুর	-10.2436
▁ক্ষমতার	-10.2437
▁কংগ্রেসের	-10.2448
▁আমন্ত্রণ	-10.2451
▁ব্যবসার	-10.2457
▁বেড়েছে	-10.2458
▁সবগুলো	-10.2459
▁আবহাওয়া	-10.2463
▁শতাব্দীতে	-10.2465
▁তাড়া	-10.2477
▁হোসেনের	-10.2477
▁পর্যালোচনা	-10.2481
▁অপেক্ষায়	-10.2482
▁হাসিয়া	-10.2483
▁গণতান্ত্রিক	-10.2484
▁প্রাচীনতম	-10.2484
▁ঘটতে	-10.2485
▁দত্ত	-10.2485
▁দিনাজপুর	-10.2488
▁প্র	-10.2488
▁হেমনলিনী	-10.25
▁হাল	-10.2503
▁দিবস	-10.2508
▁ডিগ্রী	-10.2509
▁দূরত্ব	-10.2513
▁ছাপ	-10.2516
▁অনন্য	-10.2522
▁সংসারে	-10.2523
▁করতেই	-10.2526
▁করিত	-10.2527
▁আলু	-10.2528
▁অতীতে	-10.2532
▁প্রকৌশল	-10.2536
▁বেঙ্গল	-10.2537
▁আসিয়াছে	-10.2537
▁টেবিলে	-10.2538
▁ছাদ	-10.254
▁যাত্রীদের	-10.254
▁ইতালি	-10.2541
▁সংগঠনটি	-10.2548
▁নবাব	-10.2558
▁সত্যতা	-10.2561
▁বাড়াতে	-10.2574
▁দশকের	-10.2578
▁মেয়াদ	-10.2579
▁চিত্রনাট্য	-10.259
▁আকৃষ্ট	-10.2591
▁অবধি	-10.2591
▁আপাতত	-10.2591
▁বিন্দু	-10.2593
▁আকবর	-10.2595
▁আনোয়ার	-10.2598
▁আকাশের	-10.26
▁তিব্বত	-10.2602
▁জিন	-10.2606
▁বিপরীতে	-10.2612
▁সহায়ক	-10.2612
লাম	-10.2613
▁উভয়ই	-10.2617
▁বাসে	-10.2617
▁প্রতিশোধ	-10.2618
▁নারীরা	-10.2618
▁ওঠার	-10.2623
▁প্রজন্মের	-10.2623
▁মূল্যবান	-10.2623
▁ডেটা	-10.263
▁কামনা	-10.2635
▁ক্রমাগত	-10.2638
টোয়েন্টি	-10.2644
▁বিস্মিত	-10.2646
▁নোবেল	-10.2646
▁জ্বালানি	-10.2646
▁কুরআন	-10.2647
▁প্রবণতা	-10.2648
▁দ্বার	-10.2649
▁সংকট	-10.2649
▁দিবো	-10.2652
▁গ	-10.2654
▁অন্ধকারে	-10.2664
▁তে	-10.2665
▁পুরনো	-10.2673
▁নেব	-10.2674
▁মোটরসাইকেল	-10.2674
▁নিকটবর্তী	-10.2675
▁এটার	-10.2678
▁আলীর	-10.2679
▁এলাকাবাসী	-10.2679
▁সম্মাননা	-10.2692
▁করেছো	-10.2696
▁জীব	-10.2697
▁নায়ক	-10.2698
▁চক্ষু	-10.2707
▁শ্রেণি	-10.2709
▁বিলম্ব	-10.2716
▁সরকারকে	-10.2721
▁শিক্ষিত	-10.2735
▁রোগীর	-10.2737
▁সুনাম	-10.2737
▁তালিকায়	-10.2739
▁শিব	-10.2742
▁নেতিবাচক	-10.2749
▁ভূ	-10.275
▁মানের	-10.2751
জন	-10.2753
▁অপূর্ব	-10.2761
▁পায়নি	-10.2763
▁কাঠের	-10.2767
▁সেন্টার	-10.2769
▁স্বামীজীর	-10.277
▁তরঙ্গ	-10.2771
▁করাতে	-10.2772
▁রিপোর্ট	-10.2775
▁নিয়েও	-10.2778
▁চির	-10.2784
▁শীর্ষে	-10.2789
▁বিষ	-10.2793
▁শাড়ি	-10.2796
▁অ্যালবাম	-10.28
▁গোপাল	-10.2802
মুক্ত	-10.2804
▁পালা	-10.2811
▁খেলাধুলা	-10.2812
▁বউ	-10.2818
▁বাক্স	-10.2818
▁করিম	-10.2819
▁জেলাটি	-10.2823
▁আশ্বাস	-10.2827
▁পেরিয়ে	-10.284
▁ভক্তি	-10.284
▁পরিপূর্ণ	-10.284
▁মানবিক	-10.2845
▁আর্ট	-10.2845
▁দমন	-10.2856
▁সাক্ষী	-10.2858
▁জটিলতা	-10.286
▁ভিত্তিক	-10.2861
▁মুক্তিযোদ্ধাদের	-10.2861
▁অপারেশন	-10.2861
▁হাদিস	-10.2865
▁হতেন	-10.2873
ব্যাপী	-10.2873
▁আলোচিত	-10.2877
▁প্রোগ্রাম	-10.2877
▁কোলে	-10.2882
▁অর্থনীতির	-10.2882
▁সংলাপ	-10.2884
▁কক্সবাজার	-10.2885
▁বৌদ্ধবিহার	-10.2887
▁হা	-10.2887
▁ইনস্টিটিউট	-10.2892
▁ভাঙচুর	-10.2898
▁ধার	-10.29
▁করতাম	-10.29
▁রাশিয়া	-10.2909
▁তারপরও	-10.2914
চ	-10.2917
▁প্রভু	-10.2923
▁গোল্ডে	-10.2927
▁রাখিয়া	-10.2929
▁পর্বত	-10.2935
▁প্রকৌশলী	-10.2935
▁ঘোষ	-10.2944
▁মেলায়	-10.2947
▁অপহরণ	-10.2947
▁পড়ি	-10.2949
▁চিরকাল	-10.2951
▁পার্বত্য	-10.2952
▁ব্লক	-10.2955
▁সিস্টেম	-10.2958
▁পরা	-10.2961
গ	-10.2962
▁স্টার	-10.2972
▁খ্যাত	-10.2976
▁জেমস	-10.2983
▁উত্তম	-10.2983
▁আদিবাসী	-10.2984
▁সেরে	-10.2996
▁দুজনে	-10.2998
▁ডাল	-10.3004
▁অক্ষয়	-10.3008
▁জিনিসপত্র	-10.3012
▁রীতি	-10.3013
▁রোগী	-10.3014
▁যুক্তরাজ্য	-10.3015
ভার	-10.3016
▁সাহেবের	-10.3024
▁গ্রন্থাগার	-10.3025
▁মুগ্ধ	-10.3027
▁নব	-10.3028
▁মেঘ	-10.3038
▁ভাষ্য	-10.304
▁পরিত্যাগ	-10.304
▁অধিকাংশই	-10.3043
▁পুরুষদের	-10.3044
▁বর্ণিত	-10.3044
তি	-10.3055
▁অস্ত্রোপচার	-10.3058
▁সর্বদাই	-10.3058
▁সময়ই	-10.306
▁ইয়র্ক	-10.3067
▁যাইহোক	-10.3068
▁ব্রহ্ম	-10.3069
▁খেলছেন	-10.307
▁ব্যবহারকারী	-10.3071
▁কোনোমতে	-10.3073
▁পেয়েছিল	-10.3077
▁হতাশ	-10.3088
▁মানুষদের	-10.3089
▁কাদের	-10.3089
▁ধ্যান	-10.3091
▁আত্মসমর্পণ	-10.3093
▁জানার	-10.3093
▁টুকরো	-10.3099
▁রোজ	-10.3101
▁হারে	-10.3102
▁জনক	-10.3102
▁নেয়ার	-10.3108
▁অসুবিধা	-10.3112
▁ঘড়ি	-10.3112
▁পরেও	-10.3119
▁প্রকৃতপক্ষে	-10.3126
▁মতবাদ	-10.3128
▁করছিস	-10.3128
▁হরতাল	-10.3135
▁দেখেছেন	-10.3138
তু	-10.314
▁বাপ	-10.3142
▁যাইবার	-10.3142
▁সেট	-10.3147
▁ইংল্যান্ডে	-10.3147
▁সম্ভাব্য	-10.3148
▁জোড়া	-10.3152
▁জয়ী	-10.3156
▁কান্না	-10.3157
▁যতক্ষণ	-10.3158
▁যাবত	-10.3158
ান	-10.3159
▁বুঝিয়ে	-10.316
▁বন্দুক	-10.3162
▁সেগুলি	-10.3162
▁আকর্ষণীয়	-10.3163
▁সপ্তাহের	-10.3166
▁ক্যাম্পাসে	-10.3167
▁ব্যবসায়ীরা	-10.3171
▁ফরিদপুর	-10.3182
ভ	-10.3197
▁বংশধর	-10.3206
▁বর্ণ	-10.3207
▁পাব	-10.3207
▁ওসমান	-10.3208
▁ক্ষমতায়	-10.3209
▁সৃষ্ট	-10.3212
▁অভিনীত	-10.3213
▁ম্যাজিস্ট্রেট	-10.3213
▁ভরসা	-10.3216
▁কমিয়ে	-10.3228
▁করলেই	-10.3228
পশ্চিম	-10.3231
▁করিতেছি	-10.3236
▁স্পিন	-10.3239
▁চাইতে	-10.3239
▁মনোনিবেশ	-10.3242
▁ঝগড়া	-10.3242
▁জিম্বাবুয়ে	-10.3243
▁মরতে	-10.3248
▁তহবিল	-10.3256
▁অগ্রগতি	-10.3258
▁জমিতে	-10.3259
▁জানাজা	-10.3259
▁বিপ্রদাস	-10.3266
▁দেশীয়	-10.327
▁ফাইনাল	-10.3272
▁বিচারপতি	-10.3274
▁লিমিটেড	-10.328
▁দাঁড়ায়	-10.3282
▁ছি	-10.3284
▁নও	-10.3284
▁এইভাবে	-10.3287
▁ব্যক্ত	-10.3287
▁উর্দু	-10.329
▁হত্যাকাণ্ড	-10.3299
▁গ্রেফতার	-10.3301
▁উৎপন্ন	-10.3302
▁খুলিয়া	-10.3302
▁লাফ	-10.3302
▁বগুড়া	-10.3304
▁বলছো	-10.3305
▁সহায়তায়	-10.3307
▁সীমাবদ্ধ	-10.3317
▁গড়	-10.3317
▁ফেলিয়া	-10.3318
▁লোকজনের	-10.332
▁খাঁ	-10.3323
▁শুষ্ক	-10.3332
▁সহিংসতা	-10.3332
▁অনলাইন	-10.3335
ডি	-10.3341
▁অত্যাচার	-10.3347
▁কাণ্ড	-10.335
▁হুম	-10.335
▁প্রেস	-10.335
▁হামলায়	-10.3351
▁নির্ণয়	-10.3355
▁ফেলেছি	-10.3358
▁গেট	-10.3359
▁অভিহিত	-10.336
▁ক্যালিফোর্নিয়া	-10.336
▁নাক	-10.3366
▁বসিয়ে	-10.337
▁অপরাধী	-10.3372
▁আন্তর্জাতিকে	-10.3373
থ	-10.3382
▁প্রখ্যাত	-10.339
▁বেলায়	-10.3391
▁রাহুল	-10.3391
▁অস্ট্রেলীয়	-10.3391
▁সাংবাদিকদের	-10.3391
▁জায়গাটা	-10.3393
▁এবারও	-10.3393
▁ইস্ট	-10.3397
▁সংবাদপত্র	-10.3401
▁ক্যাম্প	-10.3401
▁চারদিকে	-10.3407
▁ইরান	-10.3407
▁ওজন	-10.3408
▁পেটে	-10.341
▁কু	-10.3412
▁আলোচনায়	-10.3412
▁ইহাতে	-10.3412
▁তোদের	-10.3414
▁রকমের	-10.3417
▁মামলাটি	-10.3418
▁পিঠে	-10.342
▁সাজানো	-10.3422
▁পাত্র	-10.3423
▁ফাঁকা	-10.3425
▁প্রযোজক	-10.3426
▁ধারে	-10.3429
▁উপকার	-10.3437
▁শালা	-10.3438
▁সরঞ্জাম	-10.3441
▁পাশেই	-10.3446
▁আত্মীয়	-10.3447
▁দিত	-10.3448
▁চামড়া	-10.3449
▁অজানা	-10.3451
▁নিন্দা	-10.3452
▁বিরল	-10.3452
▁আসেনি	-10.3452
▁হইবার	-10.3454
▁দৃঢ়	-10.3456
▁আড়াই	-10.3457
▁ওয়ার্ডের	-10.3459
▁মরদেহ	-10.3461
▁সাময়িক	-10.3466
▁গাজীপুর	-10.3469
▁দোষী	-10.3474
▁ভীষণ	-10.3474
▁ছুরি	-10.348
▁তামিল	-10.3483
▁রুম	-10.3489
▁যুব	-10.3491
▁আমেরিকায়	-10.3504
▁নিখোঁজ	-10.3509
▁সরেজমিন	-10.3509
▁অস্থায়ী	-10.351
▁পড়েছেন	-10.3513
▁আকারের	-10.3514
▁বারান্দায়	-10.3517
▁যুক্তরাজ্যের	-10.3522
▁দুবার	-10.3526
▁টেলিভিশনে	-10.3536
▁মহকুমা	-10.354
▁পেলাম	-10.354
▁শ্বাস	-10.3542
▁বেতার	-10.3546
▁মরা	-10.3554
▁নমুনা	-10.3555
▁লেখালেখি	-10.3556
▁পরিবেশে	-10.3562
▁অংশগ্রহণের	-10.3563
▁পয়সা	-10.357
▁বঞ্চিত	-10.3576
▁আক্রমণের	-10.3594
▁কাম	-10.3596
▁নানান	-10.3597
▁অবশিষ্ট	-10.36
▁সশস্ত্র	-10.36
▁স্বয়ং	-10.36
েও	-10.361
▁সুন্দরী	-10.3615
▁মার্চ	-10.3617
▁মুঠোফোনে	-10.3618
▁লেজ	-10.3619
▁মঠ	-10.362
▁জর্জ	-10.3623
▁অটোরিকশা	-10.3626
▁রানী	-10.3627
▁ভ্রাম্যমাণ	-10.363
▁সামুদ্রিক	-10.3631
▁পথের	-10.3632
▁করবি	-10.3649
▁বার্ষিক	-10.365
▁ক্রিয়া	-10.3655
পাড়া	-10.3657
এই	-10.3659
▁দায়ের	-10.3661
▁ফলশ্রুতিতে	-10.3661
▁পাঠদান	-10.3662
▁খ্রিস্টান	-10.3663
▁ঘুরতে	-10.3665
▁কমিউনিস্ট	-10.3667
▁মন্ত্র	-10.3669
▁দশম	-10.3671
▁বিবাহিত	-10.3686
▁আশার	-10.3688
▁শ	-10.3691
▁বামহাতি	-10.3692
▁আক্তার	-10.3692
▁পাইলট	-10.3693
▁টান	-10.3704
▁দুর্গ	-10.3707
▁চাপে	-10.3708
▁গুলো	-10.3711
▁ভাবিয়া	-10.3713
স্থ	-10.3715
▁ওয়ার্ড	-10.3721
▁সাক্ষ্য	-10.3722
▁মাঝারি	-10.3723
▁সালমান	-10.3728
▁নদ	-10.3731
▁কোচের	-10.3743
▁বেদান্ত	-10.3745
▁শুনি	-10.3746
▁চাকরির	-10.3747
▁লাইসেন্স	-10.3754
টুকু	-10.3755
▁পুড়ে	-10.3756
▁তারপরে	-10.3757
▁সাফল্যের	-10.3758
▁ফ্যাশন	-10.3763
▁পাঠক	-10.3768
▁অনুরূপ	-10.3779
▁লুইস	-10.3779
▁গুগল	-10.3781
▁লঙ্ঘন	-10.3782
▁ভালোবাসে	-10.3782
▁গ্রামীণ	-10.3784
▁সম্মুখীন	-10.3784
▁থামো	-10.3785
▁গ্যাসের	-10.3786
▁দৃষ্টিতে	-10.3789
▁কড়া	-10.379
▁বর	-10.3791
▁হাইকোর্ট	-10.3791
▁রক্ষাকারী	-10.3792
▁ফেলার	-10.3801
▁পাবনা	-10.3804
▁মৃদু	-10.3806
▁গাছে	-10.3811
▁পদত্যাগ	-10.3813
▁বাংলাদেশী	-10.3814
▁মাতার	-10.3816
▁সাপ্তাহিক	-10.3816
▁থাকিলে	-10.3816
▁টার্মিনাল	-10.3817
▁ইঙ্গিত	-10.382
▁রাস্তাটি	-10.3845
▁মুঘল	-10.3847
▁বলছ	-10.3847
▁ধর্ষণ	-10.3847
▁পারমাণবিক	-10.3848
▁জয়লাভ	-10.3848
▁ইন	-10.3854
▁ভগবানের	-10.3854
▁গোষ্ঠী	-10.3858
র্বাপেক্ষা	-10.3861
▁রাষ্ট্রদূত	-10.3868
▁পার্শ্ববর্তী	-10.3877
▁বেড়াতে	-10.3881
▁উপাচার্য	-10.3881
▁আবেগ	-10.3882
▁প্রদানের	-10.3884
▁সেজন্য	-10.3888
▁নিলাম	-10.3888
▁প্ল্যান	-10.3888
▁অর্ডার	-10.3889
▁পড়িতে	-10.3894
▁ভাইয়া	-10.3901
▁রক্ষার	-10.3902
▁জন্মের	-10.3905
▁ধৈর্য	-10.3907
▁ধর্মে	-10.3914
▁দাদার	-10.3914
▁গোষ্ঠীর	-10.3915
▁কোর্ট	-10.3924
▁লি	-10.3928
▁রাজত্ব	-10.393
▁পরিবারকে	-10.3931
▁সৃষ্টির	-10.3935
▁স্মার্টফোন	-10.3935
▁নোট	-10.3937
▁বিধবা	-10.3938
▁বিরত	-10.3939
▁অবকাঠামো	-10.394
▁ফেনী	-10.3941
বোধ	-10.3943
▁বিপদে	-10.3947
▁সৎ	-10.3948
▁বোঝায়	-10.395
ইয়া	-10.3955
▁প্রকাশের	-10.3959
▁সরু	-10.3966
▁খেলায়	-10.3969
▁নবম	-10.3974
▁চেয়েছিলাম	-10.3975
▁গ্রন্থের	-10.3976
▁বাণী	-10.3982
▁সমস্যায়	-10.3989
▁করাই	-10.399
▁পেস	-10.3997
▁স্পেন	-10.3999
▁একাডেমির	-10.4011
▁রাখি	-10.4013
▁হায়	-10.4013
▁লোককে	-10.4018
▁এয়ার	-10.4019
▁সন্তুষ্ট	-10.4027
▁তলায়	-10.4029
▁সিংহ	-10.4031
▁চালানোর	-10.4036
▁ইসরায়েল	-10.4037
▁ফ্রি	-10.4038
▁বিদেশী	-10.4048
▁আফগানিস্তান	-10.4057
▁আনন্দের	-10.4064
▁পুকুর	-10.4064
▁বিদেশ	-10.4065
▁উচিৎ	-10.4066
▁টেবিল	-10.4066
▁চিকিৎসকেরা	-10.4074
▁বাছাই	-10.4076
▁এসবের	-10.4079
▁কাচ	-10.4088
▁প্রবাহ	-10.4091
▁বাক্য	-10.4096
▁আসরে	-10.4097
▁আলোক	-10.4098
▁আবির্ভাব	-10.4098
▁অনুপ্রাণিত	-10.4099
▁বানাতে	-10.4101
স্বরে	-10.4101
▁কবরস্থানে	-10.4102
▁কর্মীদের	-10.4104
▁অমিত	-10.4105
▁পূর্বের	-10.4112
▁সাবধান	-10.412
▁প্রশান্ত	-10.4121
▁মির্জা	-10.4123
▁অনলাইনে	-10.4126
▁ধন	-10.4126
▁হস্তক্ষেপ	-10.4126
▁অধিকতর	-10.4132
▁বাংলাদেশকে	-10.4135
▁বৈঠকে	-10.4136
▁সালাম	-10.4138
▁শাসনের	-10.4138
দার	-10.4143
▁মুহাম্মাদ	-10.4146
▁রেড	-10.415
মুখে	-10.415
▁বৌদ্ধধর্ম	-10.4158
▁ফেল	-10.4162
▁পূর্ণাঙ্গ	-10.4162
▁পাইয়া	-10.4162
▁চক্রবর্তী	-10.4165
▁গোপনে	-10.4167
▁দেখিনি	-10.4169
▁করছিলাম	-10.4169
কোন	-10.417
▁জিততে	-10.417
▁দেখান	-10.4172
▁সাধনা	-10.4175
▁প্রান্ত	-10.4176
▁পার্শ্ব	-10.4177
▁বসিল	-10.4178
▁পেলেন	-10.4179
▁পেছনের	-10.4185
▁মুঠোফোন	-10.4186
▁বাদে	-10.4187
▁তুরস্ক	-10.4189
▁বাসার	-10.4191
▁চিনতে	-10.4194
▁পুরানো	-10.4196
▁সত্তা	-10.4198
▁স্বর্ণ	-10.4201
▁প্রাসাদ	-10.4207
▁দিকের	-10.4211
▁তলা	-10.4213
▁পরপর	-10.4214
▁করিবেন	-10.4214
▁কর্পোরেশনের	-10.4222
একটা	-10.4222
▁যাইতেছে	-10.4225
▁লা	-10.4226
▁ভয়ংকর	-10.4226
▁ওয়েব	-10.4227
▁গেলো	-10.4235
▁সভাপতির	-10.4237
খ	-10.4237
▁গবেষক	-10.4239
▁রুমে	-10.4246
▁ফাঁসি	-10.4252
▁মোটামুটি	-10.4253
▁থাইল্যান্ড	-10.4258
▁সেকেন্ড	-10.4259
▁প্রতিপক্ষ	-10.4261
▁তরল	-10.4262
▁মেশিন	-10.4264
▁বিলুপ্ত	-10.4265
▁ঘাট	-10.4273
▁চোট	-10.4273
দ্য	-10.4275
▁সক্ষমতা	-10.4277
▁সান	-10.4284
▁ওভার	-10.4284
▁শরণার্থী	-10.4286
▁দ্বন্দ্ব	-10.4288
▁মনকে	-10.4291
▁ভারপ্রাপ্ত	-10.4292
▁বয়সের	-10.4296
▁কাপে	-10.43
▁আসর	-10.4305
▁রোগীদের	-10.4309
▁ভর	-10.431
▁ভদ্রলোক	-10.431
▁জড়	-10.4318
রকম	-10.4318
▁আকৃতির	-10.432
মতো	-10.4323
▁তৎক্ষণা	-10.4324
▁লাবণ্য	-10.4325
▁আইরিশ	-10.4327
▁গম্ভীর	-10.4328
▁মিশর	-10.4331
▁বিতর্কিত	-10.4333
▁আনে	-10.4335
▁ইরাক	-10.4336
▁করিয়াছিলেন	-10.4337
▁বিএনপির	-10.4339
▁আগমন	-10.4342
▁দ্বি	-10.4347
▁সেবার	-10.435
▁পাড়ে	-10.435
▁সার্বিক	-10.4356
▁বৈশ্বিক	-10.4357
▁উপযোগী	-10.4357
▁রাতেই	-10.4357
▁কারাগার	-10.4357
▁লেখেন	-10.436
▁হ্যা	-10.4363
▁হৃদয়ে	-10.4363
▁গম্বুজ	-10.4365
▁বে	-10.4366
▁দেই	-10.437
▁সিনিয়র	-10.4375
▁নিয়েছিল	-10.438
▁সাংবাদিকতা	-10.4381
▁ফারুক	-10.4382
▁আফগানিস্তানের	-10.4384
▁লোহার	-10.4389
▁সমসাময়িক	-10.4389
ীর	-10.439
▁মেরামত	-10.439
▁মাইকেল	-10.439
▁খেলেছিলেন	-10.4391
▁বহুল	-10.4394
▁বিড়াল	-10.4395
▁দৃষ্টিভঙ্গি	-10.4399
▁চুক্তির	-10.4402
▁থাকাকালীন	-10.4403
▁ক্লাবে	-10.4408
▁একদল	-10.4409
▁দুঃখের	-10.4409
ছিলাম	-10.4412
▁প্রসিদ্ধ	-10.4417
▁এসেছ	-10.4431
▁ওয়ানডে	-10.4435
▁জেল	-10.4442
▁ডিজাইন	-10.4448
▁জাহাঙ্গীর	-10.4457
▁জীবিকা	-10.4458
▁ঠোঁট	-10.446
▁ছাড়িয়ে	-10.446
▁কর্মজীবনে	-10.4467
▁সৈনিক	-10.4469
▁খাইতে	-10.447
▁রেখা	-10.4472
▁অনেকটাই	-10.4474
▁একাই	-10.4476
▁পদ্মা	-10.4476
▁দোস্ত	-10.4484
▁শুকিয়ে	-10.4488
▁চাওয়া	-10.4489
▁দুইজন	-10.4515
▁ভৌগোলিক	-10.4516
▁বাচ্চারা	-10.4523
▁পারতাম	-10.4523
▁পাশ্চাত্য	-10.4524
▁কই	-10.4525
▁জানিতে	-10.4527
▁নয়টা	-10.453
▁একাধিকবার	-10.4533
▁পরিণতি	-10.4543
▁যৌথ	-10.4549
▁বাঁ	-10.4551
▁ছেলেদের	-10.4551
▁মজুমদার	-10.4555
▁যাঁদের	-10.4555
▁কিচ্ছু	-10.4555
▁কাঁচা	-10.4556
▁উপরের	-10.4559
▁বাল	-10.456
▁আসিতে	-10.4562
▁সময়েই	-10.4569
▁বিজ্ঞানী	-10.4572
▁অবলম্বনে	-10.4577
▁শুনিতে	-10.4578
▁তদন্তে	-10.458
▁ভাইকে	-10.4582
▁বিদ্রোহ	-10.4583
▁সেনাবাহিনীতে	-10.4584
▁সম্মিলিত	-10.4588
▁গৃহ	-10.4591
▁তদন্তের	-10.4594
নের	-10.4595
▁এপ্রিল	-10.4604
▁সূর্যের	-10.4606
▁পদ্ধতির	-10.4615
▁কাঁধে	-10.4616
▁শতাব্দী	-10.4621
▁চারটা	-10.4622
▁সাউথ	-10.4622
াল্লাহু	-10.4622
▁রাযি	-10.4622
▁কোথা	-10.4638
▁কিলোমিটার	-10.4644
▁কর্মকাণ্ডে	-10.4648
▁দেশকে	-10.4649
বর্তী	-10.465
▁গ্রিক	-10.4656
▁নগরী	-10.4658
▁মেয়েটা	-10.4663
▁নেশা	-10.4669
▁শিশুরা	-10.467
▁জানানো	-10.4679
▁সিঙ্গাপুর	-10.468
▁অধিবাসী	-10.4683
▁অশোক	-10.4688
▁করিতেন	-10.4688
▁মোস্তফা	-10.469
▁দাবী	-10.469
▁অমর	-10.4696
▁নাট্য	-10.4697
▁মাঝেমধ্যে	-10.4699
▁শাখায়	-10.4702
▁নামেই	-10.4702
▁পড়েছি	-10.4708
▁প্রসঙ্গে	-10.4713
▁হাওয়া	-10.4715
দিকে	-10.472
▁সংস্কারের	-10.4723
▁পিটার	-10.4723
▁বিচ্ছেদ	-10.4729
▁টা	-10.4731
▁সঙ্গীতের	-10.4734
▁একাদশ	-10.4735
জনিত	-10.4741
▁অস্থির	-10.4746
▁দেননি	-10.4751
স্	-10.4752
▁সংগঠক	-10.4756
রাউন্ডার	-10.4757
▁চিন্তিত	-10.4757
▁বিপজ্জনক	-10.4758
▁সম্পদের	-10.4759
▁সনদ	-10.4761
▁নিয়ন্ত্রিত	-10.4766
▁দেখলেন	-10.477
▁সুন্দরবন	-10.477
▁পঞ্চাশ	-10.4772
▁পাড়া	-10.4776
▁ঘুমিয়ে	-10.4779
▁ফ্লাইট	-10.4779
▁শাসনামলে	-10.4785
▁গ্রন্থে	-10.4787
▁সার্ভিসের	-10.4789
▁শাস্ত্রী	-10.4789
▁পরিবেশের	-10.4791
▁প্রতাপাদিত্য	-10.4791
▁সুষ্ঠু	-10.4791
▁আজীবন	-10.4792
▁স্বার্থ	-10.4794
▁ভূত	-10.4795
▁লাইনের	-10.4805
▁সভ্যতার	-10.4805
▁আফগান	-10.4808
▁আগুনে	-10.4808
▁কাউন্সিল	-10.4809
▁ছুটির	-10.481
▁মতির	-10.482
▁কাউন্সিলের	-10.4821
▁ভাবছি	-10.4823
▁কপি	-10.4824
▁ত্বক	-10.4825
▁চলিতে	-10.4826
▁ঢেকে	-10.4826
▁অনেকের	-10.4829
▁শিল্পে	-10.4831
▁প্রত্যেকটি	-10.4832
▁বালি	-10.4839
ম্যান	-10.4856
▁ইন্টারন্যাশনাল	-10.4861
▁প্রাদেশিক	-10.4862
▁প্রতিযোগিতায়	-10.4862
▁উপায়ে	-10.4863
▁ইনি	-10.4863
▁জোট	-10.4867
▁আবদু	-10.4868
▁বন্যা	-10.4868
ওয়ালা	-10.4871
▁দণ্ড	-10.4871
▁মক্কায়	-10.4873
▁পাহাড়ে	-10.4875
▁কাটাতে	-10.4877
চার	-10.4887
▁গির্জা	-10.4894
▁দেখাশোনা	-10.4896
▁তুর্কি	-10.4896
▁বোর্ডে	-10.4897
▁অধিদপ্তর	-10.4899
▁পরিস্থিতির	-10.4899
▁আহার	-10.49
▁এক্ষেত্রে	-10.4901
▁বিবেচনায়	-10.4902
▁সাগরে	-10.4907
▁রিয়াল	-10.4926
▁রাজস্ব	-10.4929
▁সিভিল	-10.4929
▁রিকশা	-10.493
▁বংশের	-10.4934
▁বৈষম্য	-10.4935
▁ভাইরাস	-10.4938
▁জন্মে	-10.4941
▁ধাপে	-10.4942
▁জ্যাক	-10.4942
▁স্বপ্নের	-10.4948
ষ	-10.4951
▁ভাবিতে	-10.4954
▁সাবধানে	-10.4955
▁জামায়াত	-10.4963
▁ম্যান	-10.4965
▁দৌড়ে	-10.4969
▁দুর্বলতা	-10.497
▁ডাকাতি	-10.4978
বিষয়ক	-10.4983
▁ক্ষেত্রেও	-10.4984
▁ধাপ	-10.4989
▁কিংবদন্তি	-10.4991
▁কয়েকটা	-10.4994
▁পাঠাতে	-10.4996
▁অনুপ্রেরণা	-10.4998
▁রামকৃষ্ণ	-10.4999
▁এড়িয়ে	-10.5001
▁কয়লা	-10.5002
▁জুতা	-10.5002
▁ব্যর্থতা	-10.5003
▁ড্র	-10.5004
▁করেছিস	-10.5005
▁কেনা	-10.5009
▁বৃত্তি	-10.5011
▁কথিত	-10.5016
▁জাফর	-10.502
▁দ্বারে	-10.5024
▁স্থাপনের	-10.5025
▁রাখ	-10.5027
▁দাখিল	-10.5028
▁আলোকে	-10.5031
▁জাকারিয়া	-10.5033
▁প্রাধান্য	-10.5034
▁মনটা	-10.5035
▁বাকী	-10.5036
▁ছোটবেলা	-10.5037
▁ফেডারেশন	-10.504
▁মহাসাগর	-10.5041
▁একেক	-10.5042
ঁ	-10.5055
▁একত্রে	-10.5058
▁গোসল	-10.5063
▁গ্লোব	-10.5068
▁নইলে	-10.5071
▁পেছন	-10.5074
▁অর্থের	-10.508
▁করপোরেশনের	-10.5081
▁মূল্যে	-10.5085
▁ফাঁকে	-10.5086
▁ক্ষেত্রেই	-10.5088
চন্দ্র	-10.5092
▁শাস্ত্র	-10.5096
▁সদস্যের	-10.5098
▁হারান	-10.5103
▁ঢেলে	-10.5104
▁ক্যাথলিক	-10.5104
▁একইভাবে	-10.5104
▁পরিপ্রেক্ষিতে	-10.5104
▁উৎসাহিত	-10.511
▁অনুসারী	-10.5117
▁মোকাবিলা	-10.5125
▁গতিতে	-10.5125
▁বাস্তবে	-10.5131
আমি	-10.5132
কথা	-10.5132
▁দিল্লিতে	-10.5134
▁স্বামীকে	-10.5135
দে	-10.5135
▁রক্তের	-10.5136
▁মাফ	-10.5137
বেন	-10.5138
▁আয়োজিত	-10.5139
▁প্রজনন	-10.5139
▁বন্দ্যোপাধ্যায়	-10.5139
▁মিস্টার	-10.5139
▁পিএইচডি	-10.514
▁শীর্ষস্থানীয়	-10.514
▁সুফিয়ান	-10.5143
▁আড়ালে	-10.5143
▁গেম	-10.5143
▁নির্মাণে	-10.5146
▁কিছুকাল	-10.5148
▁গণমাধ্যমে	-10.5156
▁অসুখ	-10.5157
▁আম্পায়ার	-10.516
▁উঠেন	-10.5165
▁ষড়যন্ত্র	-10.5165
▁বালক	-10.5168
▁সভার	-10.517
▁পড়েছিল	-10.5173
▁আনহু	-10.5175
▁কার্বন	-10.5175
▁উঠিলেন	-10.5177
▁নিবন্ধ	-10.5179
▁সড়কটি	-10.5182
▁বালিকা	-10.5183
▁সঙ্গেই	-10.5184
▁ব্যবসায়	-10.5187
▁জামাল	-10.519
▁ছুড়ে	-10.5196
▁নিরাপদে	-10.5201
▁নিত্য	-10.5203
▁সাধু	-10.5204
▁মঞ্জুর	-10.521
▁সরি	-10.521
▁কাহিনি	-10.5211
▁ধর্মাবলম্বী	-10.5213
▁কাগজপত্র	-10.5218
▁চক্র	-10.5224
▁বৈধ	-10.5229
▁চিকিৎসকের	-10.523
▁বিষয়বস্তু	-10.5231
▁নিবন্ধন	-10.5232
▁নেপালের	-10.5234
▁বিষয়টা	-10.5236
▁মার্টিন	-10.5241
▁অপসারণ	-10.5246
▁এরশাদ	-10.5246
▁গণমাধ্যম	-10.5246
▁শীতল	-10.5246
▁সিম্বা	-10.5247
▁যেগুলো	-10.5247
▁কুষ্টিয়া	-10.5248
▁ওয়ার্ল্ড	-10.5249
▁করিয়াছিল	-10.525
▁বৌ	-10.5251
▁খাতুন	-10.5253
পো	-10.5254
▁নোয়াখালী	-10.5263
▁ইংলিশ	-10.5266
▁গ্লাস	-10.5271
পূর্বক	-10.5273
▁চোর	-10.5274
▁মীর	-10.5279
▁শচীশ	-10.5282
▁সুনির্দিষ্ট	-10.5282
▁দারিদ্র্য	-10.5285
▁প্রতিটা	-10.5288
▁বেল	-10.5288
▁সোসাইটি	-10.5291
▁মুসলমানরা	-10.5295
▁ভেদ	-10.5296
▁সচেতনতা	-10.5296
▁ঢোকা	-10.5304
▁বেগ	-10.5306
▁সম্মতি	-10.5306
িন	-10.5309
▁আনন্দে	-10.531
▁বীরত্ব	-10.5322
▁বাড়ানোর	-10.5327
▁একলা	-10.5327
▁দেশগুলোর	-10.5336
▁ক্লাসে	-10.5337
▁সংসারের	-10.5338
▁তোরা	-10.5339
▁বিচারে	-10.5341
▁পুলিশে	-10.5341
▁জাত	-10.5345
▁বিচিত্র	-10.5348
▁নক্ষত্ররায়	-10.5354
▁সুরক্ষিত	-10.5354
▁জরিমানা	-10.5355
▁বাঁচতে	-10.5356
▁প্রাতিষ্ঠানিক	-10.5358
▁আসবো	-10.5358
▁চিন্তার	-10.5361
▁স্বার্থে	-10.5363
▁সাঁতার	-10.5368
▁অমন	-10.5373
▁ঘোর	-10.5378
দি	-10.5383
▁কোনোভাবে	-10.5384
▁হয়ত	-10.5384
▁জিনিসটা	-10.5385
▁সতীশ	-10.5386
▁অফিসের	-10.5389
▁মালামাল	-10.539
▁থাকিয়া	-10.5394
▁মানববন্ধন	-10.5395
▁শ্রমিকেরা	-10.5398
▁শিখতে	-10.5403
▁ডাকিয়া	-10.541
▁বক্তা	-10.5411
▁আরাম	-10.5414
▁বুদ্ধিমান	-10.5418
▁সুখে	-10.5419
▁লাইনে	-10.5421
▁বিক্রয়	-10.5424
▁অভ্যন্তরে	-10.5426
▁সংগঠিত	-10.5426
▁বঙ্গবন্ধু	-10.5428
▁রস	-10.5431
▁স্থাপিত	-10.5434
▁কারখানায়	-10.5437
▁শীতের	-10.544
▁করিয়াছি	-10.5442
▁টাঙ্গাইল	-10.5443
▁সেও	-10.5444
▁রানা	-10.5444
▁সো	-10.5446
▁পিস্তল	-10.5446
▁একাডেমী	-10.5446
▁একাডেমিক	-10.5457
▁মিশে	-10.5461
▁ভয়ানক	-10.5463
▁কাব্য	-10.5464
▁সংকেত	-10.5465
▁ওদেরকে	-10.5469
▁লীগে	-10.5469
▁পশ্চিমা	-10.5476
▁বিশুদ্ধ	-10.5478
▁ধরণের	-10.548
▁আরবের	-10.5482
▁খলিফা	-10.5489
▁পারিবে	-10.549
▁তখনও	-10.5493
▁বালু	-10.5497
▁সমাপ্তি	-10.5499
▁রাসূলুল্লাহ	-10.55
▁চাচাতো	-10.5501
▁ঘাটে	-10.5503
▁গৌরব	-10.5504
▁সূত্রপাত	-10.5506
▁ব্যবসায়ীদের	-10.5507
▁খুনি	-10.5512
▁একমত	-10.5512
▁দেয়নি	-10.5513
▁উ	-10.5516
▁বিদ্যা	-10.5523
▁মু	-10.553
▁অসুস্থতা	-10.553
▁ঐক্য	-10.5534
▁ঝুঁকিপূর্ণ	-10.5537
রি	-10.5541
▁সাজা	-10.5542
▁তথ্যের	-10.5554
▁শেয়ার	-10.5557
লো	-10.5559
▁বাড়িটি	-10.5561
▁তন্ত্র	-10.5562
▁রাজলক্ষ্মী	-10.5563
▁দোকানের	-10.5563
▁ঘন্টা	-10.5566
▁নভেম্বর	-10.5568
▁ধাওয়া	-10.5568
▁আধিপত্য	-10.5573
▁যেদিন	-10.5576
▁স্টেট	-10.5577
▁এইজন্য	-10.5578
▁বয়স্ক	-10.558
▁ফুটে	-10.5587
▁সমাধি	-10.5587
▁উদ্বোধন	-10.5591
▁পারবি	-10.5592
▁ফুলে	-10.5592
▁প্রতিষ্ঠানটির	-10.5598
▁ঘটেছিল	-10.5599
▁জানিস	-10.56
▁কর্মকর্তার	-10.5604
▁ধারার	-10.5605
▁গেলেই	-10.5606
▁বুড়ো	-10.5609
▁সমন্বয়ে	-10.5609
ুন	-10.561
▁ঘটছে	-10.561
▁সামর্থ্য	-10.5611
মুখী	-10.5611
▁করানো	-10.5619
▁গোড়া	-10.5622
▁পাক	-10.5639
▁যখনই	-10.5643
▁উপত্যকা	-10.5645
▁লাঠি	-10.5646
▁চলাকালে	-10.5648
▁হাঁটতে	-10.5651
▁এইরূপে	-10.5651
▁ডানা	-10.5653
▁ফেব্রুয়ারি	-10.5655
গড়	-10.5663
▁এজেন্ট	-10.5667
▁রিমান্ড	-10.5675
▁পারফরম্যান্স	-10.568
▁উনাকে	-10.5685
▁হেসে	-10.569
▁বয়সী	-10.5694
▁মাঝামাঝি	-10.5701
▁সময়কালে	-10.5703
▁অভিজাত	-10.5707
▁ধ্রুব	-10.5725
▁বাঁচানো	-10.5726
▁খনন	-10.5728
▁পাইনি	-10.5728
▁কাপুর	-10.5729
▁শাস্তির	-10.5729
▁যাইব	-10.573
▁শৈলী	-10.5731
▁তাল	-10.5732
▁ঘটায়	-10.5735
▁ক্যারিয়ার	-10.5738
▁উন্নয়নের	-10.574
▁দম	-10.5754
▁মেজর	-10.5757
▁জোগাড়	-10.5761
▁বাগানে	-10.5761
▁গায়ক	-10.5764
▁তামাক	-10.5767
মি	-10.577
▁বারো	-10.5771
▁ডানার	-10.5773
▁ফুটবলের	-10.5774
▁যাপন	-10.5778
▁মেসি	-10.578
▁প্রথমত	-10.5783
▁ডাকে	-10.5788
▁দেখাচ্ছে	-10.5797
▁বেদ	-10.58
▁স্মরণীয়	-10.5805
▁মুহূর্ত	-10.5806
▁ছাপা	-10.5807
▁রোগে	-10.5807
▁ভারতবর্ষে	-10.5808
▁মহাসড়কে	-10.5812
▁অন্নদাবাবু	-10.5818
▁নয়তো	-10.5821
▁কতক	-10.5822
▁সমতল	-10.5822
▁করিতেছেন	-10.5823
▁ডিসেম্বর	-10.5826
▁আফসার	-10.5835
▁ডেপুটি	-10.5835
▁পোষণ	-10.5838
▁ইঞ্জিন	-10.584
▁প্রসঙ্গ	-10.5841
▁প্রতিপালক	-10.5843
▁মেট্রো	-10.5844
▁কপাল	-10.5851
▁ভুটান	-10.5853
▁প্যারিসে	-10.5855
▁অজ্ঞান	-10.5855
ফেয়ার	-10.5862
▁মোদি	-10.5871
▁আনেন	-10.5873
▁করান	-10.5873
▁নাটকটি	-10.5875
▁ম্যাম	-10.5877
▁নয়টি	-10.5879
▁কেনো	-10.5884
▁পালানো	-10.5884
▁দুর্ঘটনার	-10.5885
মার	-10.5886
▁বাসস্থান	-10.5887
▁ত্রি	-10.589
▁প্রতিপক্ষের	-10.589
▁ছাড়তে	-10.5894
▁বাংলায়	-10.5895
▁জীবনযাপন	-10.5896
▁শৈশবে	-10.5899
▁আসনে	-10.5899
▁প্রাণীর	-10.59
▁হুকুম	-10.59
▁লন্ডনের	-10.5901
▁ধর	-10.5901
▁মহারাষ্ট্র	-10.5908
▁নুরুল	-10.5912
▁আলির	-10.5913
▁এক্সপ্রেস	-10.5913
▁পূর্ববর্তী	-10.5917
▁মক্কা	-10.5919
▁ওয়েবসাইট	-10.5925
▁এন্ড	-10.5926
▁সাম্রাজ্যে	-10.5926
▁মানতে	-10.5927
কো	-10.5929
▁পরেশবাবু	-10.5936
▁একদিকে	-10.5937
▁জীবনী	-10.5937
▁হিন্দুদের	-10.5942
▁চেনা	-10.5947
▁ড্রাইভার	-10.595
▁চলুন	-10.5951
▁ক্ষুব্ধ	-10.5951
▁সিন্ধু	-10.5952
▁স্নান	-10.5954
▁এশিয়ায়	-10.5962
▁অধীন	-10.5966
▁মমতা	-10.5977
▁দ্বীপের	-10.5982
▁কারাদণ্ড	-10.5988
▁লড়াইয়ে	-10.5988
▁তামিলনাড়ু	-10.5989
▁সংজ্ঞা	-10.599
খানা	-10.5992
▁উপলক্ষে	-10.5995
▁লালন	-10.5996
▁ছেলেরা	-10.5996
▁জন্মদিন	-10.5996
▁তাপ	-10.6
▁বিধি	-10.6
▁ইংরেজিতে	-10.6008
▁ধাতু	-10.6012
▁প্রতিভা	-10.6014
▁একান্ত	-10.6015
▁পরিবহনের	-10.602
▁ঘাঁটি	-10.6027
▁পারলাম	-10.6029
▁প্রার্থীদের	-10.6034
▁সাজিয়ে	-10.6036
▁ফেডারেশনের	-10.6039
▁রচনার	-10.604
▁সেচ	-10.6042
▁চলা	-10.6046
▁সৈন্যদের	-10.6053
▁নকল	-10.6053
▁মাত্রই	-10.6055
▁ছাড়	-10.6056
▁করেও	-10.6057
▁প্রশাসক	-10.6062
▁বকর	-10.6066
▁অনুমোদিত	-10.6066
▁ঠাট্টা	-10.6068
▁এরপরে	-10.6068
▁অঙ্গনে	-10.6069
▁ব্রিটিশদের	-10.6069
▁বসো	-10.6071
▁ট্রেনের	-10.6073
▁নেবেন	-10.6075
▁চেয়েছিল	-10.6079
▁ঘণ্টার	-10.6084
▁যন্ত্রণা	-10.609
▁ব্যাপারটি	-10.6093
▁আগুনের	-10.6093
▁স্বর্গ	-10.6094
▁জনসাধারণের	-10.6096
▁বাতি	-10.6102
▁জব্দ	-10.6105
▁অধিষ্ঠিত	-10.6105
▁হাওড়া	-10.6106
▁বমি	-10.6106
▁দারুল	-10.6108
▁ফটক	-10.6108
▁আটকা	-10.6111
▁দ্রব্য	-10.6112
▁আরোপ	-10.6113
▁ওনার	-10.6119
▁পদার্থবিজ্ঞান	-10.6125
বো	-10.6127
▁হিরো	-10.6129
▁দ্বাদশ	-10.6139
▁দিবেন	-10.6141
▁প্রবর্তন	-10.6144
▁মাইক্রোসফট	-10.6144
▁প্রশস্ত	-10.6145
▁খবরের	-10.6151
▁মহাপরিচালক	-10.6153
▁গুড	-10.6161
জাতীয়	-10.6175
▁উন্নতির	-10.6179
▁দ্বিধা	-10.6183
▁মুজিবুর	-10.6183
▁ক্রমেই	-10.6184
▁বেসামরিক	-10.6185
▁পেল	-10.6186
▁কেড়ে	-10.6186
▁একত্রিত	-10.6187
▁নিয়ন্ত্রণের	-10.6187
▁গুহা	-10.6188
▁দোয়া	-10.6189
▁ভিসা	-10.619
▁চলার	-10.6191
▁সামগ্রী	-10.6191
▁গঙ্গা	-10.6196
▁দ্বিতীয়বার	-10.6201
▁দেশটিতে	-10.6203
▁শোভাযাত্রা	-10.6208
▁বিদ্রোহী	-10.6209
▁যানজট	-10.6211
▁প্রসার	-10.6212
▁বিমানবন্দরে	-10.6212
▁দেহে	-10.6214
তেও	-10.6216
▁পাঁচটা	-10.6217
▁বাছা	-10.6218
▁কোনোদিন	-10.6218
▁ঠিকঠাক	-10.6222
▁বললুম	-10.6224
▁করুক	-10.6224
▁ঘাম	-10.6234
▁অসম	-10.6236
▁হামিদ	-10.6244
▁মুম্বাই	-10.6248
▁ছয়টা	-10.6251
▁শয়তান	-10.6253
▁গে	-10.6256
▁জুনিয়র	-10.6262
▁অস্কার	-10.6262
একটি	-10.6265
▁কতদিন	-10.6267
▁জাপানি	-10.6267
▁প্রতিদ্বন্দ্বী	-10.6268
▁যৌথভাবে	-10.6268
▁দর্শনের	-10.6269
▁নিচ্ছেন	-10.6271
▁চড়ে	-10.6277
▁পারলেন	-10.6284
▁কর্মচারী	-10.6286
ধর্মী	-10.6288
▁জামা	-10.6292
▁পরিশোধ	-10.6293
▁কমান্ড	-10.6294
▁বর্জন	-10.63
▁জ্বি	-10.6301
▁নিষ্পত্তি	-10.6301
▁মিউজিক	-10.6301
▁সীতারাম	-10.6301
▁স্বরে	-10.6303
▁সংগ্রহের	-10.631
▁কলিকাতায়	-10.631
▁ছয়জন	-10.6312
▁চেতনা	-10.6312
▁ঠিকমতো	-10.6314
▁প্রদীপ	-10.6321
▁স্বভাব	-10.6327
▁ধারণার	-10.6327
িতে	-10.6328
▁সমাপ্ত	-10.633
▁নৌকায়	-10.6338
▁চলছিল	-10.6339
▁অন্যরা	-10.6339
▁প্রশংসিত	-10.6341
▁ঠেলে	-10.6343
▁মোটেও	-10.6345
▁কমই	-10.6351
▁আজিজ	-10.6356
িস	-10.6358
শ্বরকে	-10.6363
▁শিগগিরই	-10.6366
▁তত্ত্বের	-10.6367
▁হাইকোর্টে	-10.6372
▁পিঠ	-10.6379
▁উঠবে	-10.6379
▁পরিত্যক্ত	-10.6381
▁বৈদেশিক	-10.6381
▁সর্বনাশ	-10.6381
▁বদ্ধ	-10.6381
▁ধারালো	-10.6383
▁কমাতে	-10.6385
যোগে	-10.6386
▁লাহোর	-10.6386
সংখ্যক	-10.6389
▁মালিকানা	-10.639
▁খাত	-10.6393
তিন	-10.6394
▁বৃক্ষ	-10.6399
▁দূষণ	-10.6402
▁তিনজনকে	-10.6405
▁ক্যাম্পে	-10.6408
▁ইউনিট	-10.6409
▁চেয়ার	-10.641
▁চল্লিশ	-10.6411
▁নরেন্দ্র	-10.6416
ভাব	-10.6418
▁এদেশে	-10.642
▁কুমুর	-10.642
▁সন্দীপ	-10.6421
▁আরোহণ	-10.6421
▁আসিবে	-10.6422
▁উইকিপিডিয়া	-10.6422
▁দিকেই	-10.6422
▁ইতালীয়	-10.6423
▁পশ্চিমবঙ্গে	-10.6426
▁মুছে	-10.6426
▁জৈব	-10.643
▁জুটি	-10.6431
▁বাদামি	-10.6433
▁উড়ে	-10.6437
▁অত	-10.6439
▁বাই	-10.6444
▁বাহাদুর	-10.6451
▁হরিমোহিনী	-10.6453
▁অংশটি	-10.6453
▁দেওয়ায়	-10.6455
▁অপরকে	-10.6462
▁গৃহীত	-10.6464
▁বাদশাহ	-10.6465
▁পেরেছেন	-10.6467
▁নাগরিকদের	-10.6471
▁সোসাইটির	-10.6477
▁সুখের	-10.6478
▁বাদী	-10.6478
▁নিল	-10.6478
▁আঘাতে	-10.6479
▁টম	-10.6484
ড়ে	-10.6488
▁কেউই	-10.6494
▁মুহূর্তের	-10.6497
▁ব্যস	-10.6498
▁জাহাজে	-10.65
▁দেবতার	-10.6501
▁সাজ্জাদ	-10.6502
▁রেখেছি	-10.6502
▁আত্মপ্রকাশ	-10.6502
▁ককটেল	-10.6502
▁প্রদক্ষিণ	-10.6503
▁গীত	-10.6504
▁ধরো	-10.6506
▁পরাজয়	-10.6507
▁লাগাতে	-10.6512
▁ফুট	-10.6514
▁সহসা	-10.6517
▁পি	-10.6519
▁হামলাকারী	-10.6527
▁সমর্থ	-10.6529
▁অভ্যস্ত	-10.6543
▁কর্তৃত্ব	-10.6544
▁জ্বালিয়ে	-10.6544
▁আয়োজনের	-10.6545
▁মতই	-10.6548
▁আউট	-10.6549
▁জাহাজের	-10.6552
▁বিস্ময়	-10.6553
▁সুচরিতার	-10.6555
রক্ষক	-10.656
▁মিরপুর	-10.6567
▁মেলার	-10.6567
▁নরম	-10.657
▁খাতা	-10.6573
▁ওয়ান	-10.6574
▁উৎসর্গ	-10.6579
▁বিক্রম	-10.658
▁অ্যা	-10.6583
▁প্রত্যাবর্তন	-10.6584
▁যন্ত্রপাতি	-10.6589
▁তুলনামূলকভাবে	-10.6589
▁মোটেই	-10.659
▁গ্রীষ্ম	-10.6592
▁তৈরিতে	-10.6593
▁দানব	-10.6593
▁জড়ো	-10.6594
াম	-10.6596
▁কোয়ার্টার	-10.6596
▁পর্দা	-10.6599
▁চর	-10.66
▁দুনিয়ার	-10.6601
▁দেখেছ	-10.6602
▁গণনা	-10.6602
▁পাতার	-10.6603
▁ডাকা	-10.6604
▁মনোভাব	-10.6607
▁শতকে	-10.6614
▁পূজার	-10.6618
▁পতিত	-10.6621
▁প্রকাশক	-10.6623
▁হারানবাবু	-10.6626
▁বাপের	-10.6626
▁বিবেকানন্দ	-10.6626
▁আবদুস	-10.6629
▁মানা	-10.6629
▁সুরকার	-10.663
▁অবসান	-10.6633
▁আয়তন	-10.6634
▁বাড়ে	-10.6635
▁সেলিম	-10.6636
▁জরিপ	-10.6637
▁বরণ	-10.664
▁খণ্ড	-10.6648
▁কাশ্মীর	-10.6663
▁বিরতি	-10.6666
▁নামানুসারে	-10.6667
▁অপরদিকে	-10.6667
▁অক্সিজেন	-10.6667
▁এইবার	-10.6668
▁এশীয়	-10.6671
▁দেখিলেন	-10.6674
▁রাষ্ট্রীয়	-10.6676
ড়	-10.6677
লাল	-10.6684
▁শেষের	-10.6688
▁মৃতদেহ	-10.6691
▁প্রদেশে	-10.6691
▁অস্থিরতা	-10.6694
▁টু	-10.6699
অ	-10.6701
▁প্যারিস	-10.6702
▁উপকূলে	-10.6702
▁পালক	-10.6706
▁তফসিল	-10.6707
▁বাড়বে	-10.6707
▁লিপিবদ্ধ	-10.6707
▁পেরেছিলেন	-10.6709
▁দাঁড়াইল	-10.6714
▁গৃহে	-10.6716
▁ব্যাটসম্যানের	-10.6719
▁বাতাসে	-10.673
▁রুটি	-10.6731
▁অনুষদ	-10.6731
▁সাব	-10.6734
ত্ব	-10.6735
▁প্রেসিডেন্সি	-10.6737
▁চলাচলের	-10.6739
▁থাকছে	-10.6746
▁রাজকীয়	-10.6749
▁ঘটবে	-10.6749
▁খনিজ	-10.6749
▁কমপক্ষে	-10.675
▁বিনোদিনীর	-10.6751
▁দ্বীপে	-10.6754
▁দাঁড়	-10.6754
▁গুপ্ত	-10.6761
▁খানেক	-10.6762
▁দশা	-10.6763
▁কোর্টের	-10.6763
▁সত্যের	-10.6764
▁নামটা	-10.6772
▁শিল্পীদের	-10.6772
▁উপকরণ	-10.6772
▁নিচ্ছি	-10.6778
▁উইলিয়াম	-10.6779
▁হৃদয়ের	-10.6782
মে	-10.6783
▁পার্কে	-10.6784
▁নিয়মিতভাবে	-10.6784
▁দ্বীপপুঞ্জ	-10.6785
▁গ্রন্থটি	-10.6786
▁অর্থনীতিতে	-10.6786
▁হোম	-10.6787
▁ভারসাম্য	-10.6789
▁অমূল্য	-10.679
নাথ	-10.679
▁উত্তীর্ণ	-10.679
▁চুপচাপ	-10.679
▁গাছপালা	-10.6791
▁পৈতৃক	-10.6791
▁শুকনো	-10.6792
▁দ্বৈত	-10.6793
▁সাথেও	-10.6795
▁ট্রফি	-10.6798
▁উচ্চতা	-10.6799
▁নীলু	-10.6801
▁কুরাইশ	-10.6803
▁আগস্ট	-10.6804
▁ব্যবহারে	-10.6805
▁একত্র	-10.6805
▁দেশি	-10.6806
▁জঙ্গলে	-10.6806
▁স্পিনার	-10.6807
▁ভঙ্গ	-10.6817
▁নীতিমালা	-10.6818
▁সিংহাসনে	-10.682
জাত	-10.6822
▁স্বপ্নে	-10.6823
▁ভাস্কর্য	-10.6828
▁নৌ	-10.6829
▁কর্পোরেশন	-10.6831
▁শিয়া	-10.6833
▁সহকর্মী	-10.6839
▁সাধারণভাবে	-10.684
▁বয়সেই	-10.6843
▁মাসিক	-10.6849
▁দেখবে	-10.685
▁গরিব	-10.6858
▁অধিদপ্তরের	-10.6864
▁তত্ত্বাবধানে	-10.6864
▁খাইয়া	-10.6864
▁ঘুমের	-10.6865
▁করুণা	-10.6866
▁এড়াতে	-10.6874
▁মেধাবী	-10.6874
▁ডিএনএ	-10.6875
▁কেনার	-10.6881
▁পেলেও	-10.6882
▁মালিকানাধীন	-10.6883
▁জোয়ার	-10.6885
▁দফায়	-10.6887
▁জুলাই	-10.689
▁মৃত্যুদণ্ড	-10.6912
▁ইঞ্জিনিয়ারিং	-10.6913
▁অজ্ঞাত	-10.6915
▁হিমালয়	-10.6915
▁রেগে	-10.6917
▁রেখো	-10.6917
▁ক্ষতিকর	-10.6917
▁ঘুমাতে	-10.6917
▁চলাকালীন	-10.6918
▁ওয়েলস	-10.6923
বহাল	-10.6924
▁নারীবাদী	-10.6924
▁জানতেন	-10.6925
▁তিন্নি	-10.6927
▁জাপানে	-10.6931
▁মার্কেট	-10.6933
▁ক্যাচ	-10.6941
▁পরমাণু	-10.6942
▁দখলে	-10.695
▁জংশন	-10.6954
▁ঝড়	-10.6955
▁ধরিয়ে	-10.6956
টানিয়া	-10.6957
▁চেন্নাই	-10.6957
▁জেলায়	-10.6958
▁ঘাটতি	-10.6959
▁পুরাণ	-10.6963
▁সংক্রমণ	-10.6963
গুলিতে	-10.6967
▁দাশ	-10.6967
▁তুলেছে	-10.6969
▁কণা	-10.697
▁দরজায়	-10.6971
▁উষ্ণ	-10.6984
▁সাইকেল	-10.6985
▁ত্রিপুরা	-10.7
▁চমকে	-10.7
▁আংশিক	-10.7001
▁উদ্ভব	-10.7001
▁প্রফেসর	-10.7001
▁বাঘ	-10.7001
▁বুদ্ধিজীবী	-10.7001
▁অবহেলা	-10.7004
▁আফ্রিকায়	-10.7004
▁জানুয়ারি	-10.7004
গঞ্জ	-10.7006
▁একটুখানি	-10.7006
▁রমেশের	-10.7006
▁নীরব	-10.701
▁সৈন্যরা	-10.7011
▁জাতের	-10.7012
▁একখানি	-10.7016
▁খ	-10.7017
▁ওয়েবসাইটে	-10.7017
তায়	-10.7021
▁রেখেছিল	-10.7024
▁টেনিস	-10.7027
▁পোড়া	-10.7028
আ	-10.7029
▁মাসুদ	-10.7038
বিহীন	-10.7039
▁আপ	-10.7042
▁আশায়	-10.7042
▁চারু	-10.7043
▁জয়া	-10.7043
▁প্রত্নতাত্ত্বিক	-10.7044
▁অস্পষ্ট	-10.7044
▁পর্বতমালা	-10.7044
▁প্রদর্শিত	-10.7045
▁দামিনী	-10.7045
▁ক্যারিয়ারের	-10.7047
সম্পন্ন	-10.7047
▁ইউ	-10.7049
▁খবরে	-10.7054
▁সমাধানের	-10.7058
▁কারন	-10.7058
▁ঘটাতে	-10.706
▁ক্লাবটি	-10.7064
▁কপালে	-10.7069
▁দাঁড়াতে	-10.7074
▁মোহন	-10.708
▁চশমা	-10.708
▁দ্বিগুণ	-10.7087
▁মন্ত্রিসভা	-10.7087
▁অন্যত্র	-10.709
▁সামলাতে	-10.709
▁সংঘট	-10.7094
▁শার্ট	-10.7098
▁জাদু	-10.7101
াধারে	-10.7102
▁সবকিছুই	-10.7109
▁অপরাধে	-10.7114
▁ট্রেনটি	-10.7119
▁উন্নয়নে	-10.7125
▁পাঞ্জাবি	-10.7126
▁গণতন্ত্র	-10.7129
▁উলুম	-10.713
▁মহৎ	-10.7132
▁ষাট	-10.7132
▁একজনের	-10.7132
▁বিধায়ক	-10.7134
▁লিপি	-10.7135
▁লইতে	-10.7137
▁কাটার	-10.7138
▁উৎসবের	-10.7142
▁বাসিন্দারা	-10.7145
▁ড্রাইভ	-10.7151
▁সাপ	-10.7151
▁প্রয়োজনীয়তা	-10.7152
▁হাড়	-10.7153
▁পদের	-10.7157
▁দেবীর	-10.7158
▁ইকবাল	-10.7158
▁উঠছে	-10.7168
▁এক্স	-10.7172
▁নলিনাক্ষ	-10.7172
▁জাহিদ	-10.7173
▁দাঁড়ান	-10.7174
▁সম্বন্ধ	-10.7176
▁বস্ত্র	-10.7176
▁পৌঁছানো	-10.7179
▁বলেছিলে	-10.7181
▁প্রণয়ন	-10.7181
▁খালাস	-10.7192
▁বছরই	-10.7197
ক্ষণ	-10.7205
▁বামহাতে	-10.7217
▁সেন্ট্রাল	-10.7218
▁বোতল	-10.7221
▁নামতে	-10.7222
▁কাহাকে	-10.7224
▁স্থানের	-10.7228
▁পর্যটকদের	-10.7232
▁সৌভাগ্য	-10.7238
▁বিশ্বাসী	-10.7239
▁হাঁটা	-10.7241
▁গ্যালারি	-10.7246
▁শখ	-10.7249
▁বসতে	-10.7254
▁বোধহয়	-10.7261
▁ধূমপান	-10.7261
▁ইমরান	-10.7261
▁কাঁদতে	-10.7264
মন	-10.7267
▁দেখবেন	-10.7268
▁নজরে	-10.727
▁যোগেন্দ্র	-10.727
▁নিজাম	-10.7272
উ	-10.7272
▁সেনারা	-10.7273
▁পুরোহিত	-10.7277
▁পরিমাপ	-10.7279
▁ধারাবাহিকতা	-10.7287
▁সময়টা	-10.729
▁নৈতিক	-10.729
▁গোলরক্ষক	-10.7291
▁পালাতে	-10.7291
▁টুর্নামেন্ট	-10.7292
▁সমর্থকদের	-10.7293
নগর	-10.7298
▁মধু	-10.7304
▁মৎস্য	-10.7304
▁আবৃত	-10.7304
▁ব্যাংকে	-10.7306
▁নিশ্বাস	-10.7308
▁মেয়েটিকে	-10.7309
▁বিগত	-10.7309
▁অক্টোবর	-10.7311
▁সেপ্টেম্বর	-10.7313
▁প্রজা	-10.7314
▁করিলাম	-10.7316
▁দৈ	-10.7316
▁মিশরে	-10.7317
▁মুক্তিযোদ্ধারা	-10.7318
▁ততক্ষণ	-10.7325
▁আদর	-10.7326
▁পারিব	-10.7327
▁পুরস্কারে	-10.733
▁শিক্ষকের	-10.7335
পার	-10.7336
▁উঠিতে	-10.7337
▁মৌসুমের	-10.7341
▁পর্যায়	-10.7346
▁সাংগঠনিক	-10.7349
▁ওস্তাদ	-10.735
▁নিজেরাই	-10.735
▁দেখায়	-10.7355
▁সারাদিন	-10.7356
▁মালা	-10.7357
▁শৈল	-10.736
▁ছোটবেলায়	-10.7368
▁অবগত	-10.7372
▁আপা	-10.7372
▁যেকোন	-10.7372
▁লাইব্রেরি	-10.7372
▁দায়ে	-10.7383
▁ওগুলো	-10.7385
▁মহাকাশ	-10.7385
▁মাপ	-10.7386
▁স্থানটি	-10.7387
▁তুলনামূলক	-10.7389
▁শীঘ্র	-10.739
▁সেনাপতি	-10.7396
▁যাচ্ছিলেন	-10.7398
▁বৈচিত্র্য	-10.7399
▁ওঁর	-10.7402
▁পিতামাতার	-10.7407
▁মেয়াদে	-10.741
▁ভাইস	-10.7412
▁ঐরূপ	-10.7412
▁রাখিতে	-10.7413
▁প্রার্থীর	-10.7414
▁বাড়া	-10.7416
▁দিলেই	-10.7424
▁সম্প্রসারণ	-10.7425
▁যাঁর	-10.7432
▁ভান	-10.7432
▁উদ্ভাবন	-10.7432
▁চেষ্টায়	-10.7432
▁স্থলাভিষিক্ত	-10.7437
▁অদৃশ্য	-10.7437
▁চুক্তিবদ্ধ	-10.7438
▁বিপর্যয়	-10.7438
▁অবতরণ	-10.7438
▁বস্তা	-10.744
▁মিথ্যে	-10.7443
▁দেখছে	-10.7446
▁বাগানের	-10.7448
▁মোড়ে	-10.745
▁বোঝাতে	-10.7459
▁গম	-10.7459
▁তারাই	-10.7467
▁আয়োজনে	-10.7473
▁প্রাক	-10.7476
▁শুভেচ্ছা	-10.7482
▁রাখবেন	-10.7482
▁থাকুন	-10.7482
▁শোবার	-10.7486
▁ধূসর	-10.7487
▁প্রণালী	-10.7487
▁দিয়েছ	-10.7488
▁নারায়ণ	-10.7497
▁মুনির	-10.7498
▁পর্যটক	-10.7498
▁ভিক্টোরিয়া	-10.7501
▁অগ্নি	-10.7502
▁ব্যবস্থাপক	-10.7506
▁কতো	-10.7508
▁এলাকাটি	-10.7508
ারি	-10.7514
▁নিখুঁত	-10.7521
শিক্ষাপ্রতিষ্ঠান	-10.7521
▁সহস্র	-10.7522
▁ওদিকে	-10.7522
▁বংশ	-10.7525
▁সর্বকনিষ্ঠ	-10.7527
▁রাখুন	-10.7527
▁রামমোহন	-10.7527
▁বর্ষ	-10.7527
▁অশ্রু	-10.7528
▁ঘাড়	-10.7529
▁খুলতে	-10.753
▁কমলার	-10.7531
▁যেতেন	-10.7536
▁দ্বীপটি	-10.7537
▁ভোটারদের	-10.754
▁রাখলে	-10.7548
▁একরকম	-10.7549
▁আক্রমণে	-10.755
এমন	-10.7552
▁আন্তরিক	-10.7553
▁চাদর	-10.7555
▁অনুগ্রহ	-10.7558
▁চারি	-10.757
▁ছেলেটি	-10.7571
▁কোয়ান্টাম	-10.7572
▁প্রযোজ্য	-10.7572
▁ক্রমবর্ধমান	-10.7572
▁সুস্পষ্ট	-10.7572
▁ইব্রাহিম	-10.7573
▁নিবেদন	-10.7573
▁বিকাশের	-10.7573
▁পাতলা	-10.7576
▁বিজ্ঞানীরা	-10.7584
▁রহিম	-10.7585
প্রাপ্ত	-10.7588
▁পাহাড়ি	-10.7592
▁ততদিন	-10.7594
▁অভিযোগপত্র	-10.7594
▁সমঝোতা	-10.7602
নন্দিন	-10.7612
▁ব্যতিক্রম	-10.7612
▁শোধ	-10.7617
▁ফলস্বরূপ	-10.762
▁মক্কার	-10.7622
▁অবকাশ	-10.7622
▁রোধ	-10.7629
▁যাচ্ছ	-10.763
▁নির্দেশে	-10.7634
▁শ্রেণীতে	-10.7641
▁বাঁচিয়ে	-10.7643
▁সমষ্টি	-10.7643
▁প্রকল্পটি	-10.765
▁হাদীস	-10.7653
▁অনিয়ম	-10.766
▁আশরাফ	-10.7663
▁নাইট	-10.7664
▁চিরদিন	-10.7665
▁মূল্যায়ন	-10.7666
▁সঞ্চার	-10.7668
▁রেডি	-10.7669
▁মেরি	-10.7671
▁বাহিনীকে	-10.7677
▁হেফাজতে	-10.7678
▁সম	-10.7683
▁শুরুতেই	-10.7687
▁ডাক্তারের	-10.7688
▁উদ্যান	-10.7688
▁খেলোয়াড়ের	-10.7689
▁পাসপোর্ট	-10.7689
▁সাহা	-10.769
▁জিজ্ঞাসাবাদে	-10.7693
▁অংশগ্রহণকারী	-10.7695
▁চাঁদা	-10.7696
▁বার্সেলোনা	-10.7702
▁দিবার	-10.7703
▁চারবার	-10.7704
▁বিমানবন্দরের	-10.7704
▁রক্ষণাবেক্ষণ	-10.7708
▁অধীনস্থ	-10.7708
▁প্রাইভেট	-10.7709
নামা	-10.7709
▁ফার্সি	-10.771
▁হারাতে	-10.7713
▁স্পিকার	-10.7713
▁মিশরীয়	-10.7713
▁পাঠায়	-10.7713
▁ভিয়েতনাম	-10.7714
▁অন্তরে	-10.7716
▁লক্ষ্মী	-10.7716
▁আতঙ্ক	-10.7719
▁জীবনকে	-10.772
▁তোমাদেরকে	-10.7724
স্ট	-10.7728
▁মহল	-10.7731
▁মার্ক	-10.7732
▁আনিয়া	-10.7737
▁বাজেট	-10.7737
▁মারিয়া	-10.7741
▁যোদ্ধা	-10.7744
কিছু	-10.7746
▁কোমল	-10.7747
▁বলিয়াই	-10.7748
▁গেমস	-10.775
▁দেখেছে	-10.7751
▁সন্ধানে	-10.7751
▁সন্ত্রাস	-10.7751
▁বুঝলে	-10.7752
▁ডাব্লিউডাব্লিউই	-10.7754
▁কার্যত	-10.7759
▁ঘোড়ার	-10.7759
▁সম্পূর্ণরূপে	-10.7766
▁মধ্যযুগ	-10.7769
▁সমাবেশে	-10.7771
▁শ্রেণিতে	-10.7777
বিশেষ	-10.7781
▁নিবাস	-10.7783
▁কাঁটা	-10.7788
▁বুঝা	-10.7793
উল	-10.7793
▁বিপিন	-10.7799
▁পুতুল	-10.7799
▁মো	-10.78
▁অবিলম্বে	-10.78
▁রচয়িতা	-10.78
▁স্টাফ	-10.78
▁নিখিল	-10.7802
▁শর্মা	-10.7806
▁খুঁটি	-10.7811
▁উঠেছিল	-10.7812
▁প্রথমদিকে	-10.7814
▁পেলেই	-10.7816
পত্র	-10.7819
▁ম্যাচটা	-10.7829
মত	-10.7836
▁চৌধুরীর	-10.7838
▁কলম্বিয়া	-10.7839
▁ভাঙিয়া	-10.7845
▁ক্ষীণ	-10.7846
▁তুচ্ছ	-10.7846
▁মাওলানা	-10.7846
মায়ের	-10.7847
▁ধুয়ে	-10.7848
▁স্প্যানিশ	-10.7848
▁খোকা	-10.7849
▁দুনিয়া	-10.7852
▁করাচি	-10.7862
▁প্রজাতন্ত্র	-10.7865
▁রাখতেন	-10.7865
▁রেলপথে	-10.7866
▁বোনকে	-10.7875
▁বসেন	-10.788
▁টাওয়ার	-10.7881
▁অভিজ্ঞতার	-10.7882
▁ইরাকে	-10.7885
▁প্রতিবাদে	-10.7885
▁হাতি	-10.789
▁ফিরোজ	-10.7891
▁অন্নপূর্ণা	-10.7893
▁ঘুরিয়ে	-10.7894
▁রহিলেন	-10.7894
▁সভ্যতা	-10.7895
▁কর্নেল	-10.7895
▁সাতটা	-10.7895
▁শতক	-10.7897
▁বেশিরভাগই	-10.7898
▁আগত	-10.7899
▁মুরগি	-10.79
▁লিখতেন	-10.7905
▁চার্জ	-10.7905
ছো	-10.7905
▁রমজান	-10.7912
▁ভারতবর্ষের	-10.7912
▁যাবি	-10.7915
বিষয়ে	-10.7916
▁যুক্তরাজ্যে	-10.7916
▁ল	-10.7917
▁বেদনা	-10.7917
▁জীবনটা	-10.7919
▁কাউন্সিলর	-10.792
▁বলতেন	-10.7922
▁উদয়	-10.7923
▁বাঁশ	-10.7926
যে	-10.7932
▁মেধা	-10.7934
▁ট্রেনে	-10.7935
▁প্রাপ্য	-10.7936
▁বেকার	-10.7937
▁প্রাঙ্গণে	-10.7938
▁আলোয়	-10.7939
▁প্রিমিয়ার	-10.7939
▁ক্ষতিপূরণ	-10.794
▁বিজিবি	-10.7941
▁মিশিয়ে	-10.7947
▁হোটেলের	-10.7947
▁পদার্থের	-10.7949
▁কসম	-10.7955
▁স্টুডিও	-10.7955
▁প্রকাশ্যে	-10.7959
▁আইনসভা	-10.7959
▁একখানা	-10.7962
▁কষ্টে	-10.7965
▁গভীরভাবে	-10.7973
▁রোডের	-10.7978
▁চট্টোপাধ্যায়	-10.7983
সের	-10.7984
▁ম্যাগাজিন	-10.7984
▁আবির্ভূত	-10.7986
▁তালেবান	-10.7987
▁নামেন	-10.7989
বাবা	-10.799
▁কোণে	-10.7991
▁সেভাবে	-10.7994
▁ত্রিশ	-10.7994
▁নিশ্চিন্ত	-10.8004
▁ফর	-10.8006
▁করপোরেশন	-10.8006
▁পড়ালেখা	-10.8007
▁সর্বকালে	-10.8009
▁ঘটান	-10.8014
▁দিলেও	-10.8016
▁লস	-10.8016
▁নার্স	-10.8017
▁উকিল	-10.8018
▁গাজী	-10.8019
▁আড্ডা	-10.8019
▁ফেসবুকে	-10.8023
▁সতর্কতা	-10.8027
▁সিনেমার	-10.8027
▁প্রত্যেকের	-10.8028
▁গীতা	-10.8028
▁শিক্ষার্থীর	-10.803
▁শুল্ক	-10.8033
▁ব্যাংকিং	-10.8033
▁কুপিয়ে	-10.8035
▁উপজাতি	-10.8036
▁বন্ধনে	-10.8037
▁শুনলে	-10.8037
▁বিকশিত	-10.8037
▁থামাতে	-10.8038
▁ওমর	-10.8045
▁স্বাগত	-10.8047
▁পাইবে	-10.8051
▁সেতুটি	-10.8052
▁জনগণকে	-10.8057
▁সমালোচনার	-10.8061
▁বাথরুমে	-10.8063
▁উৎসবে	-10.8069
▁ফেলি	-10.807
▁মিশ্রণ	-10.8071
▁রুদ্ধ	-10.8073
▁আসিতেছে	-10.8078
িনী	-10.8081
▁রামচন্দ্র	-10.8081
▁আশঙ্কাজনক	-10.8081
▁চলিবে	-10.8081
▁ইউসুফ	-10.8082
পশ্চিমে	-10.8082
▁মরণ	-10.8083
▁সঞ্চয়	-10.8085
▁জনতা	-10.8087
▁ফাঁকি	-10.8089
▁উনিশ	-10.809
▁চার্চ	-10.8092
▁দীর্ঘকাল	-10.8093
▁নাম্বার	-10.8095
▁টেলিফোন	-10.8097
▁তৎপরতা	-10.8099
▁দফা	-10.8101
▁ভীত	-10.8104
▁গু	-10.8106
পাত	-10.8111
▁লামা	-10.8114
▁সুরে	-10.8116
▁ব্যক্তিগতভাবে	-10.8116
ভুক্ত	-10.8124
▁ফুটবলার	-10.8124
▁আমরাও	-10.8126
▁জাতিগত	-10.8127
▁সেটার	-10.8128
মিডিয়াম	-10.8128
▁উদ্ভূত	-10.8129
▁রাজীব	-10.813
▁প্রতিহত	-10.813
▁কোড	-10.813
▁স্থপতি	-10.813
▁ভরাট	-10.8132
▁বাস্তবিক	-10.8132
▁গর্বিত	-10.8133
▁সমুদ্রে	-10.8135
▁আদায়ের	-10.8137
▁অস্ট্রেলিয়ায়	-10.8143
▁এনেছি	-10.8145
▁অক্সফোর্ড	-10.8146
▁কয়েকদিন	-10.8148
▁দুজনই	-10.8149
▁মাদ্রাসাটি	-10.8152
▁নারায়ণগঞ্জ	-10.8152
▁পালিত	-10.8155
▁জবানবন্দি	-10.8155
▁দড়ি	-10.8156
▁ম্যানচেস্টার	-10.8157
▁ওয়াশিংটন	-10.816
নবি	-10.8161
সময়	-10.8162
▁ডাকাত	-10.8167
▁মুশকিল	-10.8171
▁কেক	-10.8176
▁অভিশাপ	-10.8176
▁কূটনৈতিক	-10.8176
▁নিতান্ত	-10.8176
▁ছোটখাটো	-10.8178
▁ব্যাকরণ	-10.8178
মো	-10.8187
▁সংঘর্ষে	-10.8187
▁শাহরুখ	-10.8191
▁ঘটনাস্থল	-10.8194
▁টুর্নামেন্টে	-10.8196
▁নিমন্ত্রণ	-10.8196
▁মিয়ানমার	-10.8199
▁দিয়েছিলাম	-10.8201
▁চাচ্ছি	-10.8201
িল	-10.8208
▁শেখর	-10.8212
▁বসানো	-10.8213
▁সম্মেলনের	-10.8217
▁জিনিষ	-10.8223
▁প্রতিজ্ঞা	-10.8225
▁থাকুক	-10.8225
▁সিডনি	-10.8225
▁অ্যাকশন	-10.8225
▁কারিগরি	-10.8228
▁যমুনা	-10.8229
▁নোটিশ	-10.8232
▁ছিটকে	-10.8232
▁ঘটা	-10.8235
▁রি	-10.8238
▁মুসলিমদের	-10.824
▁মিশনে	-10.8243
▁মস্তিষ্ক	-10.8247
▁গর্ত	-10.8249
▁বাচ্চার	-10.8251
গো	-10.8252
▁অশ্বারোহী	-10.8257
▁প্রক্রিয়ার	-10.8261
▁দ্বিতীয়ত	-10.8265
▁প্রসাদ	-10.8266
▁খাই	-10.8266
▁খাটে	-10.8267
▁রীতিমত	-10.8269
▁জ	-10.8269
▁চাকা	-10.8272
▁ফেটে	-10.8273
▁শুনুন	-10.8273
▁ফেলব	-10.8273
▁উপস্থাপনা	-10.8274
▁ঝুঁকে	-10.8274
▁অভিনন্দন	-10.8275
▁অতীতের	-10.8276
▁উত্থান	-10.8276
▁উপার্জন	-10.8279
▁সিল	-10.8285
▁কাটানো	-10.8286
▁পড়লেন	-10.8288
▁গ্রুপে	-10.829
▁এমনিতেই	-10.8295
▁প্রভাবে	-10.8297
বাজার	-10.83
▁গল্পটি	-10.8302
▁প্রত্যেকেই	-10.8304
▁হাহ	-10.8306
▁গর্ব	-10.8307
▁বাড়ানো	-10.8312
খানি	-10.8313
▁প্রধানমন্ত্রীর	-10.8315
▁দূত	-10.8317
▁জনি	-10.8319
▁পাঠিয়েছে	-10.8321
▁টনি	-10.8321
▁পদোন্নতি	-10.8321
চরাচর	-10.8321
▁সদরদপ্তর	-10.8322
বল	-10.8322
▁সমন্বিত	-10.8325
▁মোতি	-10.8325
▁অ্যাপ	-10.8326
▁পশ্চাতে	-10.8327
▁শিক্ষাদান	-10.8332
▁ভোটে	-10.8335
▁সহিংসতার	-10.8337
▁ডলার	-10.8339
▁অভিভাবক	-10.834
▁হাসিনা	-10.8341
▁প্রেমিক	-10.8342
▁ইউনাইটেড	-10.8342
▁এদিন	-10.8342
▁অমল	-10.8346
▁মধুর	-10.835
▁হার্ট	-10.835
▁কীসের	-10.8351
▁বাড়ী	-10.8352
▁স্যাম	-10.8352
▁শীতকালে	-10.8354
▁মুভি	-10.8357
▁পড়িয়াছে	-10.8368
▁অসহায়	-10.8369
▁রক্ষণশীল	-10.837
▁গীতিকার	-10.8375
▁সম্মত	-10.8376
▁শেখার	-10.838
▁চমক	-10.8383
▁আমারও	-10.8384
▁বেড়া	-10.8388
ব্রাহ্মণবাড়িয়া	-10.839
▁দলগুলো	-10.8391
▁সেইজন্য	-10.8399
▁কর্মে	-10.8402
বদ্ধ	-10.8403
▁কোটা	-10.8412
▁পনেরো	-10.8413
▁বিরাজ	-10.8416
▁পোস্টার	-10.8419
▁অসহ্য	-10.8419
▁ট্রাফিক	-10.8419
▁সোহেল	-10.8419
▁নায়িকা	-10.842
▁শিশুকে	-10.842
▁টুকরা	-10.8421
▁যতটুকু	-10.8422
▁মার্শাল	-10.8425
▁আর্মি	-10.843
▁মাতাল	-10.8434
▁ভদ্র	-10.8445
▁সঠিকভাবে	-10.8452
▁শাহজাহান	-10.8453
▁বাস্তবতা	-10.8457
▁কিছুমাত্র	-10.8457
▁মানি	-10.8459
কর	-10.846
▁গ্রামবাসী	-10.8461
▁আরা	-10.8461
▁শরীফ	-10.8462
▁লোকজনকে	-10.8466
▁আঠারো	-10.8469
▁আঙ্কেল	-10.847
▁সুন্নি	-10.847
সমস্ত	-10.847
▁বাইক	-10.847
▁অভিনয়শিল্পী	-10.8473
▁গুরুর	-10.8481
▁গেছ	-10.8482
▁শেখানো	-10.8482
▁দুপুরের	-10.8491
▁খামার	-10.8493
▁পরি	-10.8498
▁সমীকরণ	-10.8503
▁স্বাগতিক	-10.8505
▁পার্টিতে	-10.8512
▁যুগ্ম	-10.8512
▁সত্যিকারের	-10.8514
▁পৃষ্ঠপোষক	-10.8516
▁বিমানে	-10.8516
▁বরদাসুন্দরী	-10.8518
▁স্টক	-10.8518
▁নিবিড়	-10.8519
▁মাতৃভাষা	-10.8521
▁প্যান্ট	-10.8525
▁পুড়িয়ে	-10.8528
▁পোশাকের	-10.8532
▁গ্রহ	-10.8537
মুখ	-10.8537
▁দৈর্ঘ্য	-10.8542
▁সীমাবদ্ধতা	-10.8543
▁মিছিলটি	-10.8544
▁ফেরি	-10.8546
▁আছিস	-10.8549
▁কালের	-10.8556
▁অ্যাসোসিয়েশনের	-10.8556
▁গ্রহের	-10.8558
▁আন	-10.8561
▁সামগ্রিক	-10.8562
▁কণ্ঠে	-10.8563
াতে	-10.8566
▁বরখাস্ত	-10.8568
▁বাধ্যতামূলক	-10.8568
▁সন্দেহভাজন	-10.8568
▁তল্লাশি	-10.8568
▁ডক্টর	-10.8568
▁সাতক্ষীরা	-10.8568
▁পলি	-10.8572
▁কনিষ্ঠ	-10.8573
▁গল্পটা	-10.8578
▁লঞ্চ	-10.8578
হা	-10.8582
▁সমস্তই	-10.8584
▁মাইল	-10.8585
▁তারাও	-10.8592
▁কৌতুক	-10.8599
▁ভিক্ষা	-10.86
▁উত্তেজনা	-10.8603
▁বড়ই	-10.8607
▁আবাসন	-10.8612
নী	-10.8612
▁আহা	-10.8613
▁শস্য	-10.8614
▁উমেশ	-10.8615
▁সিলেটে	-10.8617
▁অস্ত্রের	-10.8618
▁গুছিয়ে	-10.8618
▁সাংবিধানিক	-10.8618
▁সান্ত্বনা	-10.8618
সূচক	-10.8618
▁সেইখানে	-10.8623
▁থাকবো	-10.8626
▁রেজা	-10.8627
▁দেখছেন	-10.8627
▁গুটি	-10.8633
▁পড়েছিলেন	-10.8634
▁মাহবুব	-10.8636
▁পড়ায়	-10.8636
▁ভূমিকম্প	-10.8637
▁অন্তর	-10.8638
▁সোয়া	-10.8646
▁ফ্রান্সে	-10.8648
▁জয়ে	-10.8655
▁হকের	-10.8662
বড়	-10.8663
▁মাধ্যমেই	-10.8666
▁গরুর	-10.8666
▁সুমন	-10.8667
▁খন্দকার	-10.8668
ভর্তি	-10.8669
▁নাগরিকত্ব	-10.8671
▁হ্রদ	-10.8671
▁আর্জেন্টিনার	-10.8672
▁মারে	-10.8675
▁নিই	-10.8677
▁মরিয়া	-10.8679
▁অনুরোধে	-10.8679
▁ছোটবাবু	-10.8679
▁মীরা	-10.8679
▁বলিউড	-10.8684
▁আসছিল	-10.8685
▁ধসে	-10.8686
▁পল	-10.8688
▁উৎপাদনের	-10.8691
▁সমূহ	-10.8693
▁মণি	-10.8694
▁সুবিধার	-10.8703
তর	-10.871
▁মিয়ানমারের	-10.8714
▁কন্যার	-10.8715
▁ঘাড়ে	-10.8718
▁লাশটি	-10.8718
▁চব্বিশ	-10.8718
▁পলাতক	-10.8718
▁বন্দোবস্ত	-10.8718
▁স্বজনেরা	-10.8719
▁বইয়ে	-10.8723
▁ছাই	-10.8727
▁ব্রিটেন	-10.8728
▁খাবে	-10.8729
▁তরুণদের	-10.8732
▁এলো	-10.8733
▁ফলের	-10.8744
▁অনুপস্থিত	-10.8744
▁দুশ্চিন্তা	-10.8745
গে	-10.8753
▁ক্ষোভ	-10.8754
▁দুর্যোগ	-10.8759
জিৎ	-10.8762
ণের	-10.8763
▁এজন্যই	-10.8763
▁ফিলিপাইন	-10.8763
▁দি	-10.8769
▁পৌরাণিক	-10.8769
▁প্লাস্টিক	-10.8769
▁প্রাপ্তবয়স্ক	-10.8769
▁বৃথা	-10.8769
▁বৃষ্টিপাত	-10.877
▁লুট	-10.8771
▁মামাতো	-10.8771
▁বিষাক্ত	-10.8779
▁কভার	-10.8784
▁অনেকদিন	-10.8785
প্র	-10.879
▁মামুন	-10.879
▁নিরপেক্ষ	-10.879
▁মিমি	-10.8795
▁প্লে	-10.8796
▁চাস	-10.8797
▁সংখ্যাগরিষ্ঠ	-10.8797
▁দুর্ঘটনায়	-10.8799
▁খাও	-10.8799
▁প্রাসাদে	-10.8802
▁হাঁটু	-10.8809
▁বন্দরে	-10.881
▁অধিকারের	-10.8811
▁কমপ্লেক্সে	-10.8814
▁আর্জেন্টিনা	-10.8816
▁মোল্লা	-10.8817
▁খা	-10.8818
▁জঘন্য	-10.882
▁আম্মু	-10.8821
▁রশিদ	-10.8824
▁গুলশান	-10.8826
▁রাখব	-10.883
▁লইল	-10.8831
▁ভাবা	-10.8845
▁আচরণের	-10.8848
▁দিবা	-10.8849
▁লোভ	-10.8855
▁শব্দে	-10.8856
▁আবহাওয়ার	-10.8861
য়ার	-10.8866
▁সংলগ্ন	-10.8866
▁অস্ট্রিয়া	-10.8869
▁কাটিয়া	-10.8871
▁অপরিচিত	-10.8872
▁গুলিবিদ্ধ	-10.8872
▁আসন্ন	-10.8872
▁চার্লস	-10.8872
▁লাতিন	-10.8872
▁ঝাঁপিয়ে	-10.8872
▁তেলুগু	-10.8873
▁ট্রাকে	-10.8873
▁মন্ত্রণালয়ে	-10.8873
▁স্কটিশ	-10.8873
▁রঙিন	-10.8873
▁চাকর	-10.8874
▁মনোনয়নপত্র	-10.8874
▁ভাস	-10.8874
▁প্রতিমন্ত্রী	-10.8875
▁উল্লেখ্য	-10.8875
▁স্তম্ভ	-10.8877
▁সংস্পর্শে	-10.8877
▁ফেললেন	-10.8878
▁পাইলেন	-10.888
▁যোগী	-10.8881
▁বিভাজন	-10.8882
▁বেশিক্ষণ	-10.8882
গ্রাম	-10.8887
▁সম্পাদন	-10.8888
▁প্রতিষ্ঠানগুলো	-10.8894
▁জৈন	-10.8899
▁শুদ্ধ	-10.89
▁সংসদে	-10.8905
▁সর	-10.8908
▁সাথেই	-10.891
▁ড্যানি	-10.8911
▁জঙ্গল	-10.8911
▁কেস	-10.8912
▁কো	-10.8912
▁প্রশাসনিকভাবে	-10.8915
▁সিটির	-10.8916
▁ধীর	-10.8918
▁আত্মবিশ্বাস	-10.8919
▁বাসনা	-10.8919
▁নির্বাহ	-10.8919
▁কাটে	-10.892
▁একাকী	-10.8922
▁নিষ্ঠুর	-10.8923
▁মোকাবেলা	-10.8923
▁ওয়েস্টার্ন	-10.8923
▁যথাক্রমে	-10.8923
▁লেফটেন্যান্ট	-10.8924
▁জনবহুল	-10.8924
▁উড়িয়ে	-10.8927
▁ভায়া	-10.8929
▁আবৃত্তি	-10.8929
▁বর্ধমান	-10.8937
▁চত্বরে	-10.8938
▁সিদ্ধান্তে	-10.8942
▁সেসময়	-10.8944
বাদ	-10.8946
পুরুষ	-10.8946
▁ভালবাসার	-10.8949
▁বাঁশি	-10.8949
▁এলাম	-10.8959
▁জাদুঘরে	-10.8963
▁ম্যাচটি	-10.8964
▁ভ	-10.8968
▁ট্রাস্ট	-10.8968
▁খোঁজা	-10.8971
▁ক্ষুধা	-10.8972
▁প্রতারণা	-10.8974
▁মস্তিষ্কের	-10.8974
▁সদ্য	-10.8974
▁করিও	-10.8975
▁নজরদারি	-10.8975
▁জোরালো	-10.8975
▁সমাজতান্ত্রিক	-10.8976
▁হোয়াইট	-10.8977
▁ভোটার	-10.8978
▁পেরেছে	-10.8982
▁ভট্টাচার্য	-10.8985
▁ঘাস	-10.8986
▁অ্যাসোসিয়েশন	-10.8987
▁হেনরি	-10.8988
▁আভাস	-10.9001
▁নাতি	-10.9007
▁জিম্মি	-10.9011
▁আচার্য	-10.9012
টায়	-10.9017
▁আইয়ুব	-10.9018
▁দুপুর	-10.9018
▁সেনাদের	-10.9018
▁চলেছেন	-10.9022
মধ্যে	-10.9023
গামী	-10.9024
▁প্রেক্ষাপটে	-10.9025
▁প্রজন্ম	-10.9027
▁সর্ববৃহৎ	-10.9027
▁উপনীত	-10.9027
▁ছিন্ন	-10.9027
▁অস্বীকৃতি	-10.9027
▁গাইতে	-10.9029
▁দাঁড়িয়েছে	-10.9029
▁ওডিআইয়ে	-10.903
▁বৈদিক	-10.9031
▁ইন্সপেক্টর	-10.9031
▁পৌঁছাতে	-10.9033
▁বোঝানো	-10.9035
▁চাইবে	-10.9039
▁ক্রস	-10.904
▁সবকিছুর	-10.9041
▁বসল	-10.9043
▁কুরাইশদের	-10.9046
▁সাফ	-10.905
▁রিং	-10.9051
▁নাসির	-10.906
▁ভাষাতে	-10.9074
▁ইয়র্কে	-10.9076
▁শিখে	-10.9078
▁আনুগত্য	-10.9079
▁গাণিতিক	-10.9081
▁আকাঙ্ক্ষা	-10.9084
ষি	-10.9086
▁লাইট	-10.909
▁প্রেরণা	-10.9091
▁উইল	-10.9092
▁দুনিয়ায়	-10.9096
▁মাজার	-10.9096
▁সংরক্ষণের	-10.9096
▁যন্ত্রের	-10.9098
▁স্কটল্যান্ড	-10.9101
▁মঠে	-10.9102
▁প্রজাতন্ত্রের	-10.9106
▁ভ্রমণের	-10.9111
▁কাকা	-10.912
▁রোডে	-10.9122
শীল	-10.9123
▁সংকলন	-10.9125
▁আবরণ	-10.9125
চে	-10.9127
▁হেম	-10.913
▁জখম	-10.9132
▁খালাতো	-10.9132
▁হায়দার	-10.9133
▁মুখ্যমন্ত্রী	-10.9133
▁আব্দু	-10.9133
▁অন্তঃপুরে	-10.9135
▁এমনভাবে	-10.9136
যোগ্য	-10.9137
▁গঠনে	-10.9139
▁ট্রাইব্যুনাল	-10.9141
▁বিল্ডিং	-10.9142
▁ভালবাসি	-10.9145
▁শিলা	-10.9152
▁জের	-10.9153
▁প্রতিবার	-10.9153
▁রক্ষায়	-10.9161
▁আনসার	-10.9164
▁বব	-10.9165
▁চরিত্রটি	-10.9165
▁পাত্রে	-10.9167
▁পাতায়	-10.9172
▁ফেললে	-10.9173
▁দশটি	-10.9174
▁রয়্যাল	-10.9177
▁স্টাইল	-10.9181
▁চাঁদপুর	-10.9181
▁দেখব	-10.9182
▁আইডিয়া	-10.9183
▁এক্ষুনি	-10.9185
▁সমবেত	-10.9185
▁ডিফেন্ডার	-10.9185
▁খুশী	-10.9185
▁বর্জ্য	-10.9186
▁শোষণ	-10.9187
▁অবতার	-10.9191
▁বর্ষা	-10.9196
▁অভিনয়ে	-10.9197
▁অবস্থাতেই	-10.9199
▁দুইটার	-10.92
▁লাগলো	-10.9205
াস	-10.9209
▁ফেলেছেন	-10.9209
▁বস্তুত	-10.9211
▁উপসাগর	-10.9213
▁সঙ্গ	-10.9214
রাই	-10.9215
▁হিসেবেই	-10.9216
▁আনন্দিত	-10.9221
▁গ্রাহক	-10.9222
▁সভ্য	-10.9224
▁শিরোনাম	-10.9225
▁বঙ্গ	-10.9227
শক্তি	-10.923
▁বসবাসকারী	-10.9232
▁আয়ারল্যান্ড	-10.9232
▁পেশাগত	-10.9234
▁হাবিব	-10.9238
▁উত্তেজিত	-10.9238
▁উন্নীত	-10.9238
▁অশুভ	-10.9238
▁রইলেন	-10.924
▁জোরদার	-10.924
▁টপ	-10.9241
পর্দ	-10.9242
▁নানাভাবে	-10.9245
▁গিয়াছিল	-10.9249
▁গুঞ্জন	-10.9255
▁কুল	-10.9256
▁চাইছে	-10.9259
▁নির্মাণকাজ	-10.9259
▁জন্যেই	-10.9261
▁বিপদের	-10.9261
▁মহাবিদ্যালয়ে	-10.9264
▁ট্রাম্প	-10.9266
▁লাশের	-10.9269
▁নীরবে	-10.9271
▁পর্তুগিজ	-10.9273
▁এদিক	-10.9274
▁একটুও	-10.9282
▁সূচক	-10.9291
▁ধানমন্ডি	-10.9292
▁পড়ো	-10.9294
▁এক্ষণে	-10.9294
▁প্রদত্ত	-10.9296
েট	-10.9298
▁শু	-10.93
▁সৃজনশীল	-10.9323
▁মধুসূদনের	-10.9328
▁নম্বরে	-10.9332
▁কালাম	-10.9333
কু	-10.9335
▁ছিঁড়ে	-10.9336
▁সুলতানা	-10.9336
▁রেফারি	-10.934
▁শান্তিপূর্ণ	-10.9341
▁অ্যালবামের	-10.9343
▁ব্যায়াম	-10.9345
▁সংকুচিত	-10.9345
▁ব্যাহত	-10.9345
▁সাহসিকতা	-10.9345
▁আবিষ্কৃত	-10.9346
▁লজ্জায়	-10.9346
▁কুস্তি	-10.9346
▁অভিবাসন	-10.935
▁অপারেটি	-10.9351
▁উত্তরাধিকারী	-10.9352
▁গেমসে	-10.936
▁পাবো	-10.9361
▁বেড়ায়	-10.9361
▁গুলির	-10.9363
পূর্বে	-10.9363
▁ওসি	-10.9364
▁এখনি	-10.937
▁আমিন	-10.937
▁কোচিং	-10.937
▁কানের	-10.9373
▁তলোয়ার	-10.9374
▁ছাগল	-10.9375
্যাল	-10.9378
▁বাহ	-10.938
▁জীবের	-10.9381
▁হট	-10.9386
▁পুনরুদ্ধার	-10.9393
▁রবার্ট	-10.9393
▁বোঝার	-10.9397
▁বিদ্যুত	-10.9398
▁আস	-10.9398
▁সমতা	-10.9398
▁অধিভুক্ত	-10.9399
▁মজুরি	-10.9402
▁স্বাস্থ্যসেবা	-10.9403
▁বিস্তর	-10.9406
▁খেতাব	-10.9407
▁শ্বশুর	-10.9415
▁করেছিলে	-10.9417
▁ইঁদুর	-10.9422
▁সনাতন	-10.9424
▁স্থল	-10.9424
▁অস্ট্রেলিয়ান	-10.943
ূত	-10.9435
▁বন্দরের	-10.9437
▁নির্মম	-10.9438
▁চৌকি	-10.9443
▁চীনে	-10.9445
▁নীতির	-10.9449
▁করিতেছিল	-10.9451
▁বন্দরটি	-10.9451
▁মোশাররফ	-10.9454
▁লিপ্ত	-10.9454
▁জগন্নাথ	-10.9454
▁খাড়া	-10.9454
▁উপেক্ষা	-10.9454
▁জনের	-10.9456
▁নিব	-10.9457
▁ঠেকাতে	-10.9457
▁প্রাণীদের	-10.9458
▁হতাশা	-10.9459
▁নায়না	-10.9459
▁হ্যাঁঁ	-10.946
▁স্পেনীয়	-10.946
▁ভঙ্গিতে	-10.9462
▁ভাবছেন	-10.9462
▁হাসতে	-10.9467
▁পরিবেশনা	-10.9469
▁স্তব্ধ	-10.9474
▁পুস্তক	-10.9475
▁আগ্রহের	-10.9477
▁কল্যাণে	-10.9485
▁বাজি	-10.9485
▁ব্যবস্থায়	-10.9485
▁গোত্র	-10.9486
▁গয়না	-10.9493
▁রবি	-10.9494
▁উৎপাদ	-10.9497
▁ঐতিহ্যের	-10.9507
▁চড়া	-10.9507
▁গনি	-10.9508
▁বিজ্ঞপ্তি	-10.9508
▁ভিটামিন	-10.9508
▁বৈষ্ণব	-10.951
▁গবেষকেরা	-10.951
সংলগ্ন	-10.9512
▁বিক্রিয়া	-10.9512
▁চ্যাম্পিয়নশিপ	-10.9519
▁পরেশ	-10.9521
▁নিঃশ্বাস	-10.9524
▁মারার	-10.9525
▁সাক্ষাৎকার	-10.9527
▁যেমনটা	-10.9528
▁ঐতিহাসিকভাবে	-10.9537
▁ঢুকিয়ে	-10.9537
▁স্থায়ীভাবে	-10.9539
▁বিষয়গুলো	-10.9548
▁কালি	-10.955
▁বারান্দা	-10.9555
মু	-10.9561
▁হয়েই	-10.9563
▁শিকারী	-10.9564
র্গ্যাল	-10.9564
▁ঝুলিয়ে	-10.9566
▁নিজেরা	-10.9566
▁ইন্দো	-10.9574
▁দিনই	-10.9579
▁মিলন	-10.958
▁তুলেছেন	-10.9582
▁খেলাটি	-10.9588
▁নিতেন	-10.959
▁বলছিস	-10.9594
▁হোন	-10.9597
বাদী	-10.9597
▁শৃঙ্খলা	-10.9598
▁অ্যান্ড্রয়েড	-10.9601
▁সুফি	-10.9608
▁কার্যক্রমে	-10.9612
▁দাবা	-10.9613
▁চাহিল	-10.9615
▁তীক্ষ্ণ	-10.9618
▁নরওয়ে	-10.9619
▁শুনলাম	-10.9619
▁প্রেরিত	-10.9619
▁আরেকটু	-10.9619
▁হইলেও	-10.9621
▁মেঘনা	-10.9621
▁অভিজ্ঞ	-10.9622
▁পল্লী	-10.9623
▁এনেছে	-10.9624
▁মেরেছে	-10.9624
▁বলিনি	-10.9627
▁সফরকারী	-10.9627
▁খনি	-10.9632
▁ব্র্যান্ড	-10.9633
▁স্রোত	-10.9634
▁তখনকার	-10.9635
▁রক্তে	-10.9638
▁মিয়ার	-10.964
▁ভ্রম	-10.9641
▁আর্দ্র	-10.9642
▁ফকির	-10.9645
▁মেই	-10.9646
▁ঝড়ের	-10.9649
ড়া	-10.9649
▁বাহু	-10.9653
▁পকেট	-10.9653
▁অধিনায়কত্ব	-10.9654
▁দৌড়	-10.9655
▁বিহারীর	-10.9661
▁অনুদান	-10.9662
▁মানিয়ে	-10.9663
▁নথি	-10.9668
▁কাপড়ের	-10.9673
▁কুসুমের	-10.9673
▁বর্ধিত	-10.9674
▁স্যরি	-10.9675
▁উদাহরণস্বরূপ	-10.9675
▁বনু	-10.9676
▁ডাকতে	-10.9676
▁ক্রান্তীয়	-10.9679
▁একাত্তরে	-10.9681
▁ঠাকুরপো	-10.9684
গা	-10.9685
▁আকৃতি	-10.9688
▁গ্রাহকদের	-10.969
▁জ্বলে	-10.9698
▁শিবির	-10.9701
▁সদস্যপদ	-10.9708
▁দক্ষতার	-10.9715
▁একুশে	-10.9718
▁ট্র্যাক	-10.9724
▁আড়াল	-10.9724
▁ইয়াসমিন	-10.973
▁তরবারি	-10.973
▁চলাফেরা	-10.9731
▁ফ	-10.9732
▁ফের	-10.9734
▁ব্ল্যাক	-10.9734
▁কমেছে	-10.9736
▁পাছে	-10.9736
▁লড়াইয়ের	-10.974
▁এসেছো	-10.9741
▁বলেছ	-10.9744
▁কাজকর্ম	-10.9746
▁যেতাম	-10.9748
▁সাধ্য	-10.9748
▁সিংহাসন	-10.9749
▁বিশ্বাসের	-10.9749
▁জ্বল	-10.9751
▁মানচিত্র	-10.9755
▁দেশেই	-10.9756
▁ল্যাব	-10.9759
▁প্রবেশপথ	-10.976
▁কলম	-10.9768
▁বাহিনীতে	-10.9773
▁মরিচ	-10.9773
▁দৃশ্যমান	-10.9778
প্রধান	-10.978
▁জে	-10.9781
▁বন্দি	-10.9781
▁গণেশ	-10.9783
▁রোবট	-10.9786
▁ভূগোল	-10.9786
▁জয়সিংহ	-10.9787
▁জীবন্ত	-10.9788
▁অভিমান	-10.9788
▁জোসেফ	-10.979
▁উচ্চারণ	-10.9791
▁কৃষকেরা	-10.9791
▁ইসরা	-10.9791
▁জিম	-10.9792
▁এলা	-10.9792
▁কৌশলে	-10.9793
পনিবেশিক	-10.9793
▁বসুন	-10.9797
▁বলিস	-10.9798
্যা	-10.9801
▁নারীকে	-10.9804
▁বাষ্প	-10.9805
▁গাওয়া	-10.9805
▁বিমানবন্দরটি	-10.982
▁রোহিঙ্গা	-10.9822
▁বিজেপি	-10.9823
▁বইটির	-10.983
▁যাত্রার	-10.9834
▁গ্রেট	-10.9835
কর্ম	-10.9839
▁চারিদিকে	-10.9839
▁ধোঁয়া	-10.9842
▁কথাটি	-10.9842
▁কেমব্রিজ	-10.9843
▁লজ্জিত	-10.9843
▁সহযোদ্ধা	-10.9843
▁বেবি	-10.9844
▁লড়তে	-10.9845
▁কালচে	-10.9845
▁সচেষ্ট	-10.9847
শূন্য	-10.9847
▁অনিয়মিত	-10.9848
▁জনসন	-10.9852
▁ঘটানো	-10.9852
▁প্রকল্পে	-10.9853
সুবিধা	-10.9854
▁টিভিতে	-10.9854
▁তুরস্কে	-10.9855
▁পাও	-10.986
▁ভ্যান	-10.9865
▁পারিলে	-10.987
▁হো	-10.9874
▁প্রশিক্ষক	-10.9875
▁চিন্তাধারা	-10.9879
▁কমল	-10.9879
▁প্রতিমা	-10.988
▁দীক্ষা	-10.9881
▁বাসিন্দাদের	-10.9883
▁জ্ঞানী	-10.9884
চা	-10.9889
▁মহিলার	-10.9896
▁জহির	-10.9899
লী	-10.9899
▁ইদানীং	-10.9899
▁প্রতিনিয়ত	-10.9899
▁প্রভাষক	-10.9899
▁মাঝারিসারি	-10.99
▁মুনাফা	-10.99
▁চৈতন্য	-10.99
▁শ্রীকৃষ্ণ	-10.99
▁ন্যায়বিচার	-10.99
▁অসামান্য	-10.99
▁দুদক	-10.9901
▁ব্রহ্মপুত্র	-10.9902
▁কদিন	-10.9903
▁ঢাল	-10.9903
▁খোঁজে	-10.9909
▁কোর্টে	-10.9911
▁রিমান্ডে	-10.9914
বিশিষ্ট	-10.9919
▁কাশী	-10.992
▁পুনর্বাসন	-10.992
▁দেও	-10.9924
▁জামিনে	-10.9924
▁ডিবি	-10.9926
▁এইটা	-10.9927
▁মহাবিদ্যালয়	-10.9929
▁প্রোগ্রামিং	-10.993
▁টার্গেট	-10.993
▁গ্রামটি	-10.9937
দুল	-10.9939
▁ধানের	-10.9952
▁ফি	-10.9953
▁ডে	-10.9953
▁শিবিরে	-10.9956
▁স্পেশাল	-10.9957
▁ফোটে	-10.9957
▁জরুরী	-10.9957
▁পারস্পরিক	-10.9958
▁যেখান	-10.996
▁বেসরকারী	-10.996
ন্স	-10.9962
নিরীক্ষা	-10.9962
▁কৃতজ্ঞতা	-10.9962
▁কিশোরগঞ্জ	-10.9966
▁সম্পাদকের	-10.9968
▁নেননি	-10.9977
▁প্রাচীর	-10.9977
▁রুট	-10.9978
▁মুক্তিপণ	-10.9983
▁সেখানেও	-10.9985
▁মুহাম্মাদের	-10.9986
▁বিষয়গুলি	-10.9989
▁বাস্তবায়নে	-10.9998
▁অস্বস্তি	-11
▁হু	-11.0004
▁উত্তরাধিকার	-11.0005
▁বন্য	-11.0006
▁কিশোরী	-11.0008
▁কাদা	-11.0008
▁গ্রহণযোগ্য	-11.0009
শি	-11.001
▁নৃত্যশিল্পী	-11.001
▁জিতেছে	-11.0011
▁আহ্বায়ক	-11.0014
▁মোতায়েন	-11.0014
▁তত্ত্বাবধায়ক	-11.0014
▁দিয়ো	-11.0014
▁বুঝেছি	-11.0015
▁আদিত্য	-11.0015
▁পুকুরে	-11.0016
▁ছুটিয়া	-11.0016
▁উল্টো	-11.0019
▁ম্যাক্স	-11.0019
▁হিট	-11.0026
▁গড়া	-11.0026
▁আপনিই	-11.0028
▁প্ল্যাটফর্ম	-11.0028
▁স্লো	-11.0028
▁হাসিতে	-11.0031
▁আনিস	-11.0037
▁ছাত্রলীগ	-11.0038
রাও	-11.0039
▁ধরেছেন	-11.0042
▁চাইনি	-11.0042
▁মেসির	-11.005
গ্স	-11.0051
▁প্রীতি	-11.0052
▁কৃষকদের	-11.0054
▁তড়িৎ	-11.0055
▁লাগলে	-11.0061
▁টাইমস	-11.0063
▁হচ্ছি	-11.0066
▁একথা	-11.0066
▁ক্ষয়	-11.0067
▁সেইরূপ	-11.0069
▁খ্রিস্ট	-11.007
▁অগ্রাধিকার	-11.0072
▁খিলাফত	-11.0072
▁প্রবৃদ্ধি	-11.0072
▁নোংরা	-11.0072
▁র্যাব	-11.0073
▁সাইবার	-11.0074
সু	-11.0074
▁মোগল	-11.0075
▁সাংসদ	-11.0077
▁স্থলে	-11.0077
▁প্রসব	-11.0078
▁মদীনায়	-11.0079
▁রান্নার	-11.008
▁কিরণ	-11.008
▁শিবের	-11.0083
▁বেশকিছু	-11.0083
▁অঙ্কের	-11.0083
স্ত	-11.0083
▁নৌবাহিনীর	-11.0089
▁বিসিবি	-11.0089
▁উদার	-11.0089
▁জ্বালা	-11.0091
▁হেড	-11.0092
▁এইখানে	-11.0107
▁ড	-11.0113
▁অদূরে	-11.0122
▁ইয়েমেন	-11.0123
▁সময়ও	-11.0125
▁অপরিহার্য	-11.013
▁ফুফাত	-11.013
▁ভিজে	-11.013
▁ইতিপূর্বে	-11.013
▁অবহিত	-11.013
▁রাজকন্যা	-11.013
▁ঐক্যবদ্ধ	-11.013
▁শরিফ	-11.0131
▁খিলান	-11.0132
▁সজ্জিত	-11.0133
▁স্পোর্টস	-11.0133
▁তাহাদিগকে	-11.0133
▁দর্শকেরা	-11.0138
আর	-11.0138
▁হবো	-11.0138
▁নেবো	-11.0139
▁ভুলিয়া	-11.014
▁এতক্ষণ	-11.0143
▁থিয়েটারে	-11.0145
▁হাজারের	-11.0146
▁মিলনায়তনে	-11.015
▁গুলিতে	-11.0153
▁ক্রেতা	-11.0155
▁মিশেল	-11.0156
▁বানান	-11.0156
▁করলো	-11.0156
▁চাপিয়া	-11.0158
▁শিখ	-11.016
মানের	-11.016
▁বললো	-11.0161
▁নেতাদের	-11.0162
▁ত্রাণ	-11.0165
▁প্রতিদিনই	-11.0168
▁পাইপ	-11.0168
▁সামনেই	-11.0168
▁পে	-11.0172
▁প্রয়া	-11.0175
▁মারামারি	-11.0177
▁হকি	-11.018
▁অনেকবার	-11.0181
▁সঙ্গেও	-11.0187
▁অগ্রণী	-11.0188
▁গ্র্যান্ড	-11.0189
▁প্রোটিন	-11.019
▁বাতাসের	-11.0191
▁ফারসি	-11.0191
▁সিমেন্ট	-11.0192
▁সংক্ষেপে	-11.0192
▁ফেলবো	-11.0193
▁নক্ষত্র	-11.0194
▁স্বর্গে	-11.0196
▁ঘনত্ব	-11.0196
▁কতটুকু	-11.0197
▁মানবজাতি	-11.0199
▁পরীক্ষামূলক	-11.02
▁পৌঁছালে	-11.0205
▁ব্যাটারি	-11.0208
▁চিত্রিত	-11.0208
▁সিসি	-11.0209
▁প্রথমেই	-11.021
▁দেখাও	-11.0213
▁অহ	-11.0213
গুলা	-11.0215
▁মালিকের	-11.0216
▁দেখিলে	-11.0217
▁বিবাদ	-11.0218
▁শিক্ষায়	-11.0219
▁অলিম্পিকে	-11.0223
▁গ্রিন	-11.0225
▁তিব্বতে	-11.0226
লাভ	-11.0226
▁দূর্বল	-11.0227
টিক	-11.0229
▁ট্রাম্পের	-11.023
▁সন্তানকে	-11.0235
▁ঘটলে	-11.0236
▁দুইটা	-11.0236
▁ভাবের	-11.0241
▁নাটোর	-11.0245
▁মামার	-11.0245
▁উঠিয়াছে	-11.0246
▁অর্থোডক্স	-11.0247
▁গোবিন্দমাণিক্য	-11.0247
▁বাড়াবাড়ি	-11.0248
▁আটলান্টিক	-11.0248
▁ইকরামা	-11.0248
▁তবেই	-11.0249
▁ওম	-11.0249
▁মহলে	-11.0252
▁আইনগত	-11.0252
▁ব্যবধানে	-11.0253
▁জন্মায়	-11.0255
▁আশাবাদী	-11.0255
▁অ্যাম্বুলেন্স	-11.0255
▁নেয়নি	-11.0261
▁উমর	-11.027
িয়ান	-11.0279
▁আবারো	-11.0286
▁দিনটি	-11.0286
▁হাউস	-11.0288
টু	-11.0291
▁এবারে	-11.0292
▁উপন্যাসটি	-11.0293
▁দাঁড়া	-11.0293
▁মস্কো	-11.0293
▁কোনরূপ	-11.0293
▁স্মিথ	-11.0304
▁ঢের	-11.0306
▁সামুরাই	-11.0306
▁সেনের	-11.0312
▁ভি	-11.0318
▁ভূমিতে	-11.0318
▁দশটা	-11.0325
▁বিশেষজ্ঞরা	-11.0325
▁মিটার	-11.0328
▁দিস	-11.0337
▁কুরআনের	-11.0339
▁সিদ্ধান্তের	-11.0345
▁শুটিংয়ে	-11.0346
▁অন্যটি	-11.0349
▁শব্দটির	-11.0349
▁কার্যকলাপ	-11.0349
▁সংঘাত	-11.035
▁মারি	-11.0352
▁গানগুলো	-11.0353
রফে	-11.0354
▁রাসেল	-11.0356
▁সম্মানের	-11.0361
▁অচল	-11.0362
▁প্যানেল	-11.0365
▁অবাধ	-11.0365
▁ভাগাভাগি	-11.0366
▁স্রেফ	-11.0366
▁স্মার্ট	-11.0366
▁মোহামেডান	-11.0367
▁শেরেবাংলা	-11.0367
▁জঙ্গিবাদ	-11.0368
▁যান্ত্রিক	-11.0368
▁জানিয়েছিলেন	-11.0369
▁আমিরাত	-11.0369
▁মধ্যবিত্ত	-11.037
▁দিয়েও	-11.0371
▁যাচ্ছো	-11.0371
▁যাহার	-11.0373
▁রয়েল	-11.0374
▁কাতার	-11.0379
▁সরলা	-11.0381
▁ধারণাটি	-11.0382
▁দরবারে	-11.0385
মানিক	-11.039
▁শ্বশুরবাড়ি	-11.0391
▁কুসংস্কার	-11.0399
▁টাকায়	-11.0401
▁প্রস্তাবিত	-11.0403
▁ধর্মঘট	-11.0406
▁নাহয়	-11.0408
▁ভাষণ	-11.0412
▁বেচারা	-11.0412
▁সংকীর্ণ	-11.0414
▁পেপার	-11.0414
▁গল্পে	-11.0416
▁প্রকারের	-11.0417
যা	-11.0421
▁কা	-11.0422
▁ফেরা	-11.0423
▁সেক্রেটারি	-11.0426
ার্স	-11.0427
▁ফুটিয়ে	-11.0427
▁কেটেছে	-11.0428
ব্যবস্থা	-11.0428
▁উহাকে	-11.0433
▁পরিচালকের	-11.0434
ছিস	-11.0435
▁কার্যক্রমের	-11.0435
▁নামতেন	-11.0436
▁প্রতিষ্ঠায়	-11.0439
ুয়া	-11.044
▁জানাই	-11.0441
▁লেন	-11.0442
▁অপ	-11.0446
▁মৃত্যুতে	-11.045
▁স্বরাষ্ট্র	-11.0454
▁মুখোপাধ্যায়	-11.0462
▁বারে	-11.0463
▁তৃণমূল	-11.0463
▁পন্থা	-11.0472
▁দেওয়ান	-11.0474
ফা	-11.0484
▁নগদ	-11.0486
▁টহল	-11.0486
▁শামসুল	-11.0486
▁নাজমুল	-11.0486
▁দুঃস্বপ্ন	-11.0487
▁পাল্টে	-11.0487
▁অ্যাটর্নি	-11.0487
▁অভ্যর্থনা	-11.0487
▁প্রশ্নে	-11.0488
▁সমালোচিত	-11.0488
▁সিদ্ধ	-11.0494
▁দপ্তরে	-11.0494
▁ফাইল	-11.0499
▁কর্তা	-11.0503
▁ইতি	-11.0504
▁গভীরতা	-11.0506
▁অ্যালবামটি	-11.0513
▁করানোর	-11.0514
▁স্টেডিয়ামটি	-11.0515
▁ইংলণ্ডে	-11.0516
▁সন্ত্রাসীদের	-11.0527
▁পিছনের	-11.0528
▁তাক	-11.0533
▁অহংকার	-11.0533
▁কুয়াশা	-11.0533
▁কাটান	-11.0535
▁দেবতাদের	-11.0539
▁শঙ্কর	-11.054
▁দেশগুলি	-11.0541
▁দুর্বৃত্ত	-11.0542
জুড়ে	-11.0542
▁ভাষাটি	-11.0542
▁কতিপয়	-11.0547
▁এগোতে	-11.0547
▁হবিগঞ্জ	-11.055
▁সত্তর	-11.0551
▁নাশকতা	-11.0552
▁দেখিতেছি	-11.0557
▁আনিতে	-11.0558
▁প্রযুক্তিগত	-11.0563
▁শিল্পীর	-11.0563
▁বিজ্ঞাপনে	-11.0566
▁লেক	-11.0566
▁হয়না	-11.0566
▁নিউজ	-11.0568
▁মনোযোগী	-11.0568
▁জানলে	-11.057
▁চলিতেছে	-11.0578
▁বিড়ালের	-11.0592
▁ব্যাকুল	-11.0593
▁বদর	-11.06
▁গবেষণায়	-11.0601
▁চালাচ্ছে	-11.0602
▁কুকুরের	-11.0606
▁বড্ড	-11.0608
▁বিবর্তন	-11.0608
▁ব্যাথা	-11.0608
▁ব্যয়বহুল	-11.0608
▁থামিয়ে	-11.0609
▁মান্নান	-11.0611
রাজ	-11.0617
▁ব্র্যান্ডের	-11.0618
▁খেজুর	-11.062
▁পারদর্শীতা	-11.0621
▁কমতে	-11.0622
▁পরিধান	-11.0623
▁হইয়াছেন	-11.0624
▁বৌদ্ধবিহারে	-11.063
▁সিরাজগঞ্জ	-11.063
কোনো	-11.0632
▁কীর্তি	-11.0633
▁পলায়ন	-11.0634
▁বিনিয়োগের	-11.0638
▁চেম্বার	-11.0639
▁এসআই	-11.064
ইন	-11.064
▁ঐগুলি	-11.0642
▁মডেলিং	-11.0644
▁সমভূমি	-11.0645
▁আংটি	-11.065
▁বিয়েতে	-11.0652
▁কয়েন	-11.0654
▁ইন্দ্রিয়	-11.0659
▁ভূখণ্ড	-11.0662
▁রেস্তোরাঁ	-11.0662
▁রোমান্টিক	-11.067
▁মজবুত	-11.067
▁হুগলি	-11.067
▁দুর্গা	-11.0671
▁পেশ	-11.0674
▁খালেদা	-11.0675
▁স্বজনদের	-11.0675
▁ঠিকমত	-11.0676
▁দিয়াছে	-11.0678
▁নিয়মে	-11.068
▁পদার্থবিজ্ঞানের	-11.0683
▁তুলা	-11.0684
▁সংশয়	-11.0686
▁গোলমাল	-11.0693
▁সায়েন্স	-11.0697
▁সিম	-11.0698
▁দলীয়	-11.0703
▁পাইলে	-11.0704
▁সিট	-11.0704
▁ভক্তদের	-11.0706
পথে	-11.0707
▁মাইক	-11.0714
▁আয়োজক	-11.0714
▁আবর্জনা	-11.0715
▁বস্তি	-11.0716
▁এন	-11.0727
▁নয়জন	-11.0727
▁গ্রীক	-11.073
▁অভিন্ন	-11.0731
▁ভুয়া	-11.0731
▁রসিকবাবু	-11.0731
▁বিল্বন	-11.0732
▁মহাসচিব	-11.0733
▁ব্রিজ	-11.0733
▁ছোপ	-11.0735
▁ফিলিস্তিনি	-11.0736
▁দীন	-11.0738
▁অমনি	-11.0741
▁ঘোষণার	-11.0744
▁ক্যান্সার	-11.0748
▁জর্ডান	-11.0748
▁ভাঙন	-11.0749
▁ইয়াবা	-11.075
▁ওভারে	-11.0751
▁মানুষেরা	-11.0752
নাম	-11.0754
▁নেবার	-11.0755
▁বিপন্ন	-11.0756
▁সেদিকে	-11.0757
▁বার্সেলোনার	-11.0757
▁বাড়িটা	-11.0759
ওয়া	-11.076
হার	-11.0763
▁খাঁটি	-11.0764
▁সেরকম	-11.0766
▁পোশাকে	-11.0772
▁ওবামা	-11.0777
▁অভিমত	-11.0778
▁সিটিতে	-11.078
▁মনির	-11.0783
▁অর্থায়ন	-11.0789
▁খেলবে	-11.0793
▁নির্দোষ	-11.0793
▁শুইয়া	-11.0794
▁অবসরপ্রাপ্ত	-11.0795
▁লালচে	-11.0795
▁নির্মল	-11.0796
▁ছবিগুলো	-11.0796
▁পিতামাতা	-11.0797
▁মনসুর	-11.0797
▁জামাই	-11.0797
▁গেছো	-11.0797
▁মাস্টার্স	-11.0798
▁আগাম	-11.0803
কুল	-11.0804
রাত	-11.0804
জু	-11.0806
▁সন্ত্রাসীরা	-11.0807
▁জানাচ্ছি	-11.081
▁মেক্সিকো	-11.0813
▁শেষবার	-11.0813
▁শের	-11.0818
▁কবলে	-11.082
▁নিও	-11.0822
▁সেন্টারে	-11.0823
▁অপরাধীদের	-11.0826
▁স্থূল	-11.0827
লু	-11.0828
▁তাহারই	-11.0828
▁মুহুর্তে	-11.083
বাংলা	-11.0831
▁ওপেন	-11.0835
▁স্মরণে	-11.0839
▁সিস্টেমের	-11.0841
▁সুইজারল্যান্ড	-11.0847
▁প্রতিরোধে	-11.0847
▁পাখা	-11.0851
▁মন্ত্রীর	-11.0852
▁স্পেনে	-11.0852
▁ক্রিকেটারদের	-11.0855
▁সিগন্যাল	-11.0855
▁সংকটের	-11.0855
▁থেকো	-11.0856
▁ডক্টরেট	-11.0856
▁শোভা	-11.0856
▁বিচরণ	-11.0856
▁বহিষ্কার	-11.0856
▁চারুকলা	-11.0856
▁জাকির	-11.0857
▁বাইবেল	-11.0857
াগতিক	-11.0859
▁চারা	-11.0863
▁খোলার	-11.0863
▁নেপালি	-11.0872
▁হলিউড	-11.0873
▁কাটতে	-11.0875
▁শত্রুর	-11.0877
▁অপারেটর	-11.0878
▁শান্তির	-11.0879
▁রাজ্জাক	-11.0886
ীভূত	-11.089
▁সাপের	-11.0898
▁রোনালদো	-11.0899
▁ছ	-11.0899
▁কায়রো	-11.09
▁ভারতকে	-11.0906
▁অমান্য	-11.0907
▁দিনটা	-11.091
▁আয়ত্ত	-11.0913
▁মনুষ্য	-11.0914
▁ডায়াবেটিস	-11.0918
▁টেক্সটাইল	-11.0918
▁দৃষ্টিকোণ	-11.0918
▁কলম্বো	-11.0919
▁চাকমা	-11.092
▁গুজব	-11.092
▁আজই	-11.0921
▁চিত্রশিল্পী	-11.0923
▁মেঝে	-11.0923
▁সংকল্প	-11.0924
▁মীমাংসা	-11.0927
▁সংস্কৃতিতে	-11.0929
▁লিমিটেডের	-11.093
▁উপগ্রহ	-11.0934
▁ওটাকে	-11.0935
▁বলিতেছি	-11.0937
▁রচনায়	-11.094
▁আনু	-11.094
▁রান্নাঘরে	-11.0942
মধ্যাংশে	-11.0945
▁রাজধানীতে	-11.0946
▁কৌশলগত	-11.0948
▁শোনার	-11.0958
▁হরি	-11.0959
▁পররাষ্ট্র	-11.0963
▁দেখাইয়া	-11.0965
ড়ি	-11.0966
▁রিচার্ড	-11.0966
▁ভুলতে	-11.0968
▁ব্যালট	-11.0969
▁শিল্পীরা	-11.0971
▁বদল	-11.0974
▁প্রতিকার	-11.0975
▁রহস্যময়	-11.0975
▁নগ্ন	-11.0975
কায়	-11.0975
▁ভেজা	-11.0975
▁সার্বভৌম	-11.098
▁আহসান	-11.0981
▁ল্যাপটপ	-11.0982
▁সুস্বাদু	-11.0982
▁প্রয়াস	-11.0982
▁আসিলেন	-11.099
তাম	-11.0991
▁দামে	-11.0994
িকা	-11.0994
▁ভূপতি	-11.1001
▁ভারতবর্ষ	-11.1001
▁ঘটেনি	-11.1001
▁ট্রেনিং	-11.1004
▁থাই	-11.1006
▁বাণিজ্যিকভাবে	-11.1008
▁মেয়েটাকে	-11.1008
▁ডিসি	-11.1009
▁অপুর	-11.1012
ল্যান্ড	-11.1015
্ব	-11.1016
▁কোম্পানিটি	-11.1027
▁ঘুষ	-11.1028
▁প্রতাপ	-11.103
▁মরুভূমি	-11.1033
▁এগারো	-11.1035
▁ভালুক	-11.1036
▁পেঁয়াজ	-11.1045
▁গাইবান্ধা	-11.1045
▁বিনামূল্যে	-11.1045
▁সর্বশ্রেষ্ঠ	-11.1045
▁নির্বাচকমণ্ডলী	-11.1046
▁জীবাণু	-11.1046
ঙ্গা	-11.1047
▁আক্রমণাত্মক	-11.1048
▁প্রতিবন্ধকতা	-11.1048
▁ক্ষতির	-11.1052
▁নিকটতম	-11.1053
▁যাবৎ	-11.1058
জা	-11.1059
▁আমাকেও	-11.1061
▁চুক্তিতে	-11.1065
▁ফেলল	-11.1068
▁আহমেদের	-11.1069
▁মুম্বই	-11.107
▁লর্ড	-11.1071
▁জবাবে	-11.1073
থেকে	-11.1077
▁একাডেমিতে	-11.1079
াইতে	-11.108
▁বিএনপি	-11.1081
ষ্ট	-11.1081
▁পেয়েছ	-11.1085
▁পদবী	-11.1086
▁কনটেইনার	-11.109
▁গাল	-11.1092
▁গুজরাট	-11.1095
▁ডিন	-11.1102
▁হি	-11.1103
▁মাঝ	-11.1105
▁আর্থ	-11.1107
▁তুষার	-11.1108
▁অলঙ্কার	-11.1108
▁জম্মু	-11.1109
▁নর্থ	-11.111
▁খানিকক্ষণ	-11.111
▁ক্ষয়ক্ষতি	-11.111
▁বিশ্বজুড়ে	-11.1111
▁বর্ষার	-11.1111
তলা	-11.1113
▁বিঘ্ন	-11.1114
▁নামিয়া	-11.1115
▁দিপা	-11.1115
▁সাময়িকী	-11.1117
▁জানবে	-11.1117
▁নারায়ণগঞ্জের	-11.1117
▁বিনিময়	-11.1117
▁বিশ্বযুদ্ধ	-11.1118
▁বারণ	-11.1119
▁স্বীয়	-11.112
▁মিনিটে	-11.1125
▁সাকিব	-11.1125
▁বিহারে	-11.1125
▁স্কট	-11.1127
▁ব্যস্ততা	-11.1127
▁সিঙ্গাপুরে	-11.1128
▁ডাকনাম	-11.1128
▁বসেছে	-11.1128
▁লাগতে	-11.1132
▁হুসাইন	-11.1132
▁ছাত্ররা	-11.1134
▁থাকল	-11.1135
▁গতির	-11.1136
▁জানিত	-11.1137
▁বিমল	-11.114
▁গোলাপ	-11.1145
▁গৃহিণী	-11.1145
▁সৈকত	-11.1153
▁দেখাবে	-11.1154
▁অংশীদার	-11.1158
▁কর্মশালা	-11.116
▁সাম্প্রদায়িক	-11.116
▁বিষ্ণু	-11.1162
▁নামার	-11.1165
▁পবিত্রতা	-11.1168
▁পৃষ্ঠপোষকতা	-11.1168
▁পুরান	-11.1169
▁কিং	-11.1169
▁উদ	-11.1171
▁ছোটগল্প	-11.1174
▁সহসভাপতি	-11.1175
▁ধার্য	-11.1177
▁দগ্ধ	-11.1177
▁রক্ষিত	-11.1178
▁অন্যথায়	-11.1178
▁সেগুলোর	-11.1178
▁নিবারণ	-11.1178
▁বার্সা	-11.1178
▁সাধক	-11.1182
▁আরেকবার	-11.1186
▁চ্যানেলে	-11.1186
▁চালিত	-11.1187
▁দরপত্র	-11.119
▁ইসরায়েলি	-11.1192
▁বলিবার	-11.1196
▁চিকিৎসকদের	-11.1197
▁বুড়ি	-11.12
▁শতরান	-11.1203
▁দূরের	-11.1211
▁শাক	-11.1215
▁ধরেছে	-11.1216
▁মাদ্রিদ	-11.1216
▁ইস্যু	-11.1218
▁শিক্ষকেরা	-11.1222
▁শিকারে	-11.1224
▁বোলারদের	-11.1232
▁ইঞ্জিনিয়ার	-11.1233
▁আসনটি	-11.1233
▁তাৎক্ষণিক	-11.1234
▁কতক্ষণ	-11.1234
▁ইরফান	-11.1239
▁ডোনাল্ড	-11.1239
▁রেহাই	-11.1239
▁পরিণাম	-11.1239
▁খুঁজিয়া	-11.1239
▁নীরজা	-11.1239
▁স্বচ্ছ	-11.124
▁গেয়েছেন	-11.124
▁ধ্রুপদী	-11.124
▁নেতৃত্বাধীন	-11.1241
▁পুরোটা	-11.1242
▁চাকরিতে	-11.1244
▁হিন্দুরা	-11.125
▁তাত্ত্বিক	-11.1256
▁খানিক	-11.1258
▁অন্ত	-11.1259
▁গণতন্ত্রের	-11.1261
▁আবাসস্থল	-11.1261
্ড	-11.1263
▁কলিকাতা	-11.1265
▁দুর্ভোগ	-11.1266
▁পারস্য	-11.1267
▁স্বাধীনভাবে	-11.1281
▁বাড়িয়া	-11.1285
▁ওসব	-11.1292
▁ছেলেবেলা	-11.1292
▁উদ্যোগে	-11.1293
▁ষোল	-11.1299
বাড়ি	-11.13
▁স্বস্তি	-11.1301
▁ক্যানসার	-11.1301
▁ইসমাইল	-11.1302
▁সুড়ঙ্গ	-11.1304
▁চিন্তাভাবনা	-11.1307
▁পাল্লা	-11.1309
▁নাইজেরিয়া	-11.131
▁স্থানীয়ভাবে	-11.1311
▁কাবুল	-11.1312
▁কন্ট্রোল	-11.1317
▁পড়ানো	-11.1319
▁ভোলা	-11.1319
▁ইলেকট্রন	-11.1323
▁রোদ	-11.1333
▁জার্নাল	-11.1334
▁খালে	-11.1345
▁অ্যাপ্লিকেশন	-11.1347
▁রব	-11.1348
▁প্রক্রিয়াটি	-11.1349
▁কৌতূহল	-11.135
▁বিভ্রান্ত	-11.1356
▁ফাউন্ডেশন	-11.1358
▁সাজ	-11.1359
গুলিকে	-11.1366
▁সুজা	-11.1367
▁অঙ্গীকার	-11.137
▁বিচলিত	-11.137
▁বেল্ট	-11.137
▁সুধাকান্তবাবু	-11.1371
▁গোলাকার	-11.1371
▁বিস্ফোরক	-11.1371
▁ফার্স্ট	-11.1372
▁ক্ষত	-11.1372
▁মহাত্মা	-11.1372
▁বিলীন	-11.1373
▁ফাটল	-11.1375
▁বাঁশের	-11.1376
▁এইমাত্র	-11.1376
▁বিদ্রোহের	-11.1378
▁রসিক	-11.1381
▁আর্য	-11.1381
▁দীর্ঘদিনের	-11.1383
▁সময়কাল	-11.1384
দেশীয়	-11.1385
▁ছুটিতে	-11.1397
▁রশি	-11.1398
▁ব্যাস	-11.14
▁প্রচারে	-11.1407
▁মোটরসাইকেলে	-11.1409
▁ডাচ	-11.1411
▁শাস্ত্রে	-11.1413
▁সারাহ	-11.1413
▁নিষ্ক্রিয়	-11.1416
▁পোকা	-11.1417
▁কেনাকাটা	-11.1422
▁বোঝে	-11.1423
▁ব্যবহারিক	-11.1433
▁রিজার্ভ	-11.1436
▁লায়লা	-11.1436
▁অতিশয়	-11.1436
▁সস্তা	-11.1438
▁চিংড়ি	-11.1438
▁ওনাকে	-11.1439
▁পারিত	-11.1439
▁ছাতা	-11.1439
▁সমকামী	-11.1441
▁ভ্রাতা	-11.1443
নিয়ে	-11.1443
▁জ্যোতির্বিজ্ঞান	-11.1449
▁বন্ধুকে	-11.145
▁বাদামী	-11.1451
▁টাইম	-11.1451
▁বাহন	-11.1453
হাট	-11.1456
▁টিনা	-11.1457
▁শিখা	-11.1461
▁পাচ্ছ	-11.1468
▁এইতো	-11.1475
▁মায়ানমার	-11.1475
▁হয়রানি	-11.148
▁সমর্থকেরা	-11.148
শন	-11.1481
▁অনিশ্চয়তা	-11.1489
▁ক্লার্ক	-11.1491
▁বিস্তৃতি	-11.1491
▁খাইয়ে	-11.1495
▁অলৌকিক	-11.1497
▁পরিকল্পিত	-11.1497
▁অধ্যবসায়	-11.1498
গুলোয়	-11.1498
▁রিটার্ন	-11.1499
▁ফেলছে	-11.15
▁নিয়ন্ত্রক	-11.1503
▁পেনাল্টি	-11.1503
▁সমাদৃত	-11.1503
▁গেরিলা	-11.1503
▁বুঝলাম	-11.1503
▁আব্বু	-11.1503
▁অবিশ্বাস্য	-11.1503
▁আন্টি	-11.1503
▁সংবর্ধনা	-11.1503
▁জামায়াতে	-11.1505
▁সোনালী	-11.1505
▁প্রবীণ	-11.1506
▁জাগিয়ে	-11.1506
▁নিপীড়ন	-11.1507
▁পুষ্টি	-11.1508
▁পাওনা	-11.1508
▁সংকোচ	-11.1509
▁জীবনযাত্রা	-11.151
▁ছিদ্র	-11.1513
▁বেগমের	-11.1514
▁সূরা	-11.1517
▁মেঝেতে	-11.152
▁মালিকেরা	-11.1523
োয়া	-11.1523
▁সহানুভূতি	-11.1523
▁ব্যবহ	-11.1524
▁জিয়া	-11.1524
রক্ষকের	-11.1525
▁আসনের	-11.1525
▁সময়মতো	-11.1527
▁সংঘ	-11.1534
▁ডুব	-11.1537
▁টিনের	-11.1542
▁ডাবল	-11.1546
▁বাঁচার	-11.1547
▁সুদ	-11.1547
এস	-11.1549
▁শিক্ষাবিদ	-11.155
বুদ্ধি	-11.1553
▁রোধে	-11.156
▁পেতেন	-11.1564
▁ব্যবধান	-11.1565
▁আচ্ছন্ন	-11.157
▁তামিম	-11.157
▁ফরাসী	-11.157
▁ভাবিল	-11.1571
▁সংযোজন	-11.1572
▁রক	-11.1573
▁কোথাকার	-11.1573
▁শ্বাসরোধ	-11.1575
▁চেয়ারে	-11.1576
▁রোগীকে	-11.1578
▁কাঠামোর	-11.1578
▁ময়দানে	-11.1579
▁আসবাব	-11.1579
▁গেয়ে	-11.1581
▁হ্যারি	-11.1583
▁জিয়াউ	-11.1585
▁এমনই	-11.1585
▁খাটো	-11.1587
▁আব্বাস	-11.1588
▁লতা	-11.1592
▁চুমু	-11.1594
▁স্ক্রিন	-11.1595
▁বেড়াইতে	-11.1595
▁ইউরোপীয়	-11.1599
▁নৈতিকতা	-11.1599
▁বেদের	-11.1601
বিদেশে	-11.1602
▁ছড়া	-11.1603
▁পারিস	-11.1605
▁ব্যাটসম্যানদের	-11.1609
▁লোকটাকে	-11.1612
▁যাত্রীরা	-11.1614
▁হ্রদের	-11.1617
▁নাগ	-11.1618
▁বামপন্থী	-11.1623
▁সিরিয়ায়	-11.1624
▁পরিসরে	-11.1624
▁খানকে	-11.1629
▁ফেডারে	-11.1629
▁কন	-11.163
▁গ্রীষ্মে	-11.1637
▁বাস্কেটবল	-11.1638
▁বুলবুল	-11.1638
▁আকরাম	-11.1638
▁প্রভেদ	-11.1638
▁আমৃত্যু	-11.1638
▁কাঁদিয়া	-11.1638
▁বিশ্বযুদ্ধে	-11.1638
▁ক্রীড়াশৈলী	-11.1638
▁হাবিবুর	-11.1638
▁স্পেস	-11.164
▁হাঙ্গেরি	-11.164
▁ভাবলাম	-11.1641
▁শেল	-11.1642
▁বিলি	-11.1642
▁ঘটিয়ে	-11.1643
▁আমলের	-11.1644
▁মুকুট	-11.1646
▁পকেটে	-11.1646
▁পড়	-11.1646
▁পাড়	-11.1651
▁নিউইয়র্ক	-11.1652
▁আশির	-11.1654
বাবার	-11.1655
▁খেললে	-11.1656
সুদ্ধ	-11.1656
▁চেয়েছেন	-11.1657
▁করাটা	-11.1663
▁অনুষদে	-11.1666
▁গাজা	-11.1667
▁সেটাকে	-11.1669
▁ক্রোধ	-11.1674
▁লক্ষ্মীপুর	-11.1674
▁চিত্ত	-11.1676
▁বাইরেও	-11.1676
▁বিশ্বস্ত	-11.1681
▁রাণী	-11.1688
▁অব্যাহতি	-11.169
▁থাম	-11.1696
▁নির্জন	-11.1696
▁সামঞ্জস্য	-11.1701
▁নরসিংদী	-11.1706
▁ন্যূনতম	-11.1706
▁পারদর্শিতা	-11.1706
▁মেসেজ	-11.1706
▁হরিহর	-11.1706
▁হুমায়ুন	-11.1706
▁যথাসময়ে	-11.1706
▁নাগাদ	-11.1706
▁প্রতিফলন	-11.1707
▁নাচতে	-11.1707
▁সাপেক্ষে	-11.1707
▁হাইড্রোজেন	-11.1707
▁টেকনোলজি	-11.1707
▁চার্লি	-11.1709
▁শুনেছেন	-11.1711
▁তাৎক্ষণিকভাবে	-11.1712
▁প্রতিস্থাপন	-11.1714
▁ওড়িশা	-11.1714
▁জিতেছেন	-11.1714
াই	-11.1714
▁উড়তে	-11.1716
াব্যস্ত	-11.1718
▁পৃথিবীকে	-11.1719
েল	-11.172
▁ছুট	-11.1721
▁একীভূত	-11.1724
▁দুদিন	-11.1724
▁ইহাদের	-11.173
▁করুণ	-11.1731
▁শেখেন	-11.1733
▁ছাত্রাবাস	-11.1733
▁ঢাক	-11.1737
▁অশ্ব	-11.1738
▁ভাবো	-11.174
▁আফগানিস্তানে	-11.174
▁নিবে	-11.1749
বিভক্ত	-11.1753
▁গিয়েছেন	-11.1754
▁নৌবাহিনী	-11.1754
▁কর্মচারীদের	-11.1755
▁ধার্মিক	-11.1756
▁অরণ্য	-11.1757
▁চেন্নাইয়ে	-11.1758
▁পাণ্ডুলিপি	-11.176
▁যাননি	-11.1762
ভর	-11.1763
▁রবীন্দ্র	-11.1764
▁বলত	-11.1764
▁বসুর	-11.1766
▁ইলিশ	-11.1771
▁গৌতম	-11.1774
▁সর্বনিম্ন	-11.1774
▁অচেতন	-11.1774
▁পুনরাবৃত্তি	-11.1775
▁মুখপাত্র	-11.1775
▁ঘেঁষে	-11.1776
▁পরিখা	-11.1776
▁বিরাজমান	-11.1776
▁মতলব	-11.1776
▁অসমীয়া	-11.1777
▁জাহান	-11.1777
▁বানানোর	-11.1778
▁দ্রুতই	-11.1778
▁দীর্ঘতম	-11.178
▁করিয়ো	-11.1782
▁যৌনতা	-11.1783
▁প্রাচীনকালে	-11.1789
▁সাভার	-11.179
▁সংস্করণে	-11.1793
▁মহিলারা	-11.1795
▁বিনয়কে	-11.1803
▁পিট	-11.1803
▁রুবেল	-11.1806
▁সহায়	-11.1808
▁কাট	-11.1808
▁হরিণ	-11.181
▁ইসলামকে	-11.1812
▁ডাক্তারি	-11.1816
▁প্রতিবন্ধী	-11.1822
▁চিঠিতে	-11.1823
▁অক্ষর	-11.1825
ন্দ	-11.1825
▁মৌল	-11.1826
▁লোকাল	-11.1828
▁দোতলা	-11.1829
▁হাতিয়ার	-11.1829
▁মেয়েটার	-11.1831
▁চারজনকে	-11.1834
▁অ্যাসিড	-11.1835
▁মণ্ডল	-11.1835
▁জিনিসের	-11.1835
▁পিতামহ	-11.1836
▁অ্যাপল	-11.1839
▁ভাতা	-11.1841
▁প্রাপ্তি	-11.1842
▁স্বেচ্ছাসেবক	-11.1842
▁প্রত্নতত্ত্ব	-11.1843
▁ধাতব	-11.1843
▁ধুলো	-11.1843
▁সিরাজুল	-11.1844
▁জর্জিয়া	-11.1845
▁সামাল	-11.1845
▁প্যারা	-11.1846
▁এঁরা	-11.1846
▁সিরিজটি	-11.1849
▁বেগুনি	-11.1856
▁সারাজীবন	-11.1857
▁ক্রেতাদের	-11.1861
▁যাদব	-11.1863
▁সেল	-11.1864
▁বেটা	-11.1866
▁লেখকের	-11.1867
▁লিখেন	-11.1868
▁ইয়া	-11.1868
▁উদ্বোধনে	-11.1869
▁তিনজনের	-11.187
▁গঙ্গার	-11.1879
▁প্রবেশদ্বার	-11.188
▁মাদ্রাজ	-11.1882
▁ছুঁয়ে	-11.1883
▁জায়গাটি	-11.1884
▁স্বর	-11.1887
▁আসত	-11.189
▁ধরিল	-11.1898
▁এইখানেই	-11.19
▁দেখলেই	-11.1901
▁যশ	-11.1903
▁বিবৃতি	-11.1904
▁অঞ্চলগুলি	-11.1905
▁বাজাতে	-11.1909
▁চেনে	-11.1911
▁আজ্ঞা	-11.1912
▁ক্ষেমংকরী	-11.1912
▁দুর্লভ	-11.1912
▁মেট্রোপলিটন	-11.1912
▁পৌনে	-11.1912
▁কনস্টেবল	-11.1913
▁ল্যাঙ্কাশায়ার	-11.1913
▁খ্রিষ্টান	-11.1914
▁কমানোর	-11.1915
▁দিনেই	-11.1916
▁স্মারক	-11.1917
▁পরিদর্শক	-11.1919
▁পোর্ট	-11.192
▁বৃষ্টিতে	-11.1922
▁গড়েন	-11.1924
▁বিধ্বস্ত	-11.1925
▁রাজাকে	-11.1929
▁বিশেষত্ব	-11.193
▁অধ্যয়নের	-11.1935
▁দর্শনীয়	-11.1935
▁ফিলিপ	-11.1936
মনে	-11.1937
▁প্রস্তাবে	-11.1938
▁পাহারা	-11.1941
▁ইতিহাসবিদ	-11.1944
▁বিনিয়োগকারী	-11.1947
▁সাতজন	-11.1949
▁তেজ	-11.195
▁চক্রের	-11.1952
▁অপরটি	-11.1953
করা	-11.1957
▁বিমানটি	-11.1961
ড়াইয়া	-11.1964
▁ফিলিস্তিন	-11.1967
▁বিএ	-11.1976
▁মহাসাগরের	-11.1977
▁খেল	-11.1977
▁ওরে	-11.1977
▁উদ্বেগ	-11.1979
▁চিনে	-11.1979
▁শিল্পকর্ম	-11.198
▁আখ্যায়িত	-11.1982
▁ব্যাঘাত	-11.1982
▁ভূগর্ভস্থ	-11.1982
▁বাল্যবিবাহ	-11.1982
▁সাবিনা	-11.1983
▁ইতিমধ্যেই	-11.1984
▁রীতিনীতি	-11.1984
▁ঝাঁপ	-11.1984
▁কমিটিতে	-11.1985
▁যজ্ঞ	-11.1985
▁জোটের	-11.1986
িয়	-11.1987
▁সেবায়	-11.1988
▁দলিল	-11.1989
▁প্রতিযোগী	-11.1989
▁নিউজিল্যান্ডীয়	-11.1996
▁অনুরাগ	-11.1996
▁দিয়াছেন	-11.1997
▁কোনটা	-11.1998
▁দামি	-11.1998
▁গর্তে	-11.2001
সভাপতি	-11.2002
ঢাকা	-11.2002
পাড়ায়	-11.2002
▁ইয়র্কশায়ার	-11.2003
▁পশুর	-11.201
েশন	-11.2012
▁আখতার	-11.2012
▁অভিধান	-11.2014
নার	-11.2016
▁আর্টস	-11.2024
▁গন্তব্য	-11.2028
▁মেস	-11.203
বাণিজ্য	-11.2034
▁প্যাকেট	-11.2036
▁সন্দেহে	-11.2039
ন্ড	-11.2039
▁নাস্তিক	-11.2039
▁বিকৃত	-11.2047
দ্বয়	-11.2048
▁ফটকে	-11.205
▁উদ্বিগ্ন	-11.2051
▁আন্তর্জাতিকভাবে	-11.2052
▁অধীর	-11.2052
▁ভালবাসে	-11.2052
▁টঙ্গী	-11.2053
▁ফিরআউন	-11.2053
▁বাফটা	-11.2053
▁ভাগ্যবান	-11.2053
▁ইস্পাত	-11.2055
▁দূরত্বে	-11.2055
▁দাড়ি	-11.2057
ুক	-11.2057
▁বহুদিন	-11.2058
▁হিংসা	-11.2058
▁মুখস্থ	-11.206
▁আসক্তি	-11.2067
▁তাকাও	-11.2068
▁কলহ	-11.2069
▁কথাগুলো	-11.207
▁দেশগুলো	-11.2074
▁পারিলেন	-11.2075
▁বিন্যাস	-11.2075
▁ভাগ্যের	-11.2077
সম্মত	-11.2078
হাতি	-11.2079
▁গণিতে	-11.2088
▁সংশোধনী	-11.2089
আমার	-11.209
▁বর্ষে	-11.2091
▁টুর্নামেন্টের	-11.2093
▁গ্রহণে	-11.2094
▁সেটির	-11.2094
▁আগা	-11.2096
▁ধুর	-11.2105
▁বানিয়েছে	-11.2114
▁মেজাজ	-11.2114
▁বিস্ময়কর	-11.2119
▁আলমগীর	-11.2124
▁হাস্যকর	-11.2124
▁পরগনা	-11.2125
▁মারাঠা	-11.2125
▁নিউটন	-11.2125
▁ব্লু	-11.2125
▁চিফ	-11.2126
▁চঞ্চল	-11.2126
▁ভাবছিলাম	-11.2128
▁শাশুড়ি	-11.2128
▁আসতেন	-11.2132
▁কোপা	-11.2132
▁বাড়িঘর	-11.2133
▁একপ্রকার	-11.2134
▁রশ্মি	-11.2134
▁ভরিয়া	-11.2139
▁অতিথিদের	-11.214
▁সবারই	-11.2144
▁ইনস্টিটিউটের	-11.2146
একজন	-11.2151
▁এইটুকু	-11.2153
▁চেয়েছি	-11.2158
▁এতটুকু	-11.2158
▁জন্মস্থান	-11.2158
টাইম	-11.2166
▁সেমিফাইনালে	-11.2173
▁বিস্ফোরণে	-11.2175
▁ফোর্স	-11.2176
▁লেখায়	-11.2177
▁ম্যাক	-11.2179
দলাই	-11.218
▁আলোকচিত্র	-11.218
▁পর্ষদের	-11.2185
▁মাত্রার	-11.2186
▁ব্যাঙ	-11.2187
▁অসম্পূর্ণ	-11.2188
▁প্রসন্ন	-11.2188
▁চলিল	-11.2189
▁প্রত্যাহারের	-11.2189
▁ওখানেই	-11.2191
▁মাসি	-11.2191
▁এইচএসসি	-11.2195
▁লেবু	-11.2195
▁নির্বোধ	-11.2195
▁বৈকি	-11.2196
্ট	-11.2196
▁অধিগ্রহণ	-11.2196
▁রামায়ণ	-11.2196
▁উন্নয়নশীল	-11.2196
▁সাইট	-11.2196
▁তিস্তা	-11.2197
▁লাকি	-11.2198
▁ধন্য	-11.2199
▁দেখিলাম	-11.2201
▁হার্ভার্ড	-11.2205
▁হিন্দুধর্মের	-11.2211
চট্টগ্রাম	-11.2218
▁গড়তে	-11.2228
ুল্লাহ	-11.223
▁সাইফুল	-11.2232
▁রাজপুত্র	-11.2235
▁সম্পত্তির	-11.2239
র্ন	-11.2241
▁রেলস্টেশন	-11.2241
▁জার্সি	-11.2241
▁পাত	-11.2244
▁গর্ভে	-11.2245
▁ব্যাক	-11.2246
বাবু	-11.2247
▁পূর্বপুরুষ	-11.2253
▁অভিষেকে	-11.2255
▁মানুষটি	-11.2257
▁লোকেদের	-11.2257
▁সভাপতিত্বে	-11.2262
▁পত্নী	-11.2263
▁কর্মসংস্থান	-11.2267
▁লেফট	-11.2267
▁ছাত্রীদের	-11.2267
▁কার্টুন	-11.2267
▁প্লীজ	-11.2267
▁সোচ্চার	-11.2267
▁ইলিয়াস	-11.2267
▁প্রভূত	-11.2267
▁আদৌ	-11.2267
▁তুমুল	-11.2267
▁ব্রাউন	-11.2268
▁মিজানুর	-11.2268
▁অনার্স	-11.2268
▁উচ্চশিক্ষা	-11.2268
▁হিলারি	-11.2268
▁কর্ণফুলী	-11.2269
▁যমজ	-11.2269
▁হেমন্ত	-11.2269
▁অপছন্দ	-11.227
▁জার্মানিতে	-11.2277
▁পুত্রের	-11.2278
▁শ্রোতাদের	-11.2278
▁গড়িয়ে	-11.2279
▁পিছন	-11.2282
▁স্বভাবের	-11.2284
▁শোনে	-11.2284
▁পুকুরের	-11.2286
▁ঘোষিত	-11.2291
▁পরামর্শে	-11.2293
▁ব্লকে	-11.2295
▁মানসিকভাবে	-11.2297
▁ভবিষ্যত	-11.2299
▁পাবা	-11.2301
▁সেজন্যই	-11.2306
▁ঘা	-11.2306
▁শাস্ত্রের	-11.2309
▁রহমানকে	-11.231
▁বেশিদিন	-11.231
▁সম্পৃক্ততা	-11.2311
▁পূর্বদিকে	-11.2316
চি	-11.2319
▁ডা	-11.232
▁হাতেই	-11.2322
▁সই	-11.2325
▁বাঁধে	-11.2331
▁আলিয়া	-11.2337
▁নৌকার	-11.2338
▁শওকত	-11.234
▁উপক্রম	-11.234
▁আসীন	-11.234
▁এক্ষুণি	-11.234
▁নানাবিধ	-11.2342
▁সমাধানে	-11.2342
▁সরদার	-11.2342
▁কাটিয়েছেন	-11.2342
▁ক্রয়	-11.2342
▁বিবিসি	-11.2342
▁পটুয়াখালী	-11.2342
▁হোসেনকে	-11.2344
▁জনমত	-11.2347
ঘর	-11.2349
▁প্রাণে	-11.2353
▁দাউদ	-11.2353
ঞ্চ	-11.2368
▁গোলটি	-11.2372
▁বিকাশে	-11.2375
▁পো	-11.2376
শত	-11.2384
▁আত্মাকে	-11.2389
মন্দ	-11.2389
▁বইটা	-11.239
▁খসড়া	-11.2392
▁ট্রাকটি	-11.2393
▁ভবনটির	-11.2401
▁সংবিধানে	-11.2401
▁মদিনা	-11.2402
▁বাঁকা	-11.2403
গ্রাহ্য	-11.2404
▁খাচ্ছে	-11.2409
▁লেনদেনে	-11.2409
▁বাহ্য	-11.2411
▁অনিশ্চিত	-11.2413
▁ধ্বংসাবশেষ	-11.2413
▁মুহম্মদ	-11.2413
▁পথিকৃৎ	-11.2413
▁বিরক্তিকর	-11.2413
▁ইহাকে	-11.2415
▁খ্রীষ্টান	-11.2415
▁নামঞ্জুর	-11.2415
▁ঘুরিয়া	-11.2415
▁বরেন্দ্র	-11.2416
▁উত্থাপন	-11.2417
▁হারিয়েছে	-11.2419
▁নাহলে	-11.2422
▁চাননি	-11.2427
▁চাচ্ছে	-11.2427
▁মূর্তির	-11.2428
কিঞ্চিৎ	-11.243
▁মস্ত	-11.2433
▁অধিবেশনে	-11.2434
▁সংস্থাটির	-11.2435
▁জানত	-11.2438
বু	-11.2443
▁পারাপার	-11.2449
▁কাশ্মীরের	-11.2449
▁মিনারে	-11.245
▁ব্যানারে	-11.2453
▁সন্দেহজনক	-11.2455
ঘাট	-11.2456
জে	-11.2459
▁পেশার	-11.2459
▁বহুবার	-11.246
▁দুবাই	-11.246
পর্যায়ে	-11.2461
▁ব্যাংকটি	-11.2461
▁পড়তেন	-11.2462
বান	-11.2468
▁বক্তৃতার	-11.2472
▁দিবসের	-11.2478
প্রিয়	-11.2479
▁লাহোরে	-11.2479
▁শেয়ারের	-11.248
▁এলোমেলো	-11.2481
▁সারিতে	-11.2481
প্রবাহ	-11.2481
ভারত	-11.2483
▁গুঁড়ি	-11.2483
▁প্রথাগত	-11.2483
▁অ্যালেক্স	-11.2486
▁রক্তাক্ত	-11.2486
▁খুদে	-11.2486
▁জলাভূমি	-11.2486
▁নির্মূল	-11.2486
▁সচল	-11.2486
▁মেদিনীপুর	-11.2486
▁স্লোগান	-11.2487
▁জুতো	-11.2487
▁নাকচ	-11.2487
▁পর্যায়ক্রমে	-11.2487
▁জীবদ্দশায়	-11.2488
▁দর্শনে	-11.2488
▁মুখোশ	-11.2488
▁শাকিব	-11.2489
▁চলিয়াছে	-11.2489
▁পিঠা	-11.2491
▁পূর্ণিমা	-11.2492
▁লোকসান	-11.2492
▁চাচ্ছেন	-11.2492
▁তদারকি	-11.2495
▁জামালপুর	-11.2496
▁ততটা	-11.2498
▁বিতর্কে	-11.2502
▁বুদ্ধির	-11.2505
▁হাসিমুখে	-11.2507
▁আত্মীয়স্বজন	-11.2509
▁আপনিও	-11.2519
সূত্রে	-11.2523
▁নেদারল্যান্ডস	-11.2523
▁আরেকজন	-11.2527
▁বাঘের	-11.2532
▁ফেসবুকের	-11.2535
▁তথ্যপ্রযুক্তি	-11.2536
▁স্কুলটি	-11.2543
▁কাছেও	-11.2546
▁দর্শকের	-11.2549
▁লাগার	-11.2559
দান	-11.2559
▁মেডিসিন	-11.2559
েড	-11.256
▁অত্যধিক	-11.256
▁দূষিত	-11.256
▁নিরীহ	-11.256
▁নির্বাসিত	-11.256
▁বুদ্ধিমত্তা	-11.256
▁সমধিক	-11.256
▁অবিবাহিত	-11.256
▁দাতব্য	-11.256
▁পুরস্কৃত	-11.256
▁সাসেক্স	-11.256
▁চকলেট	-11.256
▁এসএসসি	-11.256
▁কালী	-11.256
▁স্টিল	-11.256
▁কিডনি	-11.256
বলে	-11.2561
▁পুরাণে	-11.2561
▁ব্রিটিশরা	-11.2562
▁শঙ্কা	-11.2563
▁অভিব্যক্তি	-11.2563
▁ইন্দ্র	-11.2565
▁পৌঁছায়	-11.2567
▁মালয়	-11.257
▁বার্লিন	-11.2572
▁শয়তানের	-11.2573
▁দাওয়াত	-11.2574
▁হায়দ্রাবাদ	-11.2575
▁দখলের	-11.2576
▁উঠি	-11.2577
▁ছিনতাই	-11.2586
▁চাইছেন	-11.2588
ভি	-11.2595
▁তালাক	-11.2595
▁মানুষজন	-11.2599
আপ	-11.26
▁বন্যার	-11.2605
▁ছেলেটা	-11.2606
▁আল্লাহ্	-11.2606
▁ফর্ম	-11.2606
▁অনু	-11.2608
▁জেতার	-11.261
▁নেতারা	-11.2614
▁ইন্টারনেটে	-11.2616
▁মেঘের	-11.2617
▁সারে	-11.262
▁কলাম	-11.2621
▁ক্রম	-11.2623
▁লো	-11.2626
▁পাশা	-11.2629
বছর	-11.2629
▁বুঝবে	-11.2634
▁জাগিয়া	-11.2634
▁নেপালে	-11.2635
▁পোকামাকড়	-11.2635
▁লভ্যাংশ	-11.2635
▁রোপণ	-11.2635
▁সর্বপ্রকার	-11.2635
▁ফৌজদার	-11.2635
▁প্রগতিশীল	-11.2635
▁প্রতিফলিত	-11.2635
▁নিহিত	-11.2636
▁ছড়ানো	-11.2637
▁মানিক	-11.2638
▁ঠেকিয়ে	-11.2639
িয়ার	-11.264
▁সরানো	-11.264
ুম	-11.2641
▁সিক্স	-11.2641
বাড়িতে	-11.2642
▁চিত্রকলা	-11.2642
▁ঝরে	-11.2643
▁বলছিলাম	-11.2644
▁নিবো	-11.2645
▁ফুটপাতে	-11.2646
▁সরবরাহের	-11.2655
▁ইয়ান	-11.2655
▁অনুকূল	-11.2656
▁খেলোয়াড়েরা	-11.266
▁প্রয়োগের	-11.2661
▁পেত	-11.2665
▁হর	-11.2666
▁ডিভাইস	-11.2669
▁ভালভাবে	-11.2669
▁মার্কেটে	-11.2674
▁যন্ত্রটি	-11.2678
▁আসিলে	-11.268
▁মল	-11.2685
▁রবিন	-11.2685
▁ছবিটা	-11.2689
▁বাক	-11.2691
▁শুনা	-11.2696
▁কোম্পানিতে	-11.2698
▁রাধা	-11.2701
▁জাহাজটি	-11.2704
▁ভবানী	-11.2704
▁উদ্যোক্তা	-11.2705
▁লেডি	-11.2708
▁উপনিবেশ	-11.2708
▁টিকা	-11.2709
▁বরকত	-11.2709
▁সাদৃশ্য	-11.271
▁গরীব	-11.271
▁রোকেয়া	-11.271
▁ইস্টার্ন	-11.271
▁বর্ষসেরা	-11.271
▁ফিরাইয়া	-11.271
▁হীরা	-11.271
▁সহযোগিতার	-11.271
▁ক্ষেপণাস্ত্র	-11.2711
▁দয়ালু	-11.2711
▁ডুবিয়ে	-11.2711
▁গুটিয়ে	-11.2711
▁কাল্পনিক	-11.2711
▁অত্র	-11.2712
▁ওঠো	-11.2712
▁মজিদ	-11.2712
▁সিংহের	-11.2713
▁স্ট্রাইকার	-11.2715
▁অজয়	-11.2716
▁জালিয়াতি	-11.2717
▁বিশৃঙ্খলা	-11.2726
▁অনেকখানি	-11.2735
▁রাজু	-11.2737
▁জাতিসংঘে	-11.2737
▁ফুটবলে	-11.2738
▁যৌগ	-11.2739
▁গাড়িটি	-11.2741
▁অন্তু	-11.2744
▁কুমুদের	-11.2746
▁বিজ্ঞানীদের	-11.2746
▁পিটিয়ে	-11.2747
▁আমর	-11.2748
▁ডানে	-11.2748
▁ডেনমার্ক	-11.2755
▁সর্দার	-11.2756
▁শাহবাগ	-11.2758
▁সেইটে	-11.2761
▁রবিবার	-11.2768
▁কনসার্টে	-11.2769
▁মালিকদের	-11.277
▁সেবন	-11.2772
▁বিজ্ঞানে	-11.2773
▁ফেলেছিল	-11.2774
▁বলিব	-11.278
▁ফিল্মস	-11.278
▁জলাশয়	-11.2782
▁সিদ্দিকী	-11.2782
▁রাজকুমার	-11.2783
▁কাঁঠাল	-11.2784
▁তাৎপর্য	-11.2785
▁উত্তরসূরি	-11.2786
▁বিপণন	-11.2786
▁ব্র্যাক	-11.2786
▁মরক্কো	-11.2786
▁পরবর্তি	-11.2786
▁অমিতাভ	-11.2786
▁আহরণ	-11.2786
িবার	-11.2786
▁সাইমন	-11.2787
▁পর্নোগ্রাফি	-11.2788
▁জলাবদ্ধতা	-11.2788
▁শপিং	-11.2788
▁ইমন	-11.2792
▁ইন্দির	-11.2792
▁বিরূপ	-11.2793
▁লোহা	-11.2793
▁জমান	-11.2795
▁সততা	-11.2797
▁সমস্যাটা	-11.2798
▁তেমনই	-11.2799
▁নিবন্ধিত	-11.28
▁সেক্স	-11.2803
▁বান্দরবান	-11.2808
▁সেন্সর	-11.281
▁জেনেভা	-11.281
▁নাটকীয়	-11.2811
টে	-11.2814
▁সেলাই	-11.2815
▁ফাঁক	-11.2827
▁ভূমধ্যসাগর	-11.2829
▁সংগ্রহে	-11.2832
▁শেরপুর	-11.2836
▁আটজন	-11.2843
▁আব্বা	-11.2844
▁কেরালা	-11.2847
▁অযোগ্য	-11.2848
▁হাইওয়ে	-11.2849
▁উত্তরাংশে	-11.2849
▁স্বদেশী	-11.2851
▁শুনানির	-11.2852
খা	-11.2852
▁রাশেদ	-11.2853
▁যাইত	-11.2854
▁ওডিআই	-11.2857
চালিত	-11.2858
ধারী	-11.286
▁বলেনি	-11.286
▁হেলিকপ্টার	-11.2862
▁অচিরে	-11.2862
▁অপব্যবহার	-11.2862
▁শিয়ালদহ	-11.2862
▁শাহীন	-11.2862
▁লতিফ	-11.2862
▁শতভাগ	-11.2863
▁আত্মহত্যার	-11.2863
▁কচি	-11.2863
▁শিখেছিলেন	-11.2863
▁পাম্প	-11.2863
▁শিকড়	-11.2863
▁তপস্যা	-11.2864
▁রশীদ	-11.2864
▁শুনো	-11.2864
▁রা	-11.2865
▁থাকিত	-11.2865
▁জামান	-11.2866
▁নিঃসন্দেহে	-11.2867
▁বন্ড	-11.2871
▁ঘরবাড়ি	-11.2873
▁কবিতায়	-11.2873
▁গালি	-11.2877
▁বলছিলেন	-11.2878
▁ইন্সটিটিউট	-11.2885
▁লাগা	-11.2888
রীতি	-11.2891
▁পরেশবাবুর	-11.2891
▁লীলা	-11.2893
▁পদ্ম	-11.2896
্র	-11.2899
▁ক্রীড়াবিদ	-11.29
▁স্কোর	-11.2902
শা	-11.2909
য	-11.2909
▁পেশায়	-11.2909
▁উট	-11.2912
▁প্রাচ্য	-11.2921
▁মহারাজা	-11.2923
▁হাসিল	-11.2924
▁ষোড়শ	-11.2927
▁আন্তঃ	-11.2928
▁কয়	-11.2928
▁প্রফুল্ল	-11.2928
▁শামীম	-11.2932
ৃত	-11.2934
▁বুলেট	-11.2936
▁ভৈরব	-11.2937
▁অর্জিত	-11.2939
▁ব্রোঞ্জ	-11.2939
▁ইঞ্চি	-11.2939
▁ভেজে	-11.2939
▁আরোহী	-11.2939
▁নড়াচড়া	-11.2939
▁তারেক	-11.294
▁তলিয়ে	-11.294
▁ছাপিয়ে	-11.2943
▁বাঁচিয়া	-11.2943
▁ভয়ঙ্কর	-11.2944
▁লাগানোর	-11.2946
▁পরতে	-11.2946
▁আনো	-11.2946
▁বিদ্যুৎকেন্দ্র	-11.2949
▁দায়িত্বপ্রাপ্ত	-11.295
▁পরিবেশগত	-11.2951
▁থাকতেই	-11.2958
সার	-11.2967
মোহন	-11.2967
▁শিগগির	-11.2969
▁রেললাইন	-11.2969
▁ব্যবহারকারীর	-11.297
▁শীতে	-11.2972
▁যুবকের	-11.2972
▁জানিয়া	-11.2976
▁নারকেল	-11.2984
▁শব্দটা	-11.2985
▁সাক্ষাত	-11.2986
▁বন্ধুসভা	-11.2987
▁ইহুদী	-11.299
▁সংগ্রামের	-11.2998
▁বোলারের	-11.2998
▁মসৃণ	-11.2998
▁বাগদাদ	-11.3001
▁ইবাদত	-11.3003
▁ব্রিটেনে	-11.3003
▁নির্ভরযোগ্য	-11.3004
▁টাউন	-11.3008
▁রেহান	-11.3009
▁স্ট্রিট	-11.3009
▁ফাঁদ	-11.301
▁জাদুকর	-11.301
▁তুলেন	-11.301
▁ছিন	-11.3013
▁ধাক্কায়	-11.3013
▁বিভিন্নভাবে	-11.3014
াবস্থায়	-11.3016
▁কমনওয়েলথ	-11.3017
▁চিকিত্সা	-11.3017
▁সার্জারি	-11.3017
▁কমানো	-11.3018
▁রক্তপাত	-11.3018
▁লাইভ	-11.3018
▁অষ্টাদশ	-11.3018
▁বিএসএফ	-11.3019
▁বিসর্জন	-11.3019
▁ছোঁয়া	-11.3021
▁বেয়ে	-11.3022
▁সংগ্রাহক	-11.3022
▁বিবেক	-11.3022
▁চিন্তায়	-11.3023
▁ইসহাক	-11.3027
▁সমবায়	-11.3029
▁তুলেছিলেন	-11.3029
▁ভূতের	-11.3029
▁কিংস	-11.303
▁ওপারে	-11.3032
▁থালা	-11.3033
▁তাগিদ	-11.3041
▁চৌদ্দ	-11.3043
কেন্দ্রিক	-11.3046
▁হাদীসটি	-11.3047
▁বাঁক	-11.3054
▁করোনি	-11.3055
▁পাওয়ায়	-11.3057
কী	-11.3058
▁আখ	-11.3058
▁ড্রোন	-11.3063
▁খোদাই	-11.3064
▁ঠিকভাবে	-11.3065
োর	-11.3066
▁করিয়াছ	-11.307
▁বাকিটা	-11.3072
▁তিব্বতী	-11.3078
▁দালাল	-11.3081
▁বিনোদ	-11.3085
▁কাঙ্ক্ষিত	-11.3095
▁প্রচন্ড	-11.3095
▁বিব্রত	-11.3095
▁খোঁজখবর	-11.3095
▁বাজানো	-11.3095
▁বাঙালির	-11.3095
▁রফিকুল	-11.3096
▁পরোক্ষ	-11.3097
▁মাদারীপুর	-11.3098
▁সোনালি	-11.3098
▁জজ	-11.3098
জার	-11.31
▁ভূঁইয়া	-11.31
▁বুল	-11.3101
▁দেরী	-11.3102
▁তুলি	-11.3104
▁বাবুল	-11.3105
▁কাঁদিতে	-11.311
▁বিরক্তি	-11.3112
▁দোহাই	-11.3113
▁নেইমার	-11.3113
▁দিবি	-11.3114
▁বিষম	-11.3115
▁বনী	-11.3121
▁পারল	-11.3121
শিবির	-11.3121
▁আসিয়াছি	-11.3123
▁নিদ্রা	-11.3124
▁ভাইবোন	-11.3126
লেই	-11.3126
বিদ	-11.313
▁রোদে	-11.3136
▁মস্তিষ্কে	-11.314
▁পাইতে	-11.3145
▁প্রার্থীরা	-11.3148
▁অক্ষম	-11.3149
▁বিশু	-11.315
▁রাও	-11.3151
▁চালনা	-11.3156
▁ছন্দ	-11.3157
▁ক্রিস	-11.3157
▁দেখিয়াছি	-11.3161
▁পর্দার	-11.3161
▁নওগাঁ	-11.3161
▁ময়নাতদন্তে	-11.3162
▁পাটনা	-11.3162
▁সুইডেন	-11.3162
▁জমিদারী	-11.3164
▁কাশি	-11.3168
রাম	-11.3169
▁এডওয়ার্ড	-11.3171
▁সন্ত্রাসবাদ	-11.3172
▁আঞ্জলি	-11.3173
▁নীলফামারী	-11.3173
▁ম্লান	-11.3173
▁চওড়া	-11.3175
▁হাফিজ	-11.3175
▁সার্জন	-11.3176
করণ	-11.3176
▁পরোয়ানা	-11.3177
▁ব্রায়ান	-11.3177
▁প্রস্থান	-11.3179
▁চিত্রকর্ম	-11.3182
▁পেয়েছিলাম	-11.3182
▁বেষ্টিত	-11.3185
▁গোপালের	-11.3186
▁ফুসফুস	-11.3186
▁এরপরও	-11.3187
মের	-11.3187
নির্ভর	-11.3192
▁মহাভারত	-11.32
▁এটুকু	-11.32
▁চ্যানেলটি	-11.32
▁রাইট	-11.3202
▁ম্যাচেই	-11.3205
▁জাম	-11.3206
োন	-11.3206
▁নিচ	-11.3214
▁ভীতি	-11.3216
▁পার্শ্বে	-11.3218
ানো	-11.322
▁আমের	-11.3222
▁সংবাদপত্রে	-11.3222
▁সৌর	-11.3223
▁রোজা	-11.3223
▁শেখা	-11.3226
▁বিশদ	-11.3227
▁টুপি	-11.323
▁পিচ	-11.3232
▁মধ্যম	-11.3233
▁কুমারী	-11.3233
▁বিজেপির	-11.3235
▁জাতীয়তাবাদ	-11.3237
▁রুটে	-11.325
▁ছোড়া	-11.3252
▁অভিভূত	-11.3253
▁আব্দুল্লাহ	-11.3253
▁ডিফেন্স	-11.3253
▁পিয়ানো	-11.3253
▁ফজলুল	-11.3253
▁মতভেদ	-11.3255
▁আমানত	-11.3255
▁তাড়িয়ে	-11.3255
▁আইনস্টাইন	-11.3255
▁মুম্বাইয়ে	-11.3256
▁নাট্যকার	-11.3256
▁পাচ্ছো	-11.3257
▁মহিষী	-11.3257
▁মুর্শিদাবাদ	-11.3257
▁অণু	-11.3258
▁বিদ্যুতে	-11.3258
▁তিল	-11.3259
▁বেদান্তের	-11.3259
▁মধ্যপ্রাচ্যের	-11.326
▁খণ্ডে	-11.3261
▁দাঁড়ানো	-11.3261
▁আঁচ	-11.3262
কাজ	-11.3262
▁ক্রেতারা	-11.3262
▁সংহতি	-11.3268
▁সম্বন্ধেও	-11.3269
▁শান্তিতে	-11.327
▁পুল	-11.327
▁রফিক	-11.3272
▁দিয়েছিলে	-11.3273
▁বেন	-11.3276
োত্তর	-11.3279
▁তৎপর	-11.3279
লের	-11.328
▁এনজিও	-11.328
▁দিতেই	-11.3282
▁নাড়া	-11.3282
▁গ্যালারিতে	-11.3283
▁দৃশ্যে	-11.3292
▁মেইল	-11.3295
▁অভ্যুত্থান	-11.3296
▁প্রতিভার	-11.3298
▁কাক	-11.3299
▁নিস্তব্ধ	-11.33
▁আবাস	-11.3301
▁সুযোগে	-11.3301
▁রাশি	-11.3302
▁বাসভবনে	-11.3303
▁প্যারিসের	-11.3303
▁পর্তুগাল	-11.3308
ফল	-11.331
▁কোল	-11.3312
▁রেকর্ডিং	-11.3313
দ্গা	-11.3315
▁ব্রাজিলে	-11.3315
▁পাঁচবার	-11.3315
▁মোহ	-11.3318
▁সহপাঠী	-11.332
▁কুয়েত	-11.3322
সন	-11.3324
▁ফোঁটা	-11.3326
▁দুর্গে	-11.3327
▁কেনিয়া	-11.333
▁ইন্টার	-11.3331
▁জুয়েল	-11.3332
▁দুর্ভাগ্য	-11.3332
▁বিস্তীর্ণ	-11.3333
▁সমাহিত	-11.3333
▁হিব্রু	-11.3333
▁স্যামসাং	-11.3333
▁স্বীকারোক্তি	-11.3333
▁ডিপ্লোমা	-11.3333
▁কাজও	-11.3334
▁সংযত	-11.3334
▁থাকতাম	-11.3334
▁বাঁকুড়া	-11.3335
▁ফিল্ডার	-11.3336
▁খতম	-11.3336
▁ভাঙতে	-11.3338
▁মসলা	-11.3338
▁সংগীতশিল্পী	-11.3338
▁খাবেন	-11.3342
▁অঙ্কন	-11.3343
▁দাঁড়াল	-11.3347
▁কোমর	-11.3348
▁ছিটিয়ে	-11.3348
▁সৈকতে	-11.3358
প্রতিষ্ঠানে	-11.3358
▁ভিন্নতা	-11.3359
▁পোহা	-11.336
▁কোট	-11.3368
▁টেকনাফ	-11.3371
▁ক্রিয়াকলাপ	-11.3373
▁বোম্বে	-11.3378
▁গোলে	-11.3385
▁হাতির	-11.3386
স্থলে	-11.3389
▁আধ্যাত্মিকতা	-11.339
▁সেমি	-11.3394
▁পৃষ্ঠ	-11.3396
▁আত্মজীবনী	-11.3398
▁ত্বকে	-11.3399
▁হিম	-11.34
▁লেখকদের	-11.3402
▁মধ্যপ্রাচ্য	-11.3409
▁ন্যায্য	-11.341
▁হারু	-11.341
▁ইউনেস্কো	-11.3413
▁জব্বার	-11.3413
▁ফাতেমা	-11.3413
▁কার্যনির্বাহ	-11.3413
▁বিশ্বব্যাংক	-11.3413
▁দোষারোপ	-11.3414
▁সুফল	-11.3414
▁চিলি	-11.3414
▁পুঁথি	-11.3415
▁রিপাবলিকান	-11.3415
▁বর্ষণ	-11.3417
▁ফিচার	-11.3418
র্ষা	-11.3422
▁মুক্তিবাহিনী	-11.3425
ক্স	-11.3426
▁শাল	-11.3428
আই	-11.3429
▁এসেছিলাম	-11.343
▁গতবার	-11.3432
▁জনসাধারণ	-11.3432
▁বিনয়বাবু	-11.3436
মাস	-11.3437
▁বছরগুলোতে	-11.344
▁জয়পুর	-11.3444
▁মিসরে	-11.345
▁মানেই	-11.3451
▁আসামির	-11.3451
▁সংগ্রামে	-11.3451
▁জনপদ	-11.3455
▁মিলার	-11.3456
▁জা	-11.3458
গু	-11.3459
▁প্রবৃত্ত	-11.3465
▁শক্তিতে	-11.3469
▁সমান্তরাল	-11.347
আল	-11.3474
▁হাঁস	-11.3475
▁অক্ষরে	-11.3476
▁নামানো	-11.348
▁মুগল	-11.3482
▁স্থিতিশীল	-11.3482
▁আহবান	-11.3483
▁রানু	-11.3483
▁বন্দীদের	-11.3486
▁সমৃদ্ধি	-11.3486
▁শত্রুতা	-11.3492
বশত	-11.3492
▁আর্সেনিক	-11.3494
▁টিস্যু	-11.3495
▁বচ্চন	-11.3495
▁মিডলসেক্স	-11.3495
▁অদ্যাবধি	-11.3495
▁সহস্রাধিক	-11.3495
▁ইউহাওয়া	-11.3495
▁খাদ্যের	-11.3495
▁ফ্রান্সিস	-11.3495
▁খুচরা	-11.3496
▁শ্রীশ	-11.3496
▁দ্বিতল	-11.3496
▁দাদু	-11.3497
▁জড়াইয়া	-11.3497
▁গৌড়	-11.3497
▁ভালোভাবেই	-11.3499
▁রমনা	-11.3499
▁গায়িকা	-11.35
▁তাইওয়ান	-11.3501
▁স্পন্দন	-11.3501
▁আতঙ্কিত	-11.3503
লায়	-11.3504
▁সঙ্গীতশিল্পী	-11.3507
▁জ্ঞাত	-11.3507
▁দূতাবাসে	-11.3509
▁প্লেন	-11.351
▁পরিয়ে	-11.3512
▁পরাণ	-11.3515
▁উৎসাহী	-11.3516
▁মাদ্রিদের	-11.3518
▁এমএ	-11.3518
▁বশে	-11.3521
▁দেওবন্দে	-11.3524
সামাজিক	-11.3525
▁দিদির	-11.3526
▁বোঝাই	-11.3528
ভাবেই	-11.3529
▁প্রিন্স	-11.353
▁পরামর্শক	-11.3534
▁রোনালদোর	-11.3535
▁মহাপুরুষ	-11.3537
▁বাচ্চাকে	-11.3546
▁হিসেব	-11.3547
▁আনোয়ারা	-11.3551
▁শুরুটা	-11.3551
▁সঙ্গীতে	-11.3554
▁ওখান	-11.3555
▁গাড়িটা	-11.3556
▁অন্বেষণ	-11.3556
▁ভোক্তা	-11.3557
▁সত্যিকার	-11.3559
বেগে	-11.3565
প্রাণ	-11.3567
▁মহাদেশের	-11.3572
▁চুলা	-11.3572
▁পুরোটাই	-11.3572
▁আভা	-11.3573
▁অটো	-11.3573
▁কমবে	-11.3573
▁গলফ	-11.3574
▁বলরাম	-11.3574
▁অধ্যায়	-11.3576
▁প্রতিবেদক	-11.3577
▁উদ্যত	-11.3577
▁শহরতলি	-11.3577
▁মার্বেল	-11.3577
▁নীরবতা	-11.3577
▁অভিপ্রায়	-11.3577
▁দিতাম	-11.3578
▁মদ্যপান	-11.3578
▁ডিস্ট্রিক্টস	-11.3579
▁ডাকাতেরা	-11.3579
▁উদ্দেশে	-11.358
▁নমস্কার	-11.358
▁চেহারায়	-11.3581
▁রাখবো	-11.3582
▁সর্বজয়া	-11.3583
▁মেটাতে	-11.3583
▁লিগ	-11.3584
▁দুঃখে	-11.3586
▁নিঃশব্দে	-11.3587
▁আলোকিত	-11.3588
▁পাঠিয়েছেন	-11.359
▁জননী	-11.3593
▁প্রদর্শনীতে	-11.3594
▁শশীকে	-11.3594
▁মুস্তাফিজ	-11.3598
▁রাশিয়ান	-11.36
চ্যুত	-11.3604
▁বানর	-11.3605
▁গন্তব্যে	-11.3605
▁যোগসূত্র	-11.3608
▁গুহায়	-11.3609
▁সেভাবেই	-11.3609
▁বোতাম	-11.361
▁শাহের	-11.3612
▁কুক	-11.3613
▁দিল্লী	-11.3613
▁হংকং	-11.3616
▁স্টাডিজ	-11.3621
▁ঝামেলায়	-11.3625
▁কর্মসূচিতে	-11.3625
▁যেরূপ	-11.3627
ধাবিত	-11.3628
▁লেগেছিল	-11.3629
▁আসামিকে	-11.3635
▁সিনেমায়	-11.3637
▁প্রজেক্ট	-11.3639
ভঙ্গ	-11.3639
▁শিথিল	-11.3646
য়ো	-11.3647
▁জিলা	-11.365
▁ওমান	-11.3657
▁মূসা	-11.3659
▁সমতুল্য	-11.3659
▁বাদ্যযন্ত্র	-11.3659
▁পারভেজ	-11.366
▁থমাস	-11.366
▁মুর	-11.366
▁প্রেক্ষিতে	-11.366
▁প্রশিক্ষিত	-11.366
▁স্টিফেন	-11.366
▁অবজ্ঞা	-11.3661
▁চিরন্তন	-11.3661
▁নন্দ	-11.3661
▁কমপ্লেক্স	-11.3661
▁খালিদের	-11.3661
▁রাজশাহীতে	-11.3662
▁মাশরাফি	-11.3662
▁সকলেরই	-11.3664
▁গিয়েও	-11.3665
▁শক্তিকে	-11.3665
▁মোর	-11.3667
▁ঝুলে	-11.3671
▁গোলাপি	-11.3673
▁পাঠাও	-11.3673
াত	-11.3675
▁অর্ধেকের	-11.3676
▁মাত্রায়	-11.3677
▁রনি	-11.3677
মাত্রিক	-11.3679
▁য	-11.368
▁আদর্শে	-11.368
▁বাহরাইন	-11.3681
▁ইরানি	-11.3681
▁মুক্তিলাভ	-11.3684
▁পূর্বাঞ্চল	-11.3686
▁প্রত্যেককে	-11.3687
▁রানি	-11.3688
▁ধর্মসম্প্রদায়	-11.3689
▁অঙ্ক	-11.3689
▁গিয়াছেন	-11.369
▁টেস্টেই	-11.369
▁জালাল	-11.3691
তুমি	-11.3698
▁কলার	-11.3701
▁মহাবিশ্বের	-11.3703
▁কৃষিকাজ	-11.3703
▁আবাহনী	-11.3706
▁আমরাই	-11.3706
▁গাছটি	-11.371
▁রকেট	-11.3717
▁দত্তক	-11.3718
▁উপাধিতে	-11.372
▁ডাই	-11.372
▁দেখল	-11.3721
▁বইটিতে	-11.3721
▁বলিলে	-11.3725
▁নীলুর	-11.3726
▁অবিশ্বাস	-11.3729
▁খোল	-11.3733
▁হানা	-11.3733
▁পণ্ডিতদের	-11.3734
▁ভাবিনি	-11.3743
▁অন্ধ্রপ্রদেশ	-11.3743
▁চিকাগো	-11.3743
▁ল্যাটিন	-11.3743
▁ভ্যাট	-11.3743
▁পাগলামি	-11.3743
▁হজম	-11.3744
▁অনুগত	-11.3745
▁তুলবে	-11.3745
▁ডিজাইনার	-11.3746
▁অভিমুখে	-11.3746
▁নির্মান	-11.3746
▁দারুন	-11.3746
▁গ্রাম্য	-11.3747
▁আদান	-11.3747
▁প্রভুর	-11.3749
▁রাগবি	-11.375
▁গর্জন	-11.375
▁কোহলি	-11.3751
▁চাপিয়ে	-11.3752
▁গোবিন্দ	-11.3753
▁অনুপস্থিতিতে	-11.3753
▁শিক্ষিকা	-11.3755
▁হয়েও	-11.3755
▁বিবি	-11.3756
▁নিশ্চয়তা	-11.3756
▁মুসা	-11.3757
মাতা	-11.3759
▁আমল	-11.3765
▁নিশানা	-11.3766
▁কৃষ্ণা	-11.3766
▁শ্যামা	-11.3766
▁ওসমানী	-11.3767
▁ফোনটা	-11.3769
▁শেষকালে	-11.3773
▁পানীয়	-11.3775
▁মেয়েমানুষ	-11.3775
▁উচ্চতায়	-11.3775
ঙ্গ	-11.3776
▁কুটির	-11.3776
▁কাজগুলো	-11.3779
▁লিখিয়া	-11.3782
▁সুদান	-11.3783
▁কাতর	-11.3785
▁ইসলামে	-11.3785
▁শিশির	-11.3789
▁এইরকম	-11.3794
▁ভাবছ	-11.3796
▁জাতিকে	-11.3799
▁ভ্রমণে	-11.3799
▁আদিম	-11.3799
▁বলিউডে	-11.38
▁আয়াত	-11.3802
▁গিয়েছিলে	-11.3804
▁যাস	-11.3805
পন্ন	-11.3805
▁রিক	-11.3806
▁সফলভাবে	-11.3808
▁অনুপ্রবেশ	-11.3811
▁মধ্যযুগে	-11.3811
তৃতীয়াংশ	-11.3812
▁মালভূমি	-11.3814
▁সমাজবিজ্ঞান	-11.3815
▁কৃতজ্ঞ	-11.3818
▁হাতটা	-11.3821
▁কার্যে	-11.3822
▁কিন্ত	-11.3823
▁ত্রিনিদাদ	-11.3827
▁সুবাদে	-11.3827
▁উদ্বুদ্ধ	-11.3827
▁শচীন	-11.3827
▁মানবতাবিরোধী	-11.3827
▁গিটার	-11.3828
▁সত্তার	-11.3828
▁ভালোবাসো	-11.3828
▁লুটিয়ে	-11.3828
▁হাতছাড়া	-11.383
▁দাঙ্গা	-11.383
▁অপেরা	-11.3831
▁লাইফ	-11.3832
▁সহজাত	-11.3832
▁চালিয়েছে	-11.3835
▁উচ্চতম	-11.3836
▁ক্যাট	-11.3836
▁হারায়	-11.3838
▁দেখেছো	-11.3841
▁ঘটল	-11.3843
খণ্ড	-11.3844
▁খেলাটা	-11.3847
▁পুনর্গঠন	-11.3851
▁হতাহত	-11.3852
▁অন্তরের	-11.3856
▁অনায়াসে	-11.3863
মোট	-11.3865
▁বুঝিল	-11.3868
▁পাঠকদের	-11.3869
▁পারছ	-11.3873
▁রাখছি	-11.3874
▁ফ্যান	-11.3875
▁দিচ্ছ	-11.3877
▁প্রহরী	-11.3879
▁রড	-11.388
▁মনোরম	-11.3881
▁কুর্দি	-11.3883
▁রাঙা	-11.3886
নীয়	-11.3889
▁বাবর	-11.3891
ভাই	-11.3894
▁জানালে	-11.3896
▁ইসলামিয়া	-11.3897
▁তু	-11.3898
টন	-11.3901
▁দক্ষিণাংশে	-11.3905
▁বৃত্ত	-11.3909
▁বহিরাগত	-11.3911
▁প্রভিন্স	-11.3911
▁হেলমেট	-11.3911
▁স্কয়ার	-11.3911
▁দীর্ঘস্থায়ী	-11.3912
▁আত্মঘাতী	-11.3912
▁বিকিরণ	-11.3912
▁শহুরে	-11.3912
▁নাথ	-11.3914
▁পরিচয়পত্র	-11.3916
▁কর্মকর্তাকে	-11.3918
র্ধ্বে	-11.3918
▁একতলা	-11.3919
▁রাউন্ড	-11.3921
▁আর্মেনিয়া	-11.3921
▁নন্দী	-11.3921
▁উদ্দীন	-11.3922
▁বেগে	-11.3922
▁কোরআন	-11.3926
▁খেলানো	-11.3927
▁বিন্দুর	-11.3928
▁মিথ্যাবাদী	-11.3929
▁ভাসিয়ে	-11.3929
▁আসিয়াছিল	-11.3931
▁দেখেছিলেন	-11.3935
▁যেও	-11.3936
▁এমি	-11.3946
▁গলি	-11.3949
▁মদীনার	-11.395
▁ব্রত	-11.395
গণের	-11.3951
▁দেখিবার	-11.3952
▁রমাই	-11.3953
▁বাজেটে	-11.3955
▁কার্তিক	-11.3956
▁প্রথমার্ধে	-11.3957
▁কর্তৃপক্ষকে	-11.3962
▁ট্যাংক	-11.3967
▁ডিনার	-11.3969
পক্ষে	-11.397
▁শয্যা	-11.397
▁সন্ধি	-11.3971
▁দেখতেন	-11.3971
▁বিসিবির	-11.3972
▁শিকাগো	-11.3974
▁ঘেরা	-11.3974
▁অনুভূত	-11.3976
গ্রা	-11.3978
▁আসিফ	-11.398
▁লিবিয়া	-11.3984
▁আলমের	-11.3986
▁খুঁজছি	-11.3987
▁পরিচ্ছন্ন	-11.3987
▁ভাইদের	-11.399
▁আপনা	-11.399
▁তালিকার	-11.3991
▁সার্থক	-11.3993
▁ইরানে	-11.3995
▁হান	-11.3996
ব্জাং	-11.3997
▁অনুধাবন	-11.3997
▁ট্রিনিটি	-11.3997
▁পরিগণিত	-11.3997
▁ভুগছিলেন	-11.3997
▁কামরুল	-11.3997
▁ধরুন	-11.3997
▁ক্রেডিট	-11.3998
▁সমকালীন	-11.3999
▁ব্যুরো	-11.4
▁নেড়ে	-11.4
▁ঝিনাইদহ	-11.4001
▁একটাই	-11.4002
▁বহুমুখী	-11.4003
▁আশঙ্কায়	-11.4005
▁জামে	-11.4007
▁নিউজিল্যান্ডে	-11.4009
▁ভাবেন	-11.401
▁নিভিয়	-11.401
▁বিনাশ	-11.401
▁পেসার	-11.4011
▁উড়ান	-11.4013
▁বিষ্ণুর	-11.4015
▁গোলাগুলি	-11.4015
▁আয়ারল্যান্ডের	-11.4016
শিয়ান	-11.4017
▁চেনেন	-11.4018
▁মৌসুমি	-11.402
িয়েট	-11.4021
▁আদম	-11.4024
▁স্তূপ	-11.4026
▁ব্যাপারেও	-11.4036
▁গুল	-11.4038
▁উই	-11.4041
▁গৃহযুদ্ধ	-11.4043
▁টাই	-11.4045
▁মহিম	-11.4045
▁ফ্রেড	-11.4047
▁দমনে	-11.4051
▁সহিংস	-11.4054
▁সংঘের	-11.4054
▁দামী	-11.4055
▁আসায়	-11.4056
▁নখ	-11.4056
▁যেটুকু	-11.4057
▁হারাম	-11.4068
▁খাম	-11.4069
▁কেঁদে	-11.407
▁আলীকে	-11.407
▁রায়পুর	-11.407
▁সত্যকে	-11.4071
▁চ্যাম্পিয়নশীপে	-11.4074
▁মিলিটারি	-11.4078
▁কণ্ঠস্বর	-11.4079
▁কুড়ি	-11.4083
▁কাসেম	-11.4083
▁মৌখিক	-11.4084
▁অ্যাশেজ	-11.4084
▁সুবিধাজনক	-11.4084
▁সেলফি	-11.4084
▁স্রষ্টা	-11.4085
▁খ্যাতিমান	-11.4085
▁রোম	-11.4086
▁বুঝায়	-11.4086
▁এস্টেট	-11.409
▁গুগলের	-11.409
হিয়া	-11.4092
▁সন্ধ্যাবেলায়	-11.4092
▁যতীন	-11.4095
বৎ	-11.4095
▁দেখাই	-11.4095
▁একাদশে	-11.4095
▁দিনরাত	-11.4097
▁আসিবার	-11.4097
▁ভিজিয়	-11.4097
▁ছায়াছবিটি	-11.41
▁তৃপ্তি	-11.4103
▁ফিল্ড	-11.4104
▁হারুন	-11.4104
▁দাসত্ব	-11.4106
▁রোহিঙ্গাদের	-11.4107
▁আয়ন	-11.4108
▁হাটে	-11.4108
▁শূন্যতা	-11.4111
শো	-11.4111
ধ্বনি	-11.4112
দর্শন	-11.412
▁নাড়িয়া	-11.4122
সম্বন্ধে	-11.4125
▁আঙুলে	-11.4125
▁দরজাটা	-11.413
▁হস্তে	-11.4134
▁মোটর	-11.4139
▁বলবি	-11.4139
▁প্রভাত	-11.4139
▁ভাঁজ	-11.4142
▁খালেদ	-11.4145
▁লাভজনক	-11.4147
▁ভগবানকে	-11.4149
▁পোষা	-11.415
▁মন্ত্রক	-11.4154
▁প্লাজা	-11.4156
▁সকালবেলা	-11.4156
▁ঠিকাদার	-11.416
▁ধর্মকে	-11.4162
▁বলিত	-11.4162
▁ফিট	-11.4165
▁জুয়া	-11.4167
▁মহল্লা	-11.4167
▁ইজারা	-11.417
দিগকে	-11.417
▁পৌঁছান	-11.417
▁অবিচ্ছেদ্য	-11.417
▁উত্তরপ্রদেশ	-11.417
▁তদুপরি	-11.417
▁সংগৃহীত	-11.417
▁স্বর্ণপদক	-11.417
▁অসন্তোষ	-11.417
▁গতিবিধি	-11.417
▁তোমাদিগকে	-11.4171
▁কম্বোডিয়া	-11.4171
▁ডায়রিয়া	-11.4171
▁তালিম	-11.4171
▁ট্রেড	-11.4171
▁বাসটি	-11.4172
▁মৌজা	-11.4173
▁স্নিগ্ধ	-11.4174
▁দুর্গম	-11.4174
গ্রস্ত	-11.4174
▁অ্যালবামে	-11.4175
▁পারছো	-11.4177
▁মানসিকতা	-11.4183
▁দৃঢ়ভাবে	-11.4186
ভিষিক্ত	-11.4187
▁মূর্তিটি	-11.4187
▁ভাজা	-11.4188
▁টিপ	-11.419
▁মূলে	-11.4193
▁এসি	-11.4195
▁বর্গ	-11.4195
▁করেছিলো	-11.4198
▁ফেলিল	-11.4198
▁তালুকদার	-11.4198
▁রিসার্চ	-11.4198
▁রেশম	-11.4199
▁এফ	-11.4201
পন্থী	-11.4202
▁শ্রমিকের	-11.4204
▁জনতার	-11.4205
▁মোকাবিলায়	-11.4206
▁ভাগ্যে	-11.4208
▁মহিলাকে	-11.421
▁ডন	-11.4214
▁কথোপকথন	-11.4215
▁হংকংয়ে	-11.4215
▁শাসিত	-11.4218
▁প্রচেষ্টায়	-11.4222
▁বইতে	-11.4223
▁মরবে	-11.4223
▁আপেক্ষিক	-11.4224
▁আনি	-11.4228
▁চমকিয়	-11.4233
▁ছেলেটির	-11.4233
▁বিয়ার	-11.4234
▁ভাবলে	-11.4242
▁বিশেষজ্ঞদের	-11.4243
▁অনুকরণ	-11.4243
▁আখের	-11.4246
বাংলাদেশ	-11.4246
▁দিনগুলো	-11.4247
▁পূর্বাভাস	-11.4247
▁বিজনেস	-11.4255
▁উড়	-11.4256
▁টাইগার	-11.4257
▁অপরিসীম	-11.4258
▁আমজাদ	-11.4258
▁ঠাঁই	-11.4258
▁প্রবর্তক	-11.4258
▁সম্ভ্রান্ত	-11.4258
▁হুমায়ূন	-11.4258
▁ফ্রেঞ্চ	-11.4258
▁মুদ্রিত	-11.4258
▁প্রিন্সিপাল	-11.4258
▁রিয়াজ	-11.4258
▁ধর্মান্তরিত	-11.4258
▁ধারাভাষ্যকার	-11.4258
▁ডেথ	-11.4259
▁যতদূর	-11.4259
▁সীমান্তবর্তী	-11.426
▁জাগ্রত	-11.426
▁হাটহাজারী	-11.426
▁আর্মেনীয়	-11.426
▁স্বাগতম	-11.4261
▁বিন্দুমাত্র	-11.4262
▁পর্ষদ	-11.4265
▁অপহরণের	-11.4265
▁বাজিয়ে	-11.4266
▁আরবী	-11.4267
▁বাকিরা	-11.4269
▁ভুক্তভোগী	-11.427
▁কামান	-11.427
▁পৌছে	-11.4272
▁ক্ষিপ্ত	-11.4276
▁থমক	-11.428
▁আইফোন	-11.4281
▁টাকাটা	-11.4286
▁গরমে	-11.4287
▁খু	-11.429
চিত্র	-11.4296
▁রায়ে	-11.4299
▁পিছে	-11.43
▁সহায়তার	-11.4302
▁ভূমির	-11.4306
▁ট্রলার	-11.4308
▁পু	-11.4308
▁ধর্মতত্ত্ব	-11.4315
▁পশ্চিমাংশে	-11.4317
▁আমিরাতের	-11.4324
▁সন্ন্যাস	-11.4326
▁দা	-11.4327
▁প্যাকেজ	-11.4327
▁শট	-11.4331
▁শিক্ষাব্যবস্থা	-11.4331
▁আদেশে	-11.4334
▁কোণ	-11.4335
▁অন্যকে	-11.4336
▁অটল	-11.4346
▁ক্যাডেট	-11.4346
▁ট্রান্সভাল	-11.4346
▁পরিধি	-11.4346
▁অনন্তকাল	-11.4346
▁ব্যথিত	-11.4346
▁বর্শা	-11.4347
▁জিতেছিলেন	-11.4348
▁অচেনা	-11.4349
▁পটভূমি	-11.435
▁গাইড	-11.4353
▁জেন	-11.4353
▁রাজ্যটি	-11.4355
▁ছাত্রছাত্রীদের	-11.4356
ব্যাক	-11.4358
▁বিদ্ধ	-11.4359
হু	-11.4359
▁নত	-11.436
▁এনেছেন	-11.4361
পুরে	-11.4362
▁দিচ্ছিল	-11.4363
▁ট্যাক্সি	-11.4363
▁অ্যাটলেটিকো	-11.4363
▁জালে	-11.4364
▁তাজা	-11.4364
▁হইতেছিল	-11.4366
▁প্রচারক	-11.4366
▁সহকারে	-11.4369
▁লং	-11.437
▁একুশ	-11.4371
▁ইসলামাবাদ	-11.4372
ায়িত	-11.4376
▁প্লেট	-11.4381
▁ঝাড়	-11.4381
পতি	-11.4383
▁জীববিজ্ঞান	-11.4383
▁পুঁজিবাজারে	-11.4386
▁আজারবাইজান	-11.4393
▁সদা	-11.4393
ব্য	-11.4394
▁তামা	-11.4396
▁নামও	-11.4398
▁বাঁধন	-11.4401
নিয়া	-11.4402
▁এক্সচেঞ্জ	-11.4406
▁অখণ্ড	-11.4408
▁বানি	-11.4409
▁শ্রীলঙ্কায়	-11.441
▁স্প্রে	-11.4413
▁আদর্শের	-11.4414
▁গতিশীল	-11.4414
শাসিত	-11.4417
▁বিলুপ্তি	-11.4418
▁জেরা	-11.4419
▁করাও	-11.4427
▁প্রজাপতি	-11.4427
▁রঙে	-11.4428
▁মিটিং	-11.4429
▁লোকই	-11.4432
ফি	-11.4433
▁ইলেকট্রনিক	-11.4434
▁ছেলেমেয়ে	-11.4434
▁অসহযোগ	-11.4435
▁মরহুম	-11.4436
▁গাঢ়	-11.4436
▁সম্প্রসারিত	-11.4436
▁ক্রিস্টিয়ান	-11.4436
▁আকস্মিক	-11.4437
▁গিনি	-11.4437
▁উপসর্গ	-11.4437
▁উত্তোলন	-11.4437
▁ফাংশন	-11.4438
▁সরস্বতী	-11.4438
▁কেন্দ্রস্থলে	-11.4438
▁কন্ঠ	-11.4438
▁তাআলা	-11.4439
▁লালমনিরহাট	-11.4439
▁সঞ্চিত	-11.444
▁বনভূমি	-11.4442
▁হত্যাকাণ্ডে	-11.4444
▁এমনটি	-11.4445
▁বিষয়েও	-11.4445
▁রাখাইন	-11.4448
পে	-11.445
▁আলাদাভাবে	-11.4452
▁ধ্বনি	-11.4462
ধর্ম	-11.4465
▁সম্পূর্ণভাবে	-11.4466
▁সাব্বির	-11.4467
▁মুদ্রণ	-11.4472
বান্ধব	-11.4472
হি	-11.4472
▁সিএনজিচাল	-11.4475
▁শহরকে	-11.4475
কাটা	-11.4479
▁হানিফ	-11.4483
▁খতিয়	-11.4485
▁বিদ্যালয়টিতে	-11.4487
▁নিঃসঙ্গ	-11.4488
ওয়ান	-11.4488
ভা	-11.4494
▁সম্মুখ	-11.4495
▁আইনটি	-11.4501
▁সময়কার	-11.4502
▁রাজকুমারী	-11.4504
▁আরবে	-11.4505
▁বলবার	-11.4511
▁নল	-11.4512
▁ফা	-11.4513
▁মাগুরা	-11.4513
রাত্রি	-11.4515
▁বিলাস	-11.4517
▁মৌলভীবাজার	-11.452
▁পড়িতেছে	-11.4523
▁আশ্বস্ত	-11.4526
▁মুফতি	-11.4526
▁নতুবা	-11.4526
▁যীশু	-11.4526
▁অনিষ্ট	-11.4526
▁বধূ	-11.4526
▁লিংক	-11.4527
▁চাকুরী	-11.4527
▁মুন্সিগঞ্জ	-11.4527
▁আন্দাজ	-11.4528
▁চেইন	-11.4528
▁রাজবাড়ী	-11.4528
▁বসিলেন	-11.4528
▁বিলবোর্ড	-11.4528
▁আসলাম	-11.4528
▁ফালতু	-11.4529
▁ছুঁড়ে	-11.4529
▁হতাম	-11.4531
▁নিবদ্ধ	-11.4533
▁কালকে	-11.4535
▁হইলাম	-11.4535
▁মেলবোর্ন	-11.4536
▁ট্রাস্টি	-11.4537
▁স্বভাবতই	-11.4538
▁রাখলেন	-11.4538
▁বলছিল	-11.4543
▁রত্ন	-11.4545
▁ধুলা	-11.4547
▁বেহালা	-11.4547
▁অনেকাংশে	-11.4549
▁কমছে	-11.455
▁ওল্ড	-11.4552
▁আসিয়াছেন	-11.4554
▁শেখাতে	-11.4556
▁বঙ্গী	-11.4557
িয়ো	-11.4559
▁যানজটের	-11.4564
▁স্	-11.4564
ঘরে	-11.4565
দেশে	-11.4566
▁মাই	-11.4572
▁হিল	-11.4572
▁প্রতিষ্ঠানকে	-11.4573
▁জনপ্রতিনিধি	-11.4574
▁বেহারা	-11.4578
▁ফরম	-11.4581
▁টিক	-11.4581
▁ম্যা	-11.4581
▁শরীরটা	-11.4592
▁চালা	-11.4597
▁প্রতিরোধের	-11.4598
▁পথেই	-11.4599
▁আয়া	-11.4608
▁স্কাউট	-11.4615
▁ভেড়া	-11.4616
▁উড্ডয়ন	-11.4616
লাউদ্দিন	-11.4616
▁পদাতিক	-11.4617
▁যুদ্ধক্ষেত্রে	-11.4617
▁আসবাবপত্র	-11.4617
▁ত্রয়োদশ	-11.4617
▁বিবিধ	-11.4617
▁মনোবল	-11.4618
▁বজ্র	-11.4618
▁খাজনা	-11.4618
▁বোকামি	-11.462
▁দুর্দশা	-11.462
▁নর	-11.462
▁খেলনা	-11.4623
▁ঠিকাদারি	-11.4623
▁চত্বর	-11.4623
▁চাচ্ছ	-11.4626
▁জানাবেন	-11.4629
▁পাখিদের	-11.4632
▁বড়ুয়া	-11.4634
▁অবসরে	-11.4636
▁যেয়ো	-11.4637
▁ইভেন্ট	-11.4637
▁ঘন্টার	-11.4641
▁পোল্যান্ড	-11.4643
▁বাঁচাও	-11.4649
▁কুন	-11.4652
▁পর্দায়	-11.4652
▁বলটি	-11.4653
▁দর	-11.4659
▁প্যান	-11.4659
▁প্রখর	-11.4667
াস্ত	-11.4668
▁এলিজাবেথ	-11.4668
▁বিমলা	-11.467
▁ধারাবাহিকে	-11.4672
শিক্ষা	-11.4675
▁কর্ণাটক	-11.4681
▁খালা	-11.4686
▁আধ	-11.4687
িয়ায়	-11.4692
▁রাধে	-11.4693
▁সন্তানেরা	-11.4695
▁রাইফেল	-11.4695
▁কালকের	-11.4698
▁কাতারে	-11.4698
▁নিবেদিত	-11.4698
▁কোনটি	-11.47
▁ছত্র	-11.47
▁প্রত্যেকে	-11.4703
▁সার্জেন্ট	-11.4705
▁বহনকারী	-11.4705
▁ঘটনাটা	-11.4705
▁বিবাহবন্ধন	-11.4705
▁চাইলেও	-11.4707
▁স্টিভেন	-11.4708
▁উড়িষ্যা	-11.4708
▁নেতৃস্থানীয়	-11.4708
▁দাশগুপ্ত	-11.4708
▁জবাবদিহি	-11.4708
▁পুনঃ	-11.4708
▁প্রবেশাধিকার	-11.4709
▁মারাঠি	-11.4709
▁মোবারক	-11.471
▁সুদূর	-11.4711
তত্ত্ব	-11.4712
▁রতন	-11.4713
▁রথ	-11.4713
▁বণ্টন	-11.4713
মিলিয়া	-11.4714
▁সুগন্ধি	-11.4714
▁সমর্পণ	-11.4716
▁কাজই	-11.4716
▁হিন্দ	-11.4717
▁জোন	-11.4718
▁সাধিত	-11.4719
গান	-11.4719
▁আঁকতে	-11.4719
▁অক্সাইড	-11.4722
▁রসিকতা	-11.4722
▁দ্রুততম	-11.4722
▁অকারণে	-11.4723
স্টার	-11.4723
ধ	-11.4724
ম্	-11.4724
▁শ্রেয়	-11.4724
▁পদটি	-11.4725
▁থ্রি	-11.4727
▁বেলজিয়াম	-11.4728
▁কুড়িগ্রাম	-11.4728
▁জং	-11.4729
▁গোল্ড	-11.4733
▁শিরোনামে	-11.4734
▁ছড়ায়	-11.4734
▁রাজবংশে	-11.4735
▁ভূমিকম্পে	-11.4737
▁কেসটা	-11.4742
▁কেজি	-11.4742
▁দক্ষিণাঞ্চল	-11.4743
▁সাবান	-11.4743
▁শিক্ষাজীবন	-11.4745
▁মিলিয়ন	-11.4745
শৈলী	-11.4746
▁মুম্বইয়ে	-11.4747
▁রোগীরা	-11.475
▁হিমশি	-11.475
▁সং	-11.4756
▁শিকারের	-11.4759
▁মালয়েশিয়ায়	-11.4761
▁আটটায়	-11.4765
▁গ্রাহকের	-11.4766
▁বুঝেছ	-11.477
▁ঝোঁক	-11.477
▁নিষ্ঠা	-11.4773
▁ফেলেছ	-11.4781
▁ব্যাংককে	-11.4782
লার	-11.4783
▁দার্জিলিং	-11.4784
▁গার্ড	-11.4785
▁স্তন্যপায়ী	-11.4785
▁দেড়টা	-11.4787
▁বুঝিয়া	-11.4787
▁শহরগুলি	-11.4787
▁করলি	-11.4789
▁আগমনের	-11.4792
জীবন	-11.4793
▁জোহর	-11.4796
▁গাধা	-11.4801
▁গর্ভবতী	-11.4801
▁মজুত	-11.4801
ল্দান	-11.4801
▁অর্পণ	-11.4801
▁মৃত্যুঞ্জয়	-11.4801
▁সুদর্শন	-11.4802
▁চলত	-11.4802
▁কদর	-11.4802
▁অক্ষত	-11.4802
▁তেরো	-11.4804
▁উপন্যাসে	-11.4804
▁প্রস্তর	-11.4804
র্দো	-11.4804
▁সিরাজ	-11.4805
▁নিম্নে	-11.4805
▁পুজো	-11.4805
▁খাইবার	-11.4806
▁মমতাজ	-11.4807
▁পার্থিব	-11.4807
▁দায়িত্বপালন	-11.4807
▁প্রতিযোগিতামূলক	-11.4807
নায়	-11.4808
▁আনবে	-11.4812
▁সারদা	-11.4812
▁সিরিয়াস	-11.4814
▁প্রক্রিয়ায়	-11.4818
▁বঙ্গোপসাগর	-11.4818
▁ফাউন্ডেশনের	-11.4819
▁মশায়	-11.482
পক্ষীয়	-11.4821
▁জমিদারি	-11.4821
▁দাদী	-11.4825
িস্ট	-11.4827
▁ধ	-11.4829
▁আবাদ	-11.4832
▁সীতা	-11.4834
▁যাঁহার	-11.4838
▁ভদ্রলোকের	-11.4842
টো	-11.4843
▁মূল্যবোধ	-11.4844
▁বাড়ীতে	-11.4845
▁বণিক	-11.4847
▁পড়েনি	-11.4848
▁প্রজাতিটি	-11.4848
▁সুরেশ	-11.4848
▁গড়িয়া	-11.485
▁সেনানিবাসে	-11.4852
▁চারদিক	-11.4852
জ্ঞান	-11.4856
▁খবরটা	-11.4857
▁রিট	-11.4857
▁রান্নাঘর	-11.4863
▁কয়েকজনকে	-11.4865
▁মতবাদের	-11.4867
▁মল্লিক	-11.487
সঙ্গে	-11.4873
▁যাইতেছি	-11.4874
িও	-11.4875
▁মুজাহিদ	-11.4875
▁মহলের	-11.4878
▁বিচারকের	-11.4878
▁বোহ	-11.4879
▁সমস্যাটি	-11.4884
▁উন্মাদ	-11.4886
ুজ্জামান	-11.4894
▁অন্তর্নিহিত	-11.4894
▁টমেটো	-11.4894
▁দীক্ষিত	-11.4894
▁মুকেশ	-11.4894
▁যৌতুক	-11.4894
▁ব্যাগে	-11.4894
▁দ্বিপাক্ষিক	-11.4894
▁আচ্ছাদিত	-11.4894
▁দীর্ঘনিশ্বাস	-11.4894
▁প্রত্যন্ত	-11.4895
▁রুহুল	-11.4895
▁প্রতিভাবান	-11.4895
▁বরগুনা	-11.4895
▁বিবর্ণ	-11.4895
▁ইটভাটা	-11.4896
▁লাগলাম	-11.4897
▁উপভাষা	-11.4897
▁নিমিত্ত	-11.4897
▁সিল্ক	-11.4898
▁জাদুঘরটি	-11.4898
▁ক্ষুদ্রতম	-11.49
▁টিন	-11.4901
▁ভেবেছিলেন	-11.4901
▁চিকিৎসাসেবা	-11.4902
েশ	-11.4902
▁পৌঁছতে	-11.4902
▁অধ্যয়নরত	-11.4903
▁থাকাকালে	-11.4906
▁জানিয়েছিল	-11.4907
▁মালদ্বীপ	-11.491
▁শৈশবকাল	-11.4912
▁বেচে	-11.4913
▁নর্দা	-11.4917
▁গিয়েছি	-11.4917
েজ	-11.4919
▁কাজল	-11.4921
স্থানে	-11.4923
পাঁচ	-11.4924
▁ভাবমূর্তি	-11.4925
▁করাচিতে	-11.4925
▁সাতটায়	-11.4927
▁হয়রানির	-11.4928
▁মনোবিজ্ঞান	-11.4928
▁বৈঠকের	-11.4929
▁আটকানো	-11.493
▁দিয়েছো	-11.4931
পদ্ধতি	-11.4933
▁চ	-11.4938
প্রথম	-11.4939
▁পাকিস্তানিদের	-11.494
▁দেশগুলোতে	-11.4943
▁মধ্যভাগে	-11.4943
▁প্রিয়া	-11.4944
▁সার্কাস	-11.4944
াক	-11.4945
▁বলয়	-11.4953
▁চুলে	-11.4957
▁জেতা	-11.496
▁এইচ	-11.496
▁ভারতীয়দের	-11.4961
▁বাগ	-11.4964
▁দায়িত্বশীল	-11.4965
টিই	-11.4965
▁প্রতিকূল	-11.4967
▁বাঁচা	-11.4969
▁ময়ূর	-11.4969
▁বারাক	-11.497
▁অনশন	-11.4973
▁অঙ্গরাজ্যে	-11.4974
▁চাইছি	-11.4976
▁পিস	-11.4977
▁উর্বর	-11.498
▁চক্রবর্তীর	-11.498
িভ	-11.498
▁হাওর	-11.4981
▁ফ্ল্যাট	-11.4984
▁আওরঙ্গজেব	-11.4989
▁চ্যাপলিন	-11.4989
▁মেডিক্যাল	-11.4989
▁ব্যারিস্টার	-11.4989
▁ক্যারিবীয়	-11.4989
▁সিংহভাগ	-11.4989
▁ফরোয়ার্ড	-11.4989
▁বেলুন	-11.4989
▁বিপুলসংখ্যক	-11.499
▁আণবিক	-11.499
▁সিকিম	-11.499
▁অন্ধ্র	-11.4991
▁উপনিষদ	-11.4991
▁তথ্যচিত্র	-11.4992
▁বীমা	-11.4993
▁বাহুল্য	-11.4993
▁কনে	-11.4993
▁বিশেষায়িত	-11.4994
▁উসমানীয়	-11.4994
▁হারিয়েছি	-11.4998
ীরা	-11.5
ইবার	-11.5004
▁বছরগুলিতে	-11.5007
▁বান্ধবী	-11.5007
▁নামা	-11.5011
▁খাট	-11.5015
▁রমণী	-11.5016
দাতা	-11.5016
▁থাকবি	-11.5016
▁পোপ	-11.5023
▁খবরটি	-11.5025
পর	-11.5028
▁শারীরিকভাবে	-11.5028
▁খ্রীষ্ট	-11.5031
▁সবে	-11.5031
▁স্বাভাবিকভাবেই	-11.5032
▁ফলো	-11.5033
▁ক্যাপ	-11.5036
▁আসাদ	-11.5036
▁আশ্রম	-11.5042
▁প্রাইম	-11.5043
▁প্রচারণায়	-11.5045
▁ফিল্ডিং	-11.5047
▁পূরণের	-11.5051
ভূমি	-11.5054
▁বলটা	-11.5055
▁তিনদিন	-11.5055
▁স্মৃতির	-11.5056
▁দিকটা	-11.506
▁সম্মানে	-11.5061
▁ক্লিনিকে	-11.5064
▁আসক্ত	-11.5064
▁কৃপা	-11.5066
▁ট্রাইব্যুনালে	-11.5067
▁খাব	-11.5069
▁কর্ণ	-11.5073
▁পিসি	-11.5075
মাকে	-11.5075
▁মহিন	-11.508
▁বেড়াচ্ছে	-11.5081
▁ইন্ডাস্ট্রি	-11.5082
▁দাঁড়ানোর	-11.5082
▁আলিঙ্গন	-11.5084
▁সিকিউরিটি	-11.5084
▁হরমোন	-11.5084
সাধ্য	-11.5084
▁শাকসবজি	-11.5084
▁হোসাইন	-11.5084
▁জলপাই	-11.5084
▁সমাপনী	-11.5085
▁ডঃ	-11.5085
▁লইলেন	-11.5087
▁বদলাতে	-11.5088
▁দাদামহাশয়	-11.5088
▁গার্লস	-11.5089
▁আক্ষেপ	-11.5089
▁খাঁচা	-11.509
▁বানিয়েছি	-11.5092
▁ছত্রাক	-11.5093
▁ভাগবত	-11.5094
▁লড়ে	-11.5097
▁বেত	-11.51
▁থাকতো	-11.5101
▁গ্রাস	-11.5104
▁বানায়	-11.5106
▁ওঁকে	-11.5109
▁উৎপাদনে	-11.5111
▁বাউল	-11.5114
▁বাড়লে	-11.5115
মন্ত্রী	-11.512
▁মাথাটা	-11.5122
▁কৃষকের	-11.5126
কথিত	-11.5131
▁চৌ	-11.5131
▁উঠেছেন	-11.5132
▁লইবা	-11.5133
▁যৌবন	-11.5133
▁আরিফ	-11.5138
শ্বরে	-11.5138
দ্বা	-11.514
য়ান	-11.5141
▁নেপথ্য	-11.5143
মূর্তি	-11.5148
▁সিডি	-11.5148
▁পরিষদে	-11.5149
▁অনুসন্ধানে	-11.5149
▁আঙ্গুল	-11.5149
▁বনাঞ্চল	-11.5152
▁যেনো	-11.5155
▁এজেন্সি	-11.5157
▁ওয়ানডেতে	-11.5158
▁প্রকাশ্য	-11.5166
▁মন্দা	-11.5169
▁আবাহনীর	-11.5169
▁স্বায়ত্তশাস	-11.5169
▁টানে	-11.5172
▁ব্রাহ্ম	-11.5174
▁ছাড়ে	-11.5174
▁সিরিয়াল	-11.5175
▁ফ্রাঙ্ক	-11.5177
▁বকুল	-11.518
▁বিপর্যস্ত	-11.518
▁মার্গারেট	-11.518
▁কলোনি	-11.518
▁জিন্নাহ	-11.518
▁রুক্মিণী	-11.518
▁লরেন্স	-11.518
▁এয়ারলাইন্স	-11.518
▁পাঠাগার	-11.518
▁যন্ত্রাংশ	-11.518
▁বলিষ্ঠ	-11.518
▁টেকসই	-11.5182
▁পঁচিশ	-11.5182
▁কামিল	-11.5183
▁ঢুকিয়া	-11.5183
▁ওয়ার্ডে	-11.5184
▁একাদশের	-11.5187
▁ওয়াইন	-11.5187
▁লিখেছে	-11.5187
▁মশাল	-11.5187
▁বেস্ট	-11.5187
▁মিলেছে	-11.5189
▁স্যুট	-11.5191
▁পেরেছিল	-11.5201
▁পরিচালনায়	-11.5203
▁সন্ন্যাসীর	-11.5205
▁বু	-11.5207
▁প্রতিযোগিতাটি	-11.5208
▁ভিক্ষুর	-11.5209
▁জ্ঞানলাভ	-11.5209
▁চালালে	-11.5212
▁কার্যকারিতা	-11.5214
▁অর্জনে	-11.5214
▁সোম	-11.5214
েন্ট	-11.5215
তাই	-11.5219
▁কলিকাতার	-11.522
▁সচিবালয়	-11.5224
বিদ্যায়	-11.5224
▁ঝুঁকির	-11.5225
ফাস্ট	-11.5227
▁চালকের	-11.5228
▁রাজাদের	-11.5228
▁মাখন	-11.523
▁একত্ব	-11.523
▁রাজত্বকালে	-11.5232
▁ততক্ষণে	-11.5234
জাতিক	-11.5236
হারা	-11.524
▁নামকরা	-11.5244
▁দাসের	-11.5244
▁বেড়িয়ে	-11.5245
▁বলতেই	-11.5246
▁চট	-11.5247
সংশ্লিষ্ট	-11.5247
▁জানোই	-11.5248
▁দেখছ	-11.5248
▁ক্ষমতায়ন	-11.5252
▁জগৎকে	-11.5256
▁উপদ্বীপ	-11.5258
▁কষ্টের	-11.526
▁ছবিটিতে	-11.526
▁দালান	-11.5261
▁ডিরেক্টর	-11.5262
▁মহাকাব্য	-11.5264
▁তাস	-11.5264
▁মেতে	-11.5266
▁লিভারপুল	-11.5267
▁গ্রীষ্মকাল	-11.5271
▁খুঁজছে	-11.5273
▁চিপ	-11.5273
▁শয়ন	-11.5277
▁আইসক্রিম	-11.5277
▁স্বনামধন্য	-11.5277
▁ডেভেলপমেন্ট	-11.5277
▁প্রত্যহ	-11.5277
▁লাথি	-11.5277
▁আইনানুগ	-11.5277
▁অনির্দিষ্টকাল	-11.5278
▁চেয়ারপারসন	-11.5278
▁ক্ষণকাল	-11.528
▁পাইব	-11.5281
▁ইথিওপিয়া	-11.5281
▁খাজা	-11.5281
▁খাবো	-11.5283
▁পরিবর্তনশীল	-11.5286
▁সুইজারল্যান্ডে	-11.529
▁বিষয়টিকে	-11.529
আজ	-11.5294
▁চূড়ায়	-11.5294
▁লক্ষণীয়	-11.5294
ত্র	-11.5295
▁রিড	-11.5297
▁স্বয়ংক্রিয়	-11.5298
▁রাজস্থান	-11.5299
▁গলে	-11.5299
▁হোস্টেল	-11.5303
▁নব্বইয়ে	-11.5305
▁কবিরাজ	-11.5306
▁সৈয়দপুর	-11.5307
▁এগুলোকে	-11.5309
▁নকশায়	-11.5311
নু	-11.5313
থা	-11.5315
▁ভাবছে	-11.5315
জী	-11.5317
শতক	-11.5319
বন্দী	-11.5322
▁এলাকাতে	-11.5322
▁আসামিরা	-11.5324
শিক্ষক	-11.5325
▁কিছুতে	-11.5327
▁ঢেউ	-11.5328
▁কোর	-11.5329
▁ভাগের	-11.5335
▁রেস্টুরেন্ট	-11.5337
▁ঘ	-11.5338
ক্ষ	-11.5341
▁হইয়াছি	-11.5341
দেশ	-11.5342
▁ঠিকানায়	-11.5343
▁কিম	-11.5344
▁চরণ	-11.5345
▁করোনা	-11.5347
▁ধর্মগ্রন্থ	-11.5348
োস	-11.5348
▁ফুটেজ	-11.5348
▁বাড়ায়	-11.5348
▁রসদ	-11.5351
▁ব্রহ্মা	-11.5352
▁খাপ	-11.5353
▁দাওয়া	-11.5356
▁সায়	-11.536
▁এতক্ষণে	-11.536
▁হইবেন	-11.5365
▁আতঙ্কে	-11.5367
▁বেঞ্চে	-11.5368
▁স্বার্থপর	-11.537
▁লিওনে	-11.5375
▁মুম্বাইয়ের	-11.5375
▁উপরন্তু	-11.5375
▁লেখিকা	-11.5375
▁নথিভুক্ত	-11.5376
▁ভঙ্গি	-11.5376
▁দ্রুতগতিতে	-11.5376
▁ভর্ৎসনা	-11.5376
▁নিষ্কাশন	-11.5376
▁ক্লিক	-11.5376
▁পাইয়াছে	-11.5376
▁ফ্যাকাশে	-11.5377
▁রক্তচাপ	-11.5377
▁ভাসমান	-11.5378
▁শিলালিপি	-11.5378
ওয়ার	-11.5379
▁কয়েকজনের	-11.5379
▁চুম্বন	-11.5379
▁করলুম	-11.538
▁উইমেন	-11.5381
▁অতীন	-11.5382
▁পদবি	-11.5382
▁স্টোর	-11.5383
▁বিশ্লেষকেরা	-11.5384
▁মূর্খ	-11.5385
▁বাস্তবায়	-11.5385
▁উভয়কে	-11.5385
▁ফেরে	-11.5387
বাসী	-11.5388
▁থামাও	-11.5389
ডা	-11.539
▁বসবাসরত	-11.5391
▁পুণ্য	-11.5394
▁ফাঁদে	-11.5396
▁হইব	-11.5403
▁শখের	-11.5406
▁শ্রেষ্ঠত্ব	-11.5407
▁তেলে	-11.5409
▁করছিলে	-11.5412
▁বিস্তারের	-11.5417
▁খো	-11.5419
▁শুক	-11.5419
▁পরেন	-11.5422
ৈ	-11.5422
▁ওবামার	-11.5428
▁থামে	-11.543
▁থর	-11.5432
▁কোমরে	-11.5433
▁পাগলা	-11.5439
শালী	-11.544
▁শুনবে	-11.5445
▁লালা	-11.5449
▁পাঠ্যক্রম	-11.5449
▁চে	-11.5452
▁চাইলেন	-11.5457
▁চুয়াডাঙ্গা	-11.5459
কালো	-11.5461
▁প্রশ্রয়	-11.5461
▁হ্যাক	-11.5463
▁উপলব্ধ	-11.5465
েন্দ্রনাথ	-11.5466
▁হস্ত	-11.5468
▁মুখটা	-11.5469
▁আফসোস	-11.5474
▁উল্লিখিত	-11.5474
▁জেএমবি	-11.5474
▁যাবজ্জীবন	-11.5474
▁হালনাগাদ	-11.5474
▁অডিও	-11.5474
▁পেঁপে	-11.5474
▁সুচিত্রা	-11.5474
▁কর্মবিরতি	-11.5474
▁জ্যাজ	-11.5475
▁সার্চ	-11.5475
▁স্বল্পদৈর্ঘ্য	-11.5475
▁জাহাঙ্গীরনগর	-11.5475
▁বিলুপ্তপ্রায়	-11.5475
▁হিমাচল	-11.5476
▁আদলে	-11.5478
▁ডেইলি	-11.5478
▁চর্বি	-11.5478
▁বাদশা	-11.5479
▁ব্রহ্মাণ্ড	-11.5479
▁পার্লামেন্ট	-11.548
▁গুঁড়া	-11.5481
▁পাগলের	-11.5481
▁যুবতী	-11.5482
▁উঠেছিলেন	-11.5483
▁ঘুমাইয়া	-11.5483
▁জ্যোতি	-11.5484
▁নামায	-11.5488
▁কুরাইশরা	-11.5489
▁দেখিবে	-11.549
▁সালে	-11.5493
▁পানামা	-11.5495
▁শহরাঞ্চল	-11.5496
এসব	-11.5498
▁বাঁধিয়া	-11.55
সংখ্যা	-11.5501
▁বায়ুমণ্ডল	-11.5503
▁এরপরই	-11.5504
▁অদ্বৈত	-11.5505
▁জানাবে	-11.5506
▁হইয়াছিলেন	-11.5507
▁চলল	-11.5509
▁তাকাতে	-11.551
টিও	-11.551
▁মর্যাদায়	-11.5513
▁সংস্থাগুলো	-11.5514
বিজ্ঞান	-11.5515
▁বাথরুম	-11.5515
তাড়ি	-11.5516
▁খরচে	-11.5516
▁মাতৃ	-11.5517
▁ওয়াল	-11.552
▁অনুবাদক	-11.5521
▁নিক	-11.5522
▁প্রশ্নপত্র	-11.5523
▁পরস্পরকে	-11.5528
▁খেলাগুলো	-11.5532
▁ভাষাকে	-11.5533
একবার	-11.5535
▁ফেরেশতা	-11.5535
▁উল্লেখিত	-11.5538
▁রণবীর	-11.5543
ডো	-11.5543
▁অলস	-11.5544
▁অনেকেরই	-11.5546
▁দামেস্কে	-11.5547
▁বিভ্রান্তি	-11.5549
িংয়ের	-11.5553
যাওয়া	-11.5553
▁আলিম	-11.5554
▁অজ্ঞ	-11.5558
▁হাইস্কুল	-11.556
▁সমর্থনে	-11.556
▁গাড়ী	-11.5564
▁বন্ধুবান্ধব	-11.5564
দী	-11.5564
▁সাভারে	-11.5565
▁রংপুরে	-11.5566
▁পরীক্ষার্থী	-11.5569
▁মাইক্রোবাস	-11.5569
▁ব্যাটা	-11.557
▁কাব্যের	-11.5572
▁লাভে	-11.5574
তবড়ো	-11.5574
▁আক্ষরিক	-11.5574
▁কনভেনশন	-11.5574
▁দিলীপ	-11.5574
▁বেপরোয়া	-11.5574
▁লাঞ্ছিত	-11.5574
▁টেলিযোগাযোগ	-11.5574
▁দৈহিক	-11.5574
▁ভগিনী	-11.5574
▁ফুরিয়ে	-11.5574
▁মনিরুজ্জামান	-11.5574
▁হুইপ	-11.5574
▁বিধিনিষেধ	-11.5575
▁টমাস	-11.5575
▁রজার	-11.5575
▁অধুনা	-11.5575
▁বার্মা	-11.5575
▁রায়হান	-11.5576
▁অনিল	-11.5576
▁বাদাম	-11.5576
▁কাফেলা	-11.5576
▁রাবার	-11.5578
▁সবকটি	-11.5578
▁খোলো	-11.5578
▁সারাক্ষণ	-11.5579
▁পড়িলেন	-11.5581
টের	-11.5583
পাল	-11.5583
▁পরোয়া	-11.5584
▁বেড়ানো	-11.5584
▁বসবে	-11.5586
▁জলজ	-11.5588
▁প্রান্তিক	-11.5589
▁অবস্থানকালে	-11.5589
▁তারতম্য	-11.559
▁প্রকৃতিতে	-11.5593
▁ইরাকি	-11.5594
ঙ	-11.5595
▁আস্ত	-11.5596
▁করণ	-11.5596
▁বালিশ	-11.56
▁ফলন	-11.5602
▁পাপা	-11.5604
▁বিগ	-11.5604
▁বলকে	-11.5605
▁বর্ষাকালে	-11.5605
▁হিন্দুধর্ম	-11.5606
▁এরপূর্বে	-11.5606
▁এসিড	-11.5609
▁প্রবাহের	-11.5609
▁তীব্রতা	-11.5612
▁বলিবে	-11.5612
▁সংকটে	-11.5621
▁রাজনৈতিকভাবে	-11.5623
▁প্রতিকৃতি	-11.5623
▁নো	-11.5624
▁বিনু	-11.5625
রায়	-11.5628
▁ব্যবস্থাও	-11.563
▁শতাংশ	-11.5635
▁পাপের	-11.5636
▁ভক্তির	-11.5636
▁পারতে	-11.5644
▁কেন্দ্রবিন্দু	-11.5658
▁হৈ	-11.5658
▁মুলত	-11.5659
▁লে	-11.5662
▁গিল্ড	-11.5663
▁চূড়া	-11.5664
▁রাষ্ট্রপক্ষ	-11.5666
▁কৃষ্ণদয়াল	-11.5673
▁মেহেদী	-11.5675
▁পরিযায়ী	-11.5675
▁বাধ্যবাধকতা	-11.5675
▁ক্রুদ্ধ	-11.5675
▁গৌণ	-11.5675
▁চোপড়া	-11.5675
▁উদযাপন	-11.5675
▁মেকআপ	-11.5675
▁মহামারী	-11.5675
▁কণ্ঠশিল্পী	-11.5676
▁কৃষ্ণাঙ্গ	-11.5676
▁অফিসিয়াল	-11.5676
▁সন্তোষজনক	-11.5676
▁অবরুদ্ধ	-11.5676
উম্মে	-11.5676
▁বাহ্যিক	-11.5677
▁সিদ্দিকুর	-11.5677
▁কেন্ট	-11.5678
▁ঝাল	-11.5678
▁পূর্বোক্ত	-11.5678
▁শোকে	-11.5679
▁খোঁচা	-11.568
▁পঞ্চগড়	-11.5684
▁লেজার	-11.5684
▁নতুনভাবে	-11.5684
▁জুমা	-11.5684
▁সংস্থায়	-11.5684
▁খরা	-11.5685
▁আমিনুল	-11.5687
▁উসমান	-11.5689
▁অধিবাসীরা	-11.5693
▁খেত	-11.5694
▁লাসা	-11.5702
▁বসানোর	-11.5704
▁লয়	-11.5706
▁হার্ড	-11.5707
▁আসলো	-11.5707
▁গদ্য	-11.5708
▁প্যাক	-11.5708
▁অর্থহীন	-11.5712
▁বইগুলো	-11.5712
▁ভাবার	-11.5713
▁রাজী	-11.5715
▁রাগে	-11.5715
▁বিদ্রোহীদের	-11.5715
▁মদন	-11.5721
▁প্রারম্ভ	-11.5725
প্রকৃতি	-11.5728
▁মেক্সিকোর	-11.5728
▁লখনউ	-11.573
▁ডিপ	-11.573
▁মেটাল	-11.5731
▁প্রেক্ষাগৃহে	-11.5737
▁বিমা	-11.5738
ণ্ড	-11.5739
▁দুল	-11.574
▁প্রশাসনে	-11.5743
▁শান	-11.5744
▁অধিবেশন	-11.5748
▁বৃদ্ধা	-11.575
পালন	-11.5752
▁চ্যাম্পিয়নশিপে	-11.5757
ক্রমে	-11.5759
▁দ	-11.5761
▁সোহাগ	-11.5769
▁কোয়ালিস্ট	-11.5772
▁নাহ	-11.5773
▁অন্ন	-11.5776
▁লিখিতে	-11.5776
▁অনিবার্য	-11.5777
▁ক্রোয়েশিয়া	-11.5777
▁নিমজ্জিত	-11.5777
▁মধ্যপ্রদেশ	-11.5777
▁মাইলফলক	-11.5777
▁রূপা	-11.5777
▁কূটনীতিক	-11.5777
▁পরিপন্থী	-11.5777
▁আন্দোলনকে	-11.5778
▁নির্মাণাধীন	-11.5778
▁ঝুলন্ত	-11.5778
▁চাষাবাদ	-11.5778
▁স্বেচ্ছাসেবী	-11.5778
▁কম্বল	-11.5778
▁জ্বালানী	-11.5778
▁ইয়াহিয়া	-11.5779
▁রুনা	-11.5779
▁ফরিদ	-11.5781
▁উদ্দীপনা	-11.5782
নীতি	-11.5782
টাতে	-11.5783
▁পূর্ণবাবু	-11.5785
▁পদার্থবিজ্ঞানে	-11.5786
▁আলামত	-11.5786
▁বলিলাম	-11.5786
▁এতদিনে	-11.5793
▁ফোর	-11.5795
▁দিনগুলোতে	-11.5796
▁এসবে	-11.5799
▁স্পট	-11.58
▁মদের	-11.5803
▁সেইজন্যেই	-11.5805
▁প্রভাবের	-11.5805
▁লিস্ট	-11.5805
▁কল্যাণী	-11.5806
▁দেওবন্দ	-11.5808
▁জীবাত্মা	-11.5811
▁দত্তের	-11.5811
▁কমিশনে	-11.5813
▁অফার	-11.5816
▁স্কেল	-11.5816
▁খাতায়	-11.5816
▁অনুভূতির	-11.5816
▁প্রতিনিধিরা	-11.5816
▁ইয়ার	-11.5817
▁কিসে	-11.5818
▁ফ্রন্ট	-11.5821
▁সরকারিভাবে	-11.5821
▁গুন	-11.5821
▁বাক্সে	-11.5822
▁তোলো	-11.5823
▁পড়ত	-11.5826
▁মোহাম্মদপুর	-11.5828
▁সেজে	-11.5828
▁দিলো	-11.5828
▁সমাজকে	-11.5829
বামাত্র	-11.583
উইকেট	-11.5831
▁চলেন	-11.5833
▁ফয়সাল	-11.5833
▁কার্স	-11.5837
▁পাখিটি	-11.584
▁বিজয়ে	-11.5842
▁এলি	-11.5845
চ্ছ	-11.5849
▁চালুর	-11.585
▁ক্লিনিক	-11.585
▁দীপ	-11.5853
াইল	-11.5855
▁এখানেও	-11.5859
▁গাওয়ার	-11.5859
▁ধারায়	-11.5862
▁মানুষে	-11.5866
▁মাঝি	-11.5867
▁তাঁবু	-11.5867
▁গহনা	-11.5871
পরবর্তী	-11.5872
▁টিপে	-11.5872
▁মিলান	-11.5873
▁পার্লামেন্টে	-11.5875
▁সাঁওতাল	-11.5877
▁লাগছিল	-11.5877
▁নিতান্তই	-11.588
▁উত্তপ্ত	-11.588
▁খারিজ	-11.588
▁পঞ্চায়েত	-11.588
▁বসুন্ধরা	-11.588
▁ট্যাবলেট	-11.588
▁সম্যক	-11.588
ম্ত্শান	-11.588
▁ক্ষুধার্ত	-11.588
▁অগভীর	-11.5881
▁গুপ্তচর	-11.5881
▁রৌপ্য	-11.5881
▁পুনর্নির্মাণ	-11.5881
▁অ্যালান	-11.5882
▁চতুর্দশ	-11.5883
▁স্পাইডার	-11.5883
▁ইচ্ছুক	-11.5883
▁ঝর্ণা	-11.5884
▁পন্ডিত	-11.5884
▁দুটোই	-11.5885
▁ওপেনার	-11.5885
▁ইচ্ছায়	-11.5885
▁স্বেচ্ছায়	-11.5885
▁পাইলাম	-11.5885
▁ধরলেন	-11.5887
▁উঠিয়ে	-11.5891
লাইন	-11.5891
▁স্টল	-11.5891
িয়াল	-11.5894
▁নাশতা	-11.5896
আর্ম	-11.5897
▁অনুরাগী	-11.5898
▁ভোজন	-11.5898
▁পাঠাইয়া	-11.5901
▁অংশবিশেষ	-11.5903
▁কনসার্ট	-11.5905
▁ইয়াং	-11.5907
▁আজম	-11.5908
▁পূরণে	-11.591
কুমার	-11.5911
▁তারপরেও	-11.5911
▁শ্রীলঙ্কান	-11.5913
সম্পদ	-11.5916
▁ব্যবহারকারীরা	-11.5917
▁তরঙ্গের	-11.5918
▁দাসী	-11.5918
▁দিবসে	-11.5922
▁সারিয়া	-11.5923
কল	-11.5925
▁কাশীতে	-11.5927
▁একদমই	-11.593
▁শান্তিনিকেতনে	-11.593
▁ঘরটি	-11.593
▁যাচ্ছিস	-11.5931
▁গণহত্যা	-11.5931
▁থ	-11.5932
চিন্তা	-11.5932
▁করতেও	-11.5932
মাঝে	-11.5932
▁কুন্দ	-11.5934
▁বেশিই	-11.5935
▁এসেছিস	-11.5936
▁বক	-11.5942
▁হুদা	-11.5942
▁নয়টায়	-11.5944
▁বো	-11.5945
▁ছানা	-11.5946
▁ভাইবোনের	-11.5946
▁গ্রাহ্য	-11.5951
▁প্রত্যক্ষদর্শী	-11.5954
▁কারিগর	-11.5955
▁ক্রিম	-11.5956
▁অজুহাত	-11.5958
▁মিনি	-11.5961
▁ড্রিংক	-11.5961
▁যেই	-11.5961
▁হলি	-11.5961
▁প্রণয়নের	-11.5963
▁ভাঙার	-11.5965
▁একাংশ	-11.5968
▁ভয়ের	-11.5975
▁করাইয়া	-11.5982
▁সরিষা	-11.5982
▁বার্বাডোস	-11.5983
▁সিনেমাটি	-11.5983
▁বালকের	-11.5984
▁আশুতোষ	-11.5985
▁ক্রীতদাস	-11.5985
▁প্রস্রাব	-11.5985
▁মাস্টারমশায়	-11.5985
▁শাহাদাত	-11.5985
▁দরুন	-11.5985
▁বনানী	-11.5985
▁বসেই	-11.5985
▁লোহিত	-11.5985
▁সাধারনত	-11.5985
▁সুসংবাদ	-11.5985
▁দাপ্তরিক	-11.5985
▁সর্বোত্তম	-11.5985
▁ধোয়া	-11.5986
▁বিকল	-11.5986
▁বিস্কুট	-11.5986
▁বন্যপ্রাণী	-11.5986
▁ওয়ার্ক	-11.5987
▁কোরবানি	-11.5987
▁সর্বব্যাপী	-11.5987
▁সপরিবারে	-11.5988
▁মহসিন	-11.5988
▁মূলধন	-11.5988
▁রমেশবাবু	-11.5988
▁গোপালগঞ্জ	-11.5989
▁রানে	-11.5989
▁নির্	-11.599
▁দুয়েক	-11.599
দক্ষিণ	-11.5991
▁চক্ষে	-11.5993
▁বদলি	-11.5993
▁তীর্থ	-11.5995
▁বিভাকে	-11.5997
ীক	-11.5997
▁গভীরে	-11.5998
▁ভোটাররা	-11.5998
▁মেয়ার	-11.5998
▁রূপকথা	-11.5999
▁রুখে	-11.6
র্ধ্ব	-11.6001
▁দেখেছিলাম	-11.6002
▁ভালোবাসেন	-11.6004
▁ছুরিকাঘাত	-11.6008
▁বৈশাখ	-11.6008
▁অক্ষ	-11.6009
▁আসামে	-11.6009
▁বৈশিষ্ট্যের	-11.601
▁স্নায়ু	-11.601
▁প্রায়শ্চিত্ত	-11.6016
▁অভিভাবকদের	-11.6018
▁মারব	-11.6024
▁সুনামগঞ্জ	-11.6026
▁দুর্ভিক্ষ	-11.603
▁মহম্মদ	-11.6032
▁চালাও	-11.6033
ীদের	-11.6034
▁বক্ষ	-11.6037
আপনি	-11.6043
▁পুরা	-11.6043
▁এটাতে	-11.6043
▁আলোতে	-11.6045
▁বৃদ্ধিতে	-11.6047
▁জার	-11.6047
▁কিতাব	-11.6049
▁তাকান	-11.6049
▁নুর	-11.6052
▁প্রতিবেদনটি	-11.6053
▁বাশার	-11.6054
▁দায়িত্বরত	-11.6054
▁ইভেন্টে	-11.6055
গিরি	-11.6055
▁লাগত	-11.6056
▁টিকেট	-11.6057
▁শিক্ষাগত	-11.6057
▁শুনেছ	-11.6059
▁শিরা	-11.606
▁ছিনতাইয়ে	-11.6061
▁রাজপুত	-11.6065
▁মালেক	-11.6068
স্তান	-11.607
▁জন্তু	-11.607
▁মানিকগঞ্জ	-11.6073
▁নেইমারের	-11.6074
▁ছক্কা	-11.6075
▁ভোজ	-11.6075
▁বেইজিং	-11.6076
▁ছিনতাইকারী	-11.6079
▁ঘানা	-11.6084
▁টুইটারে	-11.6085
▁শর্ট	-11.6087
▁পুঁজি	-11.6088
য়াল	-11.6088
▁পনের	-11.6089
▁ক্রমান্বয়ে	-11.609
▁রওশন	-11.609
▁সাতকানিয়া	-11.609
▁সোর্স	-11.609
▁গাঁজা	-11.609
▁লিনেট	-11.609
▁নালিশ	-11.609
▁খাবারে	-11.609
▁টেকনিক্যাল	-11.609
▁হরলাল	-11.609
▁হুসেন	-11.609
▁দাম্পত্য	-11.6091
▁বাঙলা	-11.6091
▁ডেলিভারি	-11.6091
▁পেট্রলবোমা	-11.6091
▁পারিশ্রমিক	-11.6092
▁পড়লাম	-11.6092
▁নব্য	-11.6092
▁তত্ত্বটি	-11.6093
▁খাগড়াছড়ি	-11.6093
▁নজির	-11.6093
▁সঞ্জয়	-11.6094
▁দিচ্ছিলেন	-11.6094
▁চেনো	-11.6094
পাশে	-11.6095
▁কমেডি	-11.6095
▁ইচ্ছার	-11.6096
▁সফলতম	-11.6097
▁তাহলেই	-11.6098
▁বুলগেরিয়া	-11.6099
ভাতা	-11.6099
▁লাভবান	-11.6099
▁বেক	-11.6101
▁ফিরোজের	-11.6101
▁আবহ	-11.6102
▁পারলেও	-11.6103
▁মানিয়া	-11.6104
বোন	-11.6104
▁সাধ	-11.6108
▁গাছগুলো	-11.6113
▁কোর্সে	-11.6113
▁মারবে	-11.6114
▁দেওবন্দি	-11.6114
▁কমলাপুর	-11.6117
▁পরিবর্তনে	-11.6118
▁পাঠিয়েছি	-11.612
▁প্রতিষ্ঠানগুলোর	-11.6121
▁পরিবারটি	-11.6123
লুম	-11.6123
▁গাই	-11.6123
▁ব্রাহ্মণের	-11.6125
▁তাইনা	-11.6125
▁পুরু	-11.6126
এল	-11.6126
▁ঘরানার	-11.6128
▁ডাইনি	-11.6128
▁শোনান	-11.613
▁বোমার	-11.6131
▁নার্সিং	-11.6132
তলে	-11.6135
সেবা	-11.6145
▁সুইডেনের	-11.6145
▁ক্রুজ	-11.6147
▁বেজে	-11.615
মেই	-11.6151
▁ব্যাধি	-11.6154
▁আঞ্জুমান	-11.6154
সমূহে	-11.6156
▁খোকন	-11.6157
▁লেবানন	-11.616
▁মায়ার	-11.6161
▁লিখেছি	-11.6163
▁ভাবছো	-11.6165
▁হাদীসের	-11.6165
▁শত্রুদের	-11.6168
▁শ্যামল	-11.6168
▁হাসানের	-11.6169
▁ভয়েস	-11.6172
▁হালিম	-11.6177
স্ব	-11.6179
▁ক্ষমতাসীন	-11.618
▁ক্ষণে	-11.6182
▁মুরাদ	-11.6184
▁মাদার	-11.6184
▁বেগুন	-11.6185
▁মহাশয়	-11.6186
▁চাঁপাইনবাবগঞ্জ	-11.6186
▁ইশারা	-11.6186
▁কর্মস্থলে	-11.6188
▁সরো	-11.6192
▁পাথরে	-11.6192
কান্ত	-11.6193
▁পুরস্কারটি	-11.6194
▁রানার	-11.6195
▁প্রেসক্লাব	-11.6196
▁হিজরত	-11.6196
▁আলেকজান্ডার	-11.6196
▁ক্যান্টারবারি	-11.6196
▁মিডফিল্ডার	-11.6196
▁সলিমুল্লাহ	-11.6196
▁সুবিধার্থে	-11.6196
▁আর্জেন্টাইন	-11.6196
▁নিছক	-11.6196
▁সুইডিশ	-11.6196
▁পতিতাবৃত্তি	-11.6196
▁প্রকাণ্ড	-11.6196
▁ম্যানেজমেন্ট	-11.6196
▁চিরস্থায়ী	-11.6196
▁করিডোর	-11.6196
▁সুনীল	-11.6196
▁বগি	-11.6196
▁রিপন	-11.6196
▁পড়ুন	-11.6197
▁বাঁহাতি	-11.6197
▁আচরণবিধি	-11.6197
▁আলোড়ন	-11.6197
▁ধুম	-11.6197
▁বারাণসী	-11.6198
▁দ্রুতপদে	-11.6198
▁পোড়ানো	-11.62
▁আয়কর	-11.62
▁জামিয়া	-11.6201
▁সাইন্স	-11.6201
▁স্মৃতিসৌধ	-11.6201
▁পুরী	-11.6202
▁অ্যাংলো	-11.6203
ওয়ার্ড	-11.6204
▁দেখবো	-11.6205
▁বড়ি	-11.6207
▁উপাখ্যান	-11.6209
বর্ণ	-11.6209
▁পটভূমিতে	-11.6212
▁এলাহাবাদ	-11.6213
▁অবশ্যি	-11.6221
▁অজুহাতে	-11.6223
প্রতি	-11.6227
▁যেমনঃ	-11.6228
▁ধারাবাহিকটি	-11.6229
▁কতজন	-11.6231
▁রাজাকার	-11.6233
▁আপেক্ষিকতা	-11.6239
ডে	-11.6239
লেও	-11.6239
▁ব্যাঙ্ক	-11.6243
▁দিব্য	-11.6244
গার	-11.6245
▁ইউক্রেন	-11.6245
▁ব্যানার	-11.6247
▁আইস	-11.6249
▁দাবির	-11.625
▁রজনী	-11.6253
▁উদ্যানটি	-11.6255
▁কল্যাণের	-11.6263
▁ঘি	-11.6265
▁আশ্রমের	-11.6266
▁লোকালয়	-11.6266
▁পাঠকের	-11.6267
▁ব্লকটি	-11.6269
▁সংবাদমাধ্যম	-11.627
▁ত্রিপুরার	-11.6271
▁জানানোর	-11.6271
▁শূকর	-11.6273
মেইল	-11.6274
▁সৌদ	-11.6284
▁প্রতীক্ষা	-11.6292
ূ	-11.6292
▁ফটো	-11.6294
▁কংগ্রেসে	-11.6295
▁সালমা	-11.6296
▁অসম্মান	-11.6296
▁কম্পিউটারের	-11.6297
▁মানদণ্ড	-11.6297
▁হাউজ	-11.6299
▁সংস্কারক	-11.6299
গল	-11.6299
▁অ্যান্ড্রু	-11.6303
▁অনানুষ্ঠানিক	-11.6304
▁অপরিবর্তিত	-11.6304
▁ইকুয়েডর	-11.6304
▁জনৈক	-11.6304
▁দূর্দান্ত	-11.6304
▁ন্যস্ত	-11.6304
▁সলোমন	-11.6304
▁চিরতরে	-11.6304
▁প্লট	-11.6304
▁মুখার্জি	-11.6304
▁দেখভাল	-11.6304
▁কবুল	-11.6304
▁দীর্ঘমেয়াদি	-11.6304
▁শামিল	-11.6304
▁স্যাটেলাইট	-11.6305
▁উৎকৃষ্ট	-11.6305
▁বিনষ্ট	-11.6305
▁ডোমেইন	-11.6306
▁বুনো	-11.6306
▁মুজিব	-11.6307
▁জ্যাকেট	-11.6307
▁ফিকহ	-11.6309
▁অহিংসা	-11.6309
▁খেলেছে	-11.6309
দ্রে	-11.6309
▁ভাট	-11.6312
▁সংক্রামক	-11.6312
▁উঠলেন	-11.6312
▁ঘোষের	-11.6313
▁বিপাকে	-11.6314
▁সম্প্রদায়কে	-11.6316
▁পীর	-11.6316
▁পাড়ায়	-11.6319
▁সোফা	-11.632
▁জিতলে	-11.6321
▁বক্তারা	-11.6321
▁চললে	-11.6324
▁সনি	-11.6325
▁মুন	-11.6326
▁পারতো	-11.6332
▁বিধাতা	-11.6334
▁দিতেছি	-11.6335
▁বহুকাল	-11.6336
বাস	-11.6337
▁অধ্যায়ে	-11.6339
▁নালা	-11.6342
▁হাস্য	-11.6345
▁অ্যাওয়ার্ড	-11.6345
▁অন্তর্ভুক্তি	-11.6346
▁রাষ্ট্রবিজ্ঞান	-11.6348
▁নেট	-11.6352
▁এতকাল	-11.6354
▁অতটা	-11.6356
▁সামার	-11.6358
▁গণহত্যার	-11.6359
▁ভিক্টোরিয়ার	-11.636
▁ডাকো	-11.6361
শিপ	-11.6363
▁আজহার	-11.6367
▁ছিলনা	-11.6373
▁পড়ব	-11.6377
▁এমনটাই	-11.6377
▁কাপড়ে	-11.6383
দাস	-11.6385
রিয়া	-11.6386
▁শৌখিন	-11.6386
▁করুণার	-11.6388
▁প্রতিপালকের	-11.6392
▁ভাষাগুলি	-11.6392
▁রাই	-11.6395
▁উচ্চতার	-11.6399
▁টোকিও	-11.64
▁শিট	-11.6401
▁পুরুষরা	-11.6405
▁ঘ্রাণ	-11.6405
▁জেরে	-11.6405
▁শুটু	-11.6407
▁বান	-11.641
▁ল্যাবরেটরি	-11.6411
▁ভৌত	-11.6411
▁সুভাষ	-11.6412
▁আন্দামান	-11.6412
▁স্টুয়ার্ট	-11.6412
▁কান্নাকাটি	-11.6412
▁ফখরুল	-11.6413
▁রাখছে	-11.6413
▁সিনহা	-11.6413
▁শাহজালাল	-11.6413
▁স্বতঃস্ফূর্ত	-11.6413
▁সগুণ	-11.6413
▁অন্যমনস্ক	-11.6414
▁সাত্তার	-11.6414
▁হাজী	-11.6414
▁কুমুদিনী	-11.6414
▁ডার্ক	-11.6416
▁বাগদাদে	-11.6417
▁বাপু	-11.6418
▁ভার্জিনিয়া	-11.6418
▁এঁকে	-11.6419
▁প্রস্তাবটি	-11.6422
▁মনেহয়	-11.6424
▁চকিত	-11.6425
▁সঞ্চালন	-11.6426
▁গেটে	-11.6427
হে	-11.6427
▁জঙ্গিরা	-11.6429
▁হাসে	-11.6429
▁মহাকাশে	-11.643
▁নৃত্যের	-11.6433
রুদ্ধ	-11.6433
পাকিস্তান	-11.6434
▁দোতলায়	-11.6435
▁সইতে	-11.6439
▁টেলর	-11.6439
▁মেহের	-11.644
▁ছেলেটার	-11.6441
▁পণ	-11.6441
▁মর	-11.6446
▁নেভা	-11.645
▁মরু	-11.6452
▁শুভ্র	-11.6453
▁ওয়েন	-11.6453
▁ঘরটা	-11.6456
▁গাজীপুরে	-11.6458
▁অনুপাত	-11.6459
▁বার্সার	-11.646
▁সেটিও	-11.646
▁মুহূর্তেই	-11.6461
সম্ভব	-11.6462
▁মিসর	-11.6463
▁মিরপুরে	-11.6464
▁প্রদানে	-11.6468
▁অর্থনীতিবিদ	-11.647
▁পুরুষেরা	-11.6472
শতরান	-11.6473
▁হরিয়ানা	-11.6473
▁ভোরবেলা	-11.6475
▁টসে	-11.6475
▁বোস	-11.6478
▁টানতে	-11.6487
▁হতাহতের	-11.6491
▁মদীনা	-11.6492
▁কালার	-11.6498
▁দিকটি	-11.6498
▁ঘুমানোর	-11.6499
▁অন্তরালে	-11.6504
▁আগ্রা	-11.6506
▁ভর্তা	-11.6507
▁বাঁচি	-11.6508
▁ধর্মনিরপেক্ষ	-11.6508
▁নদে	-11.6511
▁গুলশানে	-11.6512
▁মলিন	-11.6512
▁চালাক	-11.6513
▁নিরাশ	-11.6513
▁অপ্রত্যাশিত	-11.6516
▁পট	-11.6516
▁প্রশ্নটা	-11.6517
▁মুক্তা	-11.6517
▁দুঃখজনক	-11.6517
▁নিরাময়	-11.652
▁গোঁড়া	-11.6522
▁প্রজ্ঞা	-11.6522
▁বোলো	-11.6522
▁উয়েফা	-11.6522
▁ওলন্দাজ	-11.6522
▁নারিকেল	-11.6522
▁পদার্পণ	-11.6522
▁বারংবার	-11.6522
▁সপ্তদশ	-11.6522
▁উমাইয়া	-11.6523
▁ব্রাদার্স	-11.6525
▁যাদবপুর	-11.6525
▁বোসো	-11.6526
▁চাকুরি	-11.6526
▁দৃষ্টিশক্তি	-11.6526
▁মহাজ	-11.6527
▁থাইল্যান্ডে	-11.6527
▁পপ	-11.6527
▁কার্ডের	-11.6528
ান্বিত	-11.6529
▁জিহ্বা	-11.653
▁ওয়াহিদ	-11.6534
▁গ্রিস	-11.6535
▁নবীনের	-11.6536
▁কোম্পানিগুলো	-11.6539
▁ক্যান্টনমেন্ট	-11.6541
▁গুণগত	-11.6542
▁বাবুর	-11.6542
▁রঞ্জিত	-11.6543
▁কৃষ্ণনগর	-11.6544
▁অনুশীলনে	-11.6546
▁শ্রবণ	-11.6547
▁গোঁফ	-11.6547
▁মৌসুমী	-11.6554
▁দামেস্ক	-11.6554
▁স্বাভাবিকভাবে	-11.6557
▁জন্যেও	-11.6559
▁মিশ্রিত	-11.656
▁চেয়েছে	-11.6566
▁ভাইয়েরা	-11.6566
▁গ্যাং	-11.6568
▁অনুসারীদের	-11.6571
▁এলাকাগুলি	-11.6571
▁আত্মগোপন	-11.6572
খান	-11.6573
▁বামে	-11.6578
▁আমলা	-11.6582
▁স্টেশনগুলি	-11.6583
▁বায	-11.6584
▁বন্ধে	-11.6584
▁পদমর্যাদা	-11.6587
▁আদরের	-11.6597
▁আবেগের	-11.6598
▁ওরকম	-11.6599
▁আহতদের	-11.6602
▁উঠ	-11.6605
▁প্রথমটি	-11.6607
সান	-11.6611
▁ফ্যাক্টরি	-11.6611
▁জানিনা	-11.6611
ভেদে	-11.6612
▁লক	-11.6616
▁ফুটপাত	-11.6617
▁সাথী	-11.6618
▁মেরিল	-11.6618
▁জান্নাত	-11.6622
▁সীতাকুণ্ড	-11.6624
▁ফ্রেন্ড	-11.6626
▁উদ্ধৃত	-11.6628
▁রয়েছি	-11.6631
▁পরমহংস	-11.6633
কারীরা	-11.6633
▁অলাভজনক	-11.6633
▁পরিচর্যা	-11.6633
▁প্লাবিত	-11.6633
▁ভবিষ্যদ্বাণী	-11.6633
▁যিশু	-11.6633
▁কৈলাস	-11.6633
▁রোহান	-11.6633
গঠিত	-11.6634
▁তিতাস	-11.6634
▁অয়েল	-11.6634
▁রাঙামাটি	-11.6635
▁বাধাগ্রস্ত	-11.6635
▁ফিটনেস	-11.6635
▁মরিনহো	-11.6635
▁সম্বোধন	-11.6636
▁নবজাতক	-11.6636
▁তাসত্ত্বেও	-11.6637
▁আফজাল	-11.6637
ভাগ	-11.6638
▁অর্থমন্ত্রী	-11.6639
▁সেমিনার	-11.6641
▁চাঁদাবাজি	-11.6642
▁চৌম্বক	-11.6642
▁অনাথ	-11.6642
▁গবেষণাপত্র	-11.6642
▁টুইট	-11.6644
▁বেতনের	-11.6648
▁দ্বীপপুঞ্জে	-11.6649
▁বৈধতা	-11.665
ইল	-11.665
▁ওটার	-11.6652
লাভের	-11.6654
▁রক্ষক	-11.6654
▁ঘরেই	-11.6656
▁ছাড়বে	-11.6656
▁উপাদানগুলি	-11.6657
▁সময়সীমা	-11.6658
▁আসবি	-11.6659
▁উপকারী	-11.6659
▁মশা	-11.6661
▁ভক্তরা	-11.6663
▁কাফির	-11.6664
▁কামড়ে	-11.6665
▁জেস	-11.6665
▁ভ্যানে	-11.6667
▁বিদ্বেষ	-11.6671
বাগত	-11.6673
পথ	-11.6674
▁খামারে	-11.6674
▁অগ্নিকাণ্ডে	-11.6676
▁অকল্যান্ড	-11.6676
▁তরুণী	-11.6685
▁ব্যক্তিগণ	-11.6686
পয়লা	-11.6688
▁দেওয়ালে	-11.6691
নিয়োগ	-11.6695
বহুল	-11.6695
▁শৈবাল	-11.6696
▁ধরিতে	-11.67
▁তোমারই	-11.6702
▁জোগান	-11.671
▁তাহের	-11.6713
▁বিদ্যাসাগর	-11.6715
গি	-11.6715
▁ওজনের	-11.6715
▁দিতেছে	-11.6722
উদ্দিন	-11.6723
▁ড্রাম	-11.6724
▁খালেক	-11.6725
▁ওয়াই	-11.6727
▁বার্লিনে	-11.6731
▁আরাকান	-11.6731
▁দায়বদ্ধ	-11.6731
▁ভিয়েনা	-11.6731
▁লিফট	-11.6732
▁আম্মা	-11.6733
▁গ্রীষ্মকালে	-11.6734
▁সহজলভ্য	-11.6735
▁শ্যাম	-11.6737
▁দেখেনি	-11.6738
▁বাগেরহাট	-11.6739
▁খাওয়াতে	-11.6741
▁কটা	-11.6741
▁কংক্রিট	-11.6746
▁নিরন্তর	-11.6746
▁মন্ত্রিপরিষদ	-11.6746
▁সুবিশাল	-11.6746
▁সিয়েরা	-11.6746
▁সোডিয়াম	-11.6746
▁প্রবাল	-11.6746
▁জয়নুল	-11.6746
▁পেনশন	-11.6746
▁আঁকড়ে	-11.6746
▁সর্দি	-11.6746
▁ফিরছিলেন	-11.6746
▁সন্তোষ	-11.6746
▁দোকানপাট	-11.6747
▁ব্রাশ	-11.6747
▁কারওয়ান	-11.6748
▁সম্প্রীতি	-11.6748
▁প্রাচীনকাল	-11.6749
▁নানাপ্রকার	-11.6749
▁হেয়ার	-11.6749
▁করিতেছ	-11.675
পশ্চিমাংশে	-11.6751
▁মান্না	-11.6751
▁ঐতিহ্যগতভাবে	-11.6751
▁পৃষ্ঠা	-11.6752
▁পটিয়া	-11.6754
▁বসলেন	-11.6754
গাছ	-11.6754
▁থাকলেন	-11.6755
▁রোল	-11.6755
োক্ত	-11.6756
▁গ্রেড	-11.6756
▁বিস্তারে	-11.6757
▁মির্জাপুর	-11.6757
▁ছাড়ো	-11.6757
▁মাদ্রাসায়	-11.6758
▁সহজভাবে	-11.6759
▁ব্যতিক্রমী	-11.676
▁রিয়েল	-11.676
▁মেরুদণ্ড	-11.676
▁রঞ্জন	-11.6762
▁কারনে	-11.6764
▁নিউক্লিয়াস	-11.6766
াব	-11.6766
▁সরাতে	-11.6766
▁নিরসনে	-11.6766
▁কাঁধ	-11.6768
▁ম্যাগাজিনের	-11.6771
▁রেস্তোরাঁয়	-11.6774
▁দানা	-11.6775
▁হয়েছ	-11.6776
▁অনুপম	-11.6779
▁জেরি	-11.6782
▁ডিসেম্বরে	-11.6782
▁অই	-11.6785
▁স্টুডিওতে	-11.6789
▁দ্বিতীয়টি	-11.679
▁গোড়ায়	-11.6793
দুর	-11.6793
▁মশাই	-11.6794
▁মর্ম	-11.6796
▁গবেষকদের	-11.68
▁মানায়	-11.6801
শক্তির	-11.6801
▁প্রবৃত্তি	-11.6804
▁স্থাপনে	-11.6807
▁এককভাবে	-11.6812
ৌ	-11.6815
▁তোমাকেই	-11.6816
▁মিতা	-11.6816
▁খুলি	-11.6817
▁ইউনিভার্সিটিতে	-11.6817
▁ললিত	-11.682
▁এটুকুই	-11.6821
▁তাগিদে	-11.6824
▁কাশেম	-11.6825
▁আশরাফুল	-11.6829
▁নিয়েছিলাম	-11.6829
▁রাজ্যগুলি	-11.683
▁গড়ার	-11.6836
াচ্ছে	-11.6839
▁কবিদের	-11.6839
▁সেঞ্চুরির	-11.6839
▁দুপাশে	-11.6841
▁মেয়রের	-11.6843
কয়েক	-11.6844
ল্লা	-11.6846
▁মাহফুজ	-11.6848
দেব	-11.6852
▁বিক্ষিপ্ত	-11.6852
▁অ্যাডাম	-11.6854
▁পরনে	-11.6854
▁অবিনাশ	-11.6854
▁খেলছে	-11.6855
▁অভিনব	-11.6856
▁সম্বল	-11.6856
▁জার্নালে	-11.6857
▁জেদ	-11.6858
▁গুড়	-11.6858
▁জমিয়ে	-11.6859
▁মতিকে	-11.6859
▁ব্যাচেলর	-11.6859
▁রামপাল	-11.6859
▁জনবসতি	-11.6859
▁মেমোরিয়াল	-11.6859
▁অবিরাম	-11.6859
▁উপাস্য	-11.6859
▁নির্বাক	-11.6859
▁আওতাভুক্ত	-11.686
▁কাঁচামাল	-11.686
▁আলতাফ	-11.686
▁ভোটাধিকার	-11.686
▁পিকচার্স	-11.686
▁যোগাড়	-11.686
▁পক্ষান্তরে	-11.686
▁রাজতন্ত্র	-11.686
▁সোশ্যাল	-11.686
▁বিকট	-11.686
▁রেজিস্ট্রার	-11.686
▁আরোগ্য	-11.686
▁মিষ্টান্ন	-11.6861
▁ব্যক্তিবর্গ	-11.6861
▁এলোপা	-11.6861
▁মিডল	-11.6861
▁পীড়া	-11.6862
▁এনামুল	-11.6862
▁আগাছা	-11.6863
অ্যান্টিবায়োটিক	-11.6863
▁আগ্নেয়গিরি	-11.6864
▁ঘটক	-11.6864
▁পশ্চাৎ	-11.6865
▁উমা	-11.6865
▁সমাগম	-11.6866
▁সংযম	-11.6867
▁লাগিলাম	-11.6867
▁চারিদিক	-11.6867
▁যাচ্ছিলাম	-11.6868
▁আনুষ্ঠানিকতা	-11.6869
খালী	-11.6871
▁উল্লাহ	-11.6872
▁চুম্বক	-11.6873
র্জে	-11.6874
▁উপরেই	-11.688
▁প্রকৃতিকে	-11.6882
▁গর্ভাবস্থা	-11.6884
▁বাস্তবতার	-11.6886
▁সেটিকে	-11.6888
▁পারলেই	-11.6888
▁দেখাবো	-11.6888
▁সিলিন্ডার	-11.6889
স্থান	-11.689
▁অলিম্পিকের	-11.6891
▁সংবলিত	-11.6891
▁কয়টা	-11.6892
▁উপমহাদেশের	-11.6893
বতী	-11.6894
▁চলেছি	-11.6896
▁যুগল	-11.69
▁কারণটা	-11.69
▁মূলধারা	-11.69
▁চাইলেই	-11.6907
▁মনো	-11.6907
▁শিক্ষামূলক	-11.6907
▁ভোগের	-11.6908
▁ভাবনার	-11.6908
▁কিউবা	-11.6911
▁মঙ্গোল	-11.6916
▁লু	-11.6918
▁মঙ্গোলিয়া	-11.6918
▁চি	-11.692
াত্মক	-11.6922
কান্দি	-11.6923
সবুজ	-11.6925
▁পুনর্বা	-11.6925
▁প্রা	-11.6925
▁মহিমা	-11.6928
▁নবীর	-11.6929
▁কারবার	-11.6931
▁লেন্স	-11.6932
▁বিস্ফোর	-11.6936
▁আদ	-11.6937
▁ভিয়েতনামে	-11.6937
▁লামার	-11.6943
▁বান্দা	-11.6944
▁ভেবেছিল	-11.6946
▁এড়ানো	-11.6949
▁চাওয়ার	-11.6949
ক্ষেত্রে	-11.6951
স্বয়ংক্রিয়ভাবে	-11.6953
▁ক্যামেরায়	-11.6957
▁পাদদেশে	-11.6958
▁আখড়া	-11.696
▁কামড়	-11.696
▁ম্যালেরিয়া	-11.6961
▁মাঝেই	-11.6967
▁থাকাটা	-11.6968
লিক	-11.6969
▁আমোদ	-11.697
▁লোপ	-11.697
▁বিক্রেতা	-11.6971
▁ক্ষত্রিয়	-11.6971
▁সংমিশ্রণ	-11.6972
▁ফলক	-11.6972
▁অ্যালকোহল	-11.6974
▁পঙ্গু	-11.6974
▁প্রাণায়াম	-11.6974
▁মাদরাসা	-11.6974
▁লার্নিং	-11.6974
▁জাভেদ	-11.6974
▁সর্বজনীন	-11.6975
অত্যাধুনিক	-11.6975
▁অপরূপ	-11.6975
▁অন্তর্বর্তী	-11.6975
▁চলি	-11.6975
▁অভাবনীয়	-11.6975
▁লম্বাটে	-11.6976
▁আবদার	-11.6976
▁সর্বোপরি	-11.6976
▁কয়দিন	-11.6976
▁উঠা	-11.6977
▁ভুমিকা	-11.6977
▁বন্ধুত্বপূর্ণ	-11.6977
▁কষ্টকর	-11.6978
▁কালু	-11.6979
▁ক্যাটরিনা	-11.6979
▁সেগুলির	-11.698
দিগের	-11.698
▁সদয়	-11.6983
▁রহমত	-11.6984
▁পেয়েছো	-11.6986
▁ভূখণ্ডে	-11.6988
▁আর্থার	-11.6989
ালি	-11.6989
▁দেখিয়েছে	-11.699
▁আওয়ামীলীগ	-11.6991
▁জিমি	-11.6993
▁খাতিরে	-11.6994
▁বংশধররা	-11.6995
▁তফাত	-11.6996
▁তল	-11.6996
▁টয়লেট	-11.7
▁টোল	-11.7
▁বালুর	-11.7002
▁করিয়াছিলাম	-11.7005
▁শৃঙ্খল	-11.7006
▁পড়ছেন	-11.7006
▁লক্ষ্যমাত্রা	-11.7007
▁আদায়ে	-11.7007
▁গোলা	-11.7011
▁পাঠ্য	-11.7012
ঘ	-11.7015
▁ঘাতক	-11.702
▁অফিসারের	-11.7022
▁ফিরিতে	-11.7022
▁গানগুলি	-11.7022
▁প্রি	-11.7027
▁কোনোকিছু	-11.7027
▁কর্মচারীরা	-11.7031
দল	-11.7034
▁উহ	-11.7036
প্রণালী	-11.7037
▁ইতালিতে	-11.7038
▁কাব্যগ্রন্থ	-11.7038
্যান্ট	-11.704
▁হওয়াটা	-11.7043
▁যেতো	-11.7043
▁সাল	-11.7046
▁ভাঙ্গা	-11.7048
▁ব্যাকটেরিয়া	-11.705
▁হেল	-11.7053
▁মূল্যের	-11.7053
▁ধরবে	-11.7057
▁মুসলিমরা	-11.7058
▁কার্যের	-11.706
▁অ্যান্ডারসন	-11.706
▁ঐশ্বর্য	-11.7066
▁দেশেও	-11.7067
▁আর্ম	-11.7067
▁বৈ	-11.7068
▁সহচর	-11.7073
▁মহড়া	-11.7076
▁বিড়ালটা	-11.7081
▁মিছিলে	-11.7083
▁একচেটিয়া	-11.7091
▁জগমোহন	-11.7091
▁কুইন্সল্যান্ড	-11.7091
▁আর্সেনাল	-11.7091
▁নওয়াজ	-11.7091
▁সোহরাওয়ার্দী	-11.7091
▁মুশফিকুর	-11.7091
▁ব্রিগেড	-11.7091
▁ওয়াদা	-11.7091
▁উদ্ভট	-11.7092
▁নিম্নমানের	-11.7092
▁বডি	-11.7093
▁নিঃশেষ	-11.7095
▁পৌঁছেছে	-11.7095
▁জনবল	-11.7096
▁তাকালেন	-11.7096
বাছাই	-11.7098
▁দ্বৈতবাদী	-11.7099
▁লাওস	-11.7099
▁স্ট্যান্ড	-11.7099
▁আন্ত	-11.71
▁জ্বলছে	-11.7104
▁উঠলে	-11.7105
▁ফিরবে	-11.7107
মাতার	-11.7114
▁সিনেট	-11.7115
▁দরদ	-11.7121
▁রাজবাড়ি	-11.7128
▁গুম	-11.7131
▁ভদ্রতা	-11.7133
▁সাহেবকে	-11.7138
▁আঁচল	-11.7139
▁মুশফিক	-11.7139
▁হাওয়ায়	-11.7141
▁চারপাশ	-11.7143
▁তাতেও	-11.7144
▁ছাত্রজীবন	-11.7147
▁দাতা	-11.7152
▁উত্তরণ	-11.7153
▁ঠাকুরগাঁও	-11.7154
প্রতিষ্ঠানের	-11.7156
▁রাখাল	-11.7157
▁ইসরায়েলে	-11.7157
▁পিচ্চি	-11.7158
▁সিএনজি	-11.7163
▁বিলে	-11.7163
▁মিলবে	-11.7163
▁সম্ভাবনার	-11.7167
▁ডেল	-11.7167
▁বর্ণমালা	-11.7168
▁বললেও	-11.7171
▁তখনি	-11.7172
▁স্ত্রীলোক	-11.7173
▁স্রোতে	-11.7174
▁তালে	-11.7176
▁গৃহস্থ	-11.7177
▁অপরাজিত	-11.7177
▁টেন্ডুলকার	-11.7181
▁রৌদ্র	-11.7183
▁লোকটার	-11.7188
▁একশ	-11.7189
▁অশ্লীল	-11.7192
▁নিরীক্ষা	-11.7192
▁শহরটিতে	-11.7193
▁ডায়েরি	-11.7194
▁টিলা	-11.7195
▁সংবেদনশীল	-11.7196
▁দৈর্ঘ্যের	-11.7198
▁পলাশ	-11.7198
দো	-11.7201
▁আচরণে	-11.7207
▁উপস্থাপক	-11.7208
▁কমিউনিটি	-11.7208
▁কেরোসিন	-11.7208
▁মওলা	-11.7208
▁মেজোরানী	-11.7208
▁শিক্ষানবিশ	-11.7208
▁নিম্নলিখিত	-11.7208
▁অতুলনীয়	-11.7208
▁নাৎসি	-11.7208
▁লুটপাট	-11.7208
▁ঘুমুতে	-11.7208
▁মাঝপথে	-11.7209
▁উচু	-11.7209
▁মাথাব্যথা	-11.7209
▁ছাড়পত্র	-11.7209
▁ভেবো	-11.7209
▁লেখে	-11.7209
▁শফিক	-11.7209
সেদ্ধ	-11.721
▁পরামর্শদাতা	-11.721
▁ঘটনাগুলো	-11.721
▁শ্রুতি	-11.7211
▁পুঁতে	-11.7211
▁কালক্রমে	-11.7211
▁তরকারি	-11.7212
▁স্বাস্থ্যকর	-11.7212
▁ঘেরাও	-11.7212
▁বোরো	-11.7212
▁চিঠিখানা	-11.7213
▁গৌরী	-11.7213
▁আজিজুল	-11.7214
▁বড়দিন	-11.7214
▁আপাত	-11.7214
▁লওয়া	-11.7214
▁চিত্রনাট্যকার	-11.7215
▁বয়েজ	-11.7216
▁আমাকেই	-11.7218
▁চন্দ্রবাবু	-11.7218
▁আসবা	-11.7219
▁ছেলেমানুষ	-11.7221
▁কাই	-11.7222
▁মানুষও	-11.7222
▁মেসিকে	-11.7223
▁রোগা	-11.7225
তুল	-11.7229
▁স্বাচ্ছন্দ্য	-11.7229
▁ধারক	-11.723
▁নভেম্বরে	-11.7231
▁ক্ষেতে	-11.7235
শান	-11.7238
▁পুরষ্কার	-11.7239
▁যেগুলি	-11.7239
▁কোরিয়ান	-11.724
শিল্প	-11.7241
▁দেখছিস	-11.7242
▁কুচি	-11.7243
ছোস	-11.7244
▁লোকগুলো	-11.7245
▁বরিশালে	-11.7245
▁কেটি	-11.7246
▁ধরলে	-11.7246
▁ভালোবেসে	-11.7248
▁ইঞ্জিনের	-11.7249
▁বকে	-11.725
▁যায়েদ	-11.725
কান	-11.725
▁সিদ্দিক	-11.7252
▁উহাতে	-11.7255
▁ভবনগুলো	-11.7257
▁আমন	-11.7259
সিক	-11.7264
▁সাক্ষাৎকারে	-11.7265
▁রকমে	-11.727
▁ভক্তের	-11.7271
▁সাইড	-11.7273
▁দ্বিতীয়ার্ধে	-11.7275
▁প্রহর	-11.7276
▁প্রমাণের	-11.7277
ঙ্ক	-11.7277
▁রিও	-11.7278
▁ইহুদিদের	-11.7279
▁খোয়া	-11.728
▁আশাকে	-11.728
▁ফোরাম	-11.7281
▁জরিপে	-11.7291
▁সতীর্থ	-11.7295
▁মারো	-11.7296
▁পাইয়ে	-11.7298
▁জলদস্যু	-11.7299
▁ভেন্যু	-11.73
▁প্রাণকেন্দ্র	-11.7304
▁ইহারা	-11.7307
▁শ্রদ্ধার	-11.7309
▁জামিল	-11.731
▁চড়	-11.7312
▁হবি	-11.7314
▁প্রকট	-11.7315
একা	-11.7315
▁যৌক্তিক	-11.732
▁ফেরদৌস	-11.7321
▁ব্রাহ্মসমাজ	-11.7324
▁বামন	-11.7325
▁বহুতল	-11.7325
▁ক্যাম	-11.7326
▁মোহনা	-11.7327
▁অনবদ্য	-11.7327
▁কাকতালীয়	-11.7327
▁জনশ্রুতি	-11.7327
▁রাবণ	-11.7327
▁কৃতকার্য	-11.7327
▁পোন্নি	-11.7327
▁প্রবক্তা	-11.7327
▁পারফর্ম	-11.7327
▁নিউট্রন	-11.7328
▁গার্মেন্টস	-11.7328
▁শেয়ারধারী	-11.7328
▁অকপট	-11.7328
▁খিদে	-11.7328
▁যুদ্ধবিরতি	-11.7328
▁প্রসারে	-11.7328
▁রূপক	-11.7328
▁ফাইবার	-11.7329
▁তরমুজ	-11.7329
▁একইসাথে	-11.7329
▁বুলিয়ে	-11.7329
▁ডারউইন	-11.7329
▁চুড়ি	-11.7331
▁নাজিম	-11.7332
▁এএফসি	-11.7333
▁পৌঁছিল	-11.7334
▁অভয়	-11.7334
▁উদ্বেগের	-11.7335
▁বিক্রেতারা	-11.7336
▁গাঁয়ে	-11.7336
▁সংগীতে	-11.7337
▁যাদবের	-11.7338
মালা	-11.734
▁কমলাকে	-11.734
▁বাঘা	-11.7341
▁পিতৃ	-11.7342
▁গ্রন্থি	-11.7343
▁সর্বস্তরে	-11.7344
বহ	-11.7349
▁বিবৃতিতে	-11.7351
▁সংস্করণের	-11.7353
প্রকার	-11.7353
ছাড়া	-11.7356
▁দুবাইয়ে	-11.7357
▁পদার্থবিদ্যা	-11.736
▁কাশ্মীরি	-11.7367
লোক	-11.7367
▁পুর	-11.7368
▁চিকিৎসায়	-11.737
▁বলেছো	-11.7372
▁পদ্ধতিটি	-11.7373
▁নজরুলের	-11.7375
▁ব্রহ্মের	-11.7383
▁কঠোরভাবে	-11.7387
▁আমিরাতে	-11.7388
▁বটেই	-11.7388
▁রিয়ালের	-11.7389
▁কান্নার	-11.7389
পুং	-11.7394
▁কুরআনে	-11.7395
▁আরকি	-11.7402
▁দৃঢ়তা	-11.7402
▁কথাসাহিত্যিক	-11.7404
▁হাজি	-11.7404
▁খেয়েছি	-11.7408
▁রহিমা	-11.7412
▁খাওয়ানো	-11.7414
▁পাপড়ি	-11.7415
▁পেরেছ	-11.7417
বিদ্যা	-11.7419
▁আইডি	-11.7421
েস	-11.7423
▁নিলেও	-11.7424
▁বঙ্গোপসাগরে	-11.7425
▁গৃহকর্মী	-11.7426
▁পুলিস	-11.7428
▁অ্যাকাডেমি	-11.7432
▁কর্মক্ষেত্রে	-11.7433
▁ফ্লোরিডা	-11.7433
▁দামের	-11.7436
▁মুড়ি	-11.7439
▁স্ট্রোক	-11.744
্নী	-11.7443
▁জেলাকে	-11.7446
▁ভূতাত্ত্বিক	-11.7446
▁কলঙ্ক	-11.7447
▁মধ্যপ্রাচ্যে	-11.7448
▁অজ্ঞাতসারে	-11.7448
▁অতর্কিত	-11.7448
▁কেলেঙ্কারি	-11.7448
▁গ্রেনেড	-11.7448
▁তাড়াহুড়ো	-11.7448
▁ব্যঙ্গ	-11.7448
▁মোতাবেক	-11.7448
▁কোত্থেকে	-11.7448
▁ভুট্টা	-11.7448
▁জেনারেটর	-11.7448
▁সার্টিফিকেট	-11.7448
▁স্বপন	-11.7448
▁বিসিএস	-11.7448
▁প্রাণহানি	-11.7448
▁সোনিয়া	-11.7448
▁টাইপ	-11.7448
▁আশুলিয়া	-11.7448
▁ইডেন	-11.7449
▁উত্তরবঙ্গ	-11.7449
▁ফেলুন	-11.7449
▁জুরি	-11.7449
▁লক্ষ্যবস্তু	-11.745
▁ব্যবসায়ে	-11.745
▁অপহরণকারীরা	-11.7451
▁সমস্যাগুলো	-11.7451
▁বৈরাগ্য	-11.7451
▁ঝাড়খণ্ড	-11.7452
▁শিক্ষাগ্রহণ	-11.7452
▁বুয়েটে	-11.7452
▁মেহেরপুর	-11.7453
▁আসছিলেন	-11.7454
▁অঙ্কিত	-11.7456
▁কান্ড	-11.7457
▁রাখিবার	-11.7458
▁আঃ	-11.7458
▁তরুণেরা	-11.7461
▁বার্ধক্য	-11.7462
▁পার্কার	-11.7463
▁ফিলিপাইনে	-11.7463
▁বংশী	-11.7464
▁বেরোতে	-11.7465
▁বইগুলি	-11.7466
▁ছাড়াইয়া	-11.7466
▁শিখেছি	-11.7468
▁এতদূর	-11.7468
কালের	-11.7471
▁ওয়াও	-11.7474
ঠ	-11.7475
▁গুদাম	-11.748
▁রো	-11.7485
▁সৌভাগ্যের	-11.7485
▁ফজলে	-11.7489
▁কমার্স	-11.7489
▁অদ্বৈতবাদী	-11.7491
▁উত্তরাঞ্চলে	-11.7492
▁সোপান	-11.7498
▁রিকশায়	-11.7499
পাঠ	-11.7501
চর	-11.7501
▁পারিয়া	-11.7501
▁গ্রন্থাগারে	-11.7502
▁মাস্ক	-11.7506
▁তুলিতে	-11.7507
▁মতিন	-11.7511
গুরু	-11.7514
▁বিট	-11.7514
▁কোনদিন	-11.7515
▁জানলা	-11.7515
াকে	-11.7519
▁ফে	-11.752
▁পারস্যের	-11.7521
▁যেরকম	-11.7522
▁গবেষণাগার	-11.7522
তন	-11.7524
▁প্রার্থীকে	-11.7525
▁লোম	-11.7528
▁গেজ	-11.7529
▁মৃত্তিকা	-11.7532
▁কোরিয়ায়	-11.7532
ন্ন	-11.7537
ভাগে	-11.754
▁ভাষাও	-11.7541
▁চার্চে	-11.7541
▁তুলেছিল	-11.7544
▁পথচারী	-11.7546
▁ঝুঁকিতে	-11.7546
▁তাজিকিস্তান	-11.7547
হাজতে	-11.7549
▁রায়কে	-11.7552
▁সুশীল	-11.7552
▁একাত্তর	-11.7554
▁লাইব্রেরী	-11.7557
▁বিহারীকে	-11.756
▁অসৎ	-11.7563
▁লেকচার	-11.7567
▁সূত্রগুলো	-11.7568
▁স্তন	-11.7569
▁আমন্ত্রিত	-11.757
▁ইতস্তত	-11.757
▁জাহানারা	-11.757
▁পঞ্চদশ	-11.757
▁বায়ার্ন	-11.757
▁হার্ডওয়্যার	-11.757
▁পরিশেষে	-11.757
▁থিওরি	-11.757
▁ব্রিগেডিয়ার	-11.757
▁উৎপাত	-11.757
▁বোধগম্য	-11.757
▁অটোমান	-11.757
▁ইমারত	-11.757
▁বিবাহবিচ্ছেদ	-11.757
▁লেখনী	-11.757
▁দুগ্ধ	-11.7571
▁সজীব	-11.7571
▁চাহিলেন	-11.7571
▁কারেন্ট	-11.7571
▁কেন্দ্রস্থল	-11.7571
▁উৎসুক	-11.7571
▁নিকৃষ্ট	-11.7571
▁অগ্রগামী	-11.7572
▁দেওয়াল	-11.7572
▁লিভার	-11.7573
▁নেচে	-11.7573
▁ময়মনসিংহে	-11.7574
▁আলমারি	-11.7575
▁মুকুল	-11.7575
▁মিঠুন	-11.7576
▁চকচকে	-11.7577
▁লিংকন	-11.7578
▁বসলে	-11.7579
▁শেষোক্ত	-11.758
▁ধাঁধা	-11.7581
▁সনিক	-11.7583
▁প্রাঙ্গণ	-11.7583
▁কমতি	-11.7584
দুই	-11.7584
▁বোকার	-11.7588
ণী	-11.7589
▁শ্বেত	-11.7592
▁সুজন	-11.7593
▁হাম	-11.7596
▁ইহুদীদের	-11.7596
▁পরিশ্রমের	-11.7596
▁আসিস	-11.7597
▁ফ্রিজ	-11.7598
র্	-11.7599
▁প্রতিকূলতা	-11.7599
▁আদা	-11.7599
▁ভেজাল	-11.76
▁সেতার	-11.7608
▁সংখ্যায়	-11.7609
▁এমনিতে	-11.761
▁রুল	-11.7612
▁সুতা	-11.7613
▁মতাদর্শ	-11.7614
▁লিপিতে	-11.7618
▁পয়েন্টে	-11.762
▁ঘুষি	-11.7621
▁ঘোরে	-11.7624
▁ধমক	-11.7629
ত্বের	-11.763
▁বাহক	-11.7631
▁পুরুষকে	-11.7632
▁জপ	-11.7638
প্রসাদ	-11.7643
বাজ	-11.7646
হাত	-11.7652
মেন্ট	-11.7652
▁যামিনী	-11.7656
▁দরবার	-11.7657
▁খাওয়াদাওয়া	-11.7658
▁একনিষ্ঠ	-11.7658
▁চুপি	-11.7659
▁দেলোয়ার	-11.766
▁খাদিজা	-11.766
▁প্রাচীরের	-11.7668
▁রুমাল	-11.7672
▁গেলি	-11.7672
▁মহাজন	-11.7675
▁ড্রয়ে	-11.7676
থর	-11.7678
▁সুধীর	-11.768
▁মধ্যস্থতা	-11.768
▁গতিপথ	-11.7682
▁ব্যান্ডটি	-11.7682
▁শীর্ষস্থান	-11.7684
▁আশপাশ	-11.7684
▁লর্ডসে	-11.7684
▁অসন্তুষ্ট	-11.7685
▁পশম	-11.7688
▁বিমানবাহিনী	-11.769
▁শীতকাল	-11.7691
▁রুক্ষ	-11.7692
▁হাফ	-11.7692
পন্যাসিক	-11.7693
▁ডার্লিং	-11.7693
▁অটুট	-11.7693
▁আগ্নেয়াস্ত্র	-11.7693
▁শিফট	-11.7693
▁সজাগ	-11.7693
▁উত্তাপ	-11.7693
▁আফিম	-11.7693
▁পেট্রোলিয়াম	-11.7693
▁ঠিকাছে	-11.7693
▁ফোকাস	-11.7693
▁গর্ভপাত	-11.7693
▁ফাটিয়ে	-11.7693
▁প্রেসক্লাবে	-11.7694
▁লিটন	-11.7694
▁রুদ্র	-11.7694
▁জয়নাল	-11.7694
ভূক্ত	-11.7694
▁চিত্রগ্রহণ	-11.7694
▁পুরুলিয়া	-11.7694
▁অযৌক্তিক	-11.7694
▁নিষ্পাপ	-11.7694
▁মহাকর্ষ	-11.7694
▁সাহিত্যচর্চা	-11.7695
▁প্রবর্তিত	-11.7695
▁ভরপুর	-11.7696
▁প্রশ্নটি	-11.7697
▁কাটিয়েছিলেন	-11.7697
▁আমীর	-11.7698
▁জৈবিক	-11.7698
▁মেরু	-11.7699
▁দ্রুতগামী	-11.7699
▁সচিবের	-11.77
▁হামাস	-11.7701
▁বর্ণনায়	-11.7703
▁দুষ্ট	-11.7703
▁দুইজনে	-11.7705
▁সিন	-11.7705
▁খুড়া	-11.7706
▁ধরেছি	-11.7707
▁বেধে	-11.7708
▁বুঝাইয়া	-11.7708
▁শূন্যে	-11.7709
▁অর্থায়নে	-11.771
▁রুচি	-11.771
▁জন্মগ্রহণকারী	-11.771
▁কেপ	-11.7711
পুলিশ	-11.7714
▁বেঞ্চ	-11.7716
▁লোভে	-11.7716
▁জবাই	-11.772
▁ক্লান্তি	-11.7724
▁রণাঙ্গনে	-11.7725
▁গেছিস	-11.7726
▁করিতেছিলেন	-11.7726
▁পরিমাপের	-11.773
▁ইউনিয়নটি	-11.7732
▁শৈশবেই	-11.7732
▁আমেরিকাতে	-11.7732
জুলফিকার	-11.7736
▁প্রদেশটি	-11.774
▁হানিফা	-11.7753
রু	-11.7755
▁শাসনকালে	-11.7756
টেক	-11.7756
▁বোর	-11.7757
ত্যাগ	-11.7758
▁লাঞ্চ	-11.776
ুড়	-11.7762
দু	-11.7762
▁জিয়ার	-11.7763
▁মতের	-11.7764
▁প্রত্যেকটা	-11.7766
▁উপবাস	-11.7767
▁কাগজটি	-11.7767
▁বোঝাপড়া	-11.7767
দৈর্ঘ্য	-11.7768
▁চেয়েছিলে	-11.777
ায়ন	-11.7773
▁কারোর	-11.7774
ছাত্রীদের	-11.7774
▁দাদাকে	-11.7774
▁কালই	-11.7776
▁খাদে	-11.7777
▁মুঠোফোনের	-11.7778
ডেন	-11.7779
▁সেন্টারের	-11.7781
▁গড়নের	-11.7783
▁চক্রান্ত	-11.7785
▁চাচার	-11.7785
▁কাটায়	-11.7785
▁তিমি	-11.7785
▁সার্কিট	-11.7785
▁ক্লাবটির	-11.7788
কণ্ঠে	-11.7788
▁দারোয়ান	-11.7793
▁বৎসরের	-11.7794
▁গুয়াহাটি	-11.78
▁মাদকাসক্ত	-11.7802
▁দিয়াছিল	-11.7805
▁ছয়জনকে	-11.7806
▁ক্রমবিকাশ	-11.7809
▁বৌদ্ধধর্মে	-11.7814
▁বিধায়	-11.7814
▁সদরে	-11.7816
▁প্রাসঙ্গিক	-11.7817
▁হ্যাম্পশায়ার	-11.7818
▁আলোচ্য	-11.7818
▁প্রিসাইডিং	-11.7818
▁বয়ফ্রেন্ড	-11.7818
▁বাচ্চু	-11.7818
▁শৈল্পিক	-11.7818
▁সার্বক্ষণিক	-11.7818
▁টানাটানি	-11.7818
▁ইজিবাইক	-11.7818
▁হিমবাহ	-11.7818
▁দৃষ্টিনন্দন	-11.7818
▁স্মৃতিস্তম্ভ	-11.7818
▁মতবিনিময়	-11.7818
▁আসুক	-11.7819
▁নক্ষত্ররায়ের	-11.7819
▁সংঘবদ্ধ	-11.7819
▁মেখে	-11.7819
▁আলেপ্পো	-11.7819
▁হানাদার	-11.7819
▁আগ্রাসন	-11.7819
▁অ্যালেন	-11.782
▁ভাসানী	-11.7821
▁স্পর্ধা	-11.7821
▁দ্যা	-11.7822
▁মৃৎশিল্প	-11.7822
▁স্ক্যান	-11.7826
▁গোপনীয়তা	-11.7826
▁তৃষ্ণা	-11.7827
▁খাবি	-11.7828
হো	-11.7829
▁চুন	-11.7829
▁স্টোন	-11.7832
দগাহ	-11.7835
▁ফেলেছিলেন	-11.7838
▁পরার	-11.7838
পুরুষের	-11.784
ানোর	-11.7842
▁শিকল	-11.7843
▁পাঠাচ্ছি	-11.7844
▁ঘটনাকে	-11.7844
▁পাহারায়	-11.7844
প্রক্রিয়া	-11.7845
▁মাহি	-11.7852
▁ওড়িয়া	-11.7853
▁বর্ষায়	-11.7854
পরায়ণ	-11.7855
▁অন্নদা	-11.7857
নতুন	-11.7858
▁পড়বেন	-11.7859
▁বোঝ	-11.7861
▁আসেননি	-11.7862
▁প্রেমিকা	-11.7862
▁যৌবনে	-11.7865
▁যুদ্ধাপরাধী	-11.7866
সভায়	-11.7869
▁বসি	-11.7871
▁যাত্রাপথে	-11.7872
▁ছায়ার	-11.7877
▁ফিরি	-11.7877
কেউ	-11.7878
▁জুনি	-11.7882
▁রেকর্ডটি	-11.7885
▁আগ্রহে	-11.7886
▁কৃত	-11.7888
▁শাহী	-11.7888
▁প্রকাশে	-11.7892
সুলভ	-11.7893
বিন্দু	-11.7894
▁বাকিদের	-11.7896
বিদেশি	-11.7896
েয়	-11.7898
▁অ্যান	-11.7901
মিল	-11.7905
▁সম্পাদকীয়	-11.7906
▁চিৎকারে	-11.7908
▁লাইনটি	-11.791
লিন	-11.791
▁তেজগাঁও	-11.7911
▁বালা	-11.7913
▁জেলের	-11.7916
▁মিউনিখ	-11.7916
▁বাল্যকাল	-11.7919
▁হ্যারিস	-11.7921
▁ইজতেমা	-11.7921
▁কমার	-11.7922
▁পুষ্প	-11.7924
▁জ্বরে	-11.7924
▁ভালই	-11.7925
▁কাপুরের	-11.7925
▁ঐটা	-11.7926
▁আইটি	-11.7927
▁উদ্যানে	-11.793
▁সংগ্রহশালা	-11.793
▁ভালোমতো	-11.7933
▁টরন্টো	-11.7933
▁প্রচেষ্টার	-11.7939
▁ব্রুস	-11.794
▁সুদীর্ঘ	-11.7943
▁মনজুর	-11.7944
▁অপচয়	-11.7945
▁এন্টারপ্রাইজ	-11.7945
▁এসোসিয়েশন	-11.7945
▁দণ্ডায়মান	-11.7945
▁প্রযোজিত	-11.7945
▁শায়েস্তা	-11.7945
▁অগণিত	-11.7945
▁অনুপযোগী	-11.7945
▁লাজুক	-11.7945
▁হলফনামা	-11.7945
▁হ্যাটট্রিক	-11.7945
▁কোষাধ্যক্ষ	-11.7945
▁ফাঁড়ি	-11.7945
▁নহিলে	-11.7945
▁তাজমহল	-11.7946
▁ব্রাজিলিয়ান	-11.7946
▁দেখলুম	-11.7946
▁আখাউড়া	-11.7946
▁খোসা	-11.7946
▁ইংরাজী	-11.7947
▁লিডার	-11.7947
▁মৈত্রী	-11.7947
▁কাম্য	-11.7947
▁নেত্রকোণা	-11.7947
▁সবেমাত্র	-11.7947
▁থেরাপি	-11.7947
▁ভাষাভাষী	-11.7948
▁উঠিয়াছিল	-11.795
▁হল্যান্ড	-11.795
▁সাশ্রয়ী	-11.795
▁রেটিং	-11.7951
▁মেলেনি	-11.7952
▁জন্মদিনে	-11.7954
▁ভানু	-11.7957
বাবুর	-11.7959
▁শেন	-11.7961
▁কন্যাকে	-11.7962
▁এসেই	-11.7962
▁সংস্থাগুলি	-11.7963
▁বিদ্রোহীরা	-11.7965
▁পারিলাম	-11.7966
▁অনুসারীরা	-11.7967
▁কুমারের	-11.7968
▁সাধারণতঃ	-11.7968
দলের	-11.7968
দৃষ্টি	-11.7971
▁দেরিতে	-11.7973
▁উপদ্বীপে	-11.7977
কারণ	-11.7977
▁জিনগত	-11.798
▁দেখালে	-11.7981
▁রুটিন	-11.7984
▁পিকআপ	-11.799
▁নরক	-11.799
▁জেরুসালেম	-11.7991
▁আনাম	-11.7994
▁পল্টন	-11.7995
▁শির	-11.7995
▁লাইব্রেরিতে	-11.8004
▁বিন্দুতে	-11.8007
▁ক্যারিয়ারে	-11.8011
▁প্রযুক্তিতে	-11.8012
জনক	-11.8013
▁পরিহার	-11.8014
টোয়েন্টিতে	-11.8018
▁পুতুলের	-11.8021
▁জাগ	-11.8022
▁ভিক্ষুক	-11.8023
▁আসতেই	-11.8023
▁আঁট	-11.8027
▁জেট	-11.8027
বন্ধু	-11.8027
▁সাং	-11.8029
▁ব্যাটালিয়ন	-11.8029
▁হাকিমের	-11.803
▁তিনটায়	-11.803
▁অ্যান্টি	-11.8031
▁কুতুব	-11.8032
▁ধরল	-11.8033
▁পান্ডা	-11.8033
▁রসায়নে	-11.8034
▁যুবকদের	-11.8034
▁আনারস	-11.8037
▁ট্যাঙ্ক	-11.8037
▁উক্তি	-11.8039
▁রক্ষণ	-11.8042
▁অ্যাড	-11.8052
▁আলেম	-11.8054
▁উচ্চশিক্ষার	-11.8054
▁উদাসীন	-11.8057
▁পর্যবেক্ষক	-11.8058
▁মাইক্রোবাসে	-11.8058
▁পেশাজীবী	-11.8058
▁অমৃত	-11.8059
▁অরুণ	-11.8059
▁অস্ত	-11.8059
▁ওঠ	-11.806
▁কাপুরুষ	-11.8064
▁দৃশ্যের	-11.8064
▁ময়দা	-11.8064
▁বিশ্বাসযোগ্য	-11.8066
ন্ট	-11.8068
▁রোমানিয়া	-11.8069
▁শরৎ	-11.8069
▁ঐতিহ্যগত	-11.8072
▁ট্রানজিট	-11.8073
▁নটিংহ্যামশায়ার	-11.8073
▁উপজীব্য	-11.8073
▁খুঁটিনাটি	-11.8073
▁গৃহবধূ	-11.8073
▁ততোধিক	-11.8073
▁প্রতীয়মান	-11.8073
▁ফতোয়া	-11.8073
▁ব্যাডমিন্টন	-11.8073
▁কারুকাজ	-11.8073
▁ট্যানারি	-11.8073
▁সুভাষচন্দ্র	-11.8073
▁উচ্চমাধ্যমিক	-11.8073
▁সোনামণি	-11.8074
▁ওয়ার্নার	-11.8074
▁স্ক্রিপ্ট	-11.8074
▁আপেল	-11.8074
▁বিতরণের	-11.8075
▁বাজারজাত	-11.8076
▁শ্বাসকষ্ট	-11.8077
▁জুস	-11.8077
▁কতখানি	-11.8078
▁মর্নিং	-11.8078
▁তরফ	-11.8079
▁দাদি	-11.808
▁ডিএসইতে	-11.8082
▁অধিকৃত	-11.8082
▁মাইন	-11.8083
▁স্তম্ভিত	-11.8084
গ্রহণ	-11.8084
▁ছাড়িতে	-11.8085
▁করিতাম	-11.8086
▁নির্বিঘ্নে	-11.8086
▁তীরবর্তী	-11.8087
▁নমনীয়	-11.8088
▁বাজনা	-11.8089
▁সাইফ	-11.809
▁এটিএম	-11.8092
▁সমভাবে	-11.8092
▁আলোকচিত্রী	-11.8096
▁সেভিয়ার	-11.8097
▁কৈশোরে	-11.8097
চ্ছে	-11.8103
▁অধ্যুষিত	-11.8104
ভূত	-11.8104
▁ভূমিকার	-11.8106
▁লণ্ডনে	-11.8108
▁অঞ্চলকে	-11.811
▁একাজ	-11.8112
▁বাচ্চাটাকে	-11.8115
▁নাসের	-11.8115
▁অনেককে	-11.8121
▁ছয়টায়	-11.8122
▁পুনর্	-11.8123
র্গত	-11.8124
▁জীবনেও	-11.8124
▁নাবিক	-11.8127
▁পাঁচটায়	-11.8129
▁বিকালে	-11.8131
▁ফিরেছে	-11.8133
▁ওয়েলিংটন	-11.8134
▁পরিবেশিত	-11.8135
▁কেয়ার	-11.8142
▁শ্রীপুর	-11.8143
▁প্রবাসে	-11.8146
▁অন্যজন	-11.8148
▁মালিককে	-11.8149
▁পড়ছিল	-11.815
▁অসাধ্য	-11.815
▁কথাগুলি	-11.8152
▁তাঁহারই	-11.8152
▁কিস	-11.8155
▁সাহারা	-11.8155
▁ইনস্টিটিউটে	-11.8156
▁শুনানিতে	-11.8159
▁শিশুশ্রম	-11.8164
▁বিষয়কে	-11.8165
▁মির	-11.8175
অন	-11.8176
▁সৃষ্টিকর্তা	-11.8177
▁পার্কিং	-11.8177
▁ডালে	-11.8178
▁খানম	-11.8178
▁বিরুদ্ধেও	-11.8179
▁নামী	-11.818
▁বাংলাদেশেও	-11.8183
হান	-11.8184
▁ভিটা	-11.8184
▁মানববন্ধনে	-11.8184
▁কাঠমান্ডু	-11.8186
▁বন্ধনী	-11.8187
▁স্পষ্টভাবে	-11.8187
গাধ	-11.8188
▁গুন্ডা	-11.8188
▁পেরু	-11.8189
▁সুফিয়া	-11.819
বেলা	-11.8192
▁অন্তরঙ্গ	-11.8194
▁অনুগামী	-11.8196
▁উপনিষদে	-11.8201
▁আগাগোড়া	-11.8203
▁দূর্ঘটনা	-11.8203
▁নামাঙ্কিত	-11.8203
▁পারভীন	-11.8203
▁বেণু	-11.8203
▁মূসক	-11.8203
▁মোজাম্মেল	-11.8203
▁শরণাপন্ন	-11.8203
▁সুদৃঢ়	-11.8203
▁অগ্রিম	-11.8203
▁গণজাগরণ	-11.8203
▁ডিস্ট্রিবিউশন	-11.8203
▁সাদ্দাম	-11.8203
▁মোমবাতি	-11.8203
▁গামছা	-11.8203
▁গণপরিষদ	-11.8203
▁কোলাহল	-11.8203
▁ত্রিভুজ	-11.8203
▁ক্লিনটন	-11.8203
▁আসাদুজ্জামান	-11.8203
▁বপন	-11.8203
ব্	-11.8203
▁দুষ্টু	-11.8203
▁প্রশ্নবিদ্ধ	-11.8203
▁সমাজকল্যাণ	-11.8203
▁অসমাপ্ত	-11.8204
▁সারিবদ্ধ	-11.8204
▁ইসরাইল	-11.8204
▁হাইকমিশনার	-11.8204
▁হুট	-11.8205
▁ফেললাম	-11.8205
▁ট্যাগ	-11.8206
▁উপাত্ত	-11.8207
▁খুকি	-11.8207
▁ডাকিল	-11.8208
▁সদরঘাট	-11.8208
▁বিক্ষুব্ধ	-11.8209
▁পরিচয়ে	-11.8209
▁ঢাকনা	-11.8211
▁পরিকল্পিতভাবে	-11.8213
▁পাপী	-11.8215
▁দর্শনার্থীদের	-11.8216
▁ছায়াপথ	-11.8218
▁টুইটার	-11.8218
▁মেল	-11.8224
▁ফরিদা	-11.8225
▁সাজে	-11.8228
▁বেলাল	-11.8232
▁অশান্তি	-11.8232
▁হরণ	-11.8232
▁জাভা	-11.8235
▁চৌকিতে	-11.8235
মতে	-11.8237
▁জমিদারদের	-11.8237
▁বাঁচে	-11.8237
▁বিলটি	-11.8238
▁ক্রু	-11.8238
▁কায়রোতে	-11.8242
▁সীমার	-11.8247
▁মম	-11.8248
▁নাগরিকের	-11.8249
▁সমর্থিত	-11.8249
▁আনলে	-11.8249
▁ফ্লাইটে	-11.825
▁অনুপস্থিতি	-11.8252
▁বেদী	-11.8253
▁সাতবার	-11.8258
য়াত	-11.8259
▁সমানভাবে	-11.8263
▁নহেন	-11.8263
বনাম	-11.8264
▁মস্তক	-11.8274
▁রাতটা	-11.8276
শ্রী	-11.828
[...]
